{
  "version": "1.0",
  "truncation": null,
  "padding": null,
  "added_tokens": [
    {
      "id": 0,
      "content": "[PAD]",
      "single_word": false,
      "lstrip": false,
      "rstrip": false,
      "normalized": false,
      "special": true
    },
    {
      "id": 1,
      "content": "[UNK]",
      "single_word": false,
      "lstrip": false,
      "rstrip": false,
      "normalized": false,
      "special": true
    },
    {
      "id": 2,
      "content": "<s>",
      "single_word": false,
      "lstrip": false,
      "rstrip": false,
      "normalized": false,
      "special": true
    },
    {
      "id": 3,
      "content": "</s>",
      "single_word": false,
      "lstrip": false,
      "rstrip": false,
      "normalized": false,
      "special": true
    }
  ],
  "normalizer": {
    "type": "Sequence",
    "normalizers": [
      {
        "type": "NFD"
      },
      {
        "type": "Lowercase"
      },
      {
        "type": "StripAccents"
      }
    ]
  },
  "pre_tokenizer": {
    "type": "Whitespace"
  },
  "post_processor": null,
  "decoder": null,
  "model": {
    "type": "BPE",
    "dropout": null,
    "unk_token": null,
    "continuing_subword_prefix": null,
    "end_of_word_suffix": null,
    "fuse_unk": false,
    "byte_fallback": false,
    "ignore_merges": false,
    "vocab": {
      "[PAD]": 0,
      "[UNK]": 1,
      "<s>": 2,
      "</s>": 3,
      "!": 4,
      "\"": 5,
      "#": 6,
      "$": 7,
      "%": 8,
      "&": 9,
      "'": 10,
      "(": 11,
      ")": 12,
      "*": 13,
      "+": 14,
      ",": 15,
      "-": 16,
      ".": 17,
      "/": 18,
      "0": 19,
      "1": 20,
      "2": 21,
      "3": 22,
      "4": 23,
      "5": 24,
      "6": 25,
      "7": 26,
      "8": 27,
      "9": 28,
      ":": 29,
      ";": 30,
      "<": 31,
      "=": 32,
      ">": 33,
      "?": 34,
      "@": 35,
      "[": 36,
      "\\": 37,
      "]": 38,
      "_": 39,
      "`": 40,
      "a": 41,
      "b": 42,
      "c": 43,
      "d": 44,
      "e": 45,
      "f": 46,
      "g": 47,
      "h": 48,
      "i": 49,
      "j": 50,
      "k": 51,
      "l": 52,
      "m": 53,
      "n": 54,
      "o": 55,
      "p": 56,
      "q": 57,
      "r": 58,
      "s": 59,
      "t": 60,
      "u": 61,
      "v": 62,
      "w": 63,
      "x": 64,
      "y": 65,
      "z": 66,
      "{": 67,
      "|": 68,
      "}": 69,
      "~": 70,
      "¡": 71,
      "¢": 72,
      "£": 73,
      "¤": 74,
      "¥": 75,
      "¦": 76,
      "§": 77,
      "¨": 78,
      "©": 79,
      "ª": 80,
      "«": 81,
      "¬": 82,
      "­": 83,
      "®": 84,
      "¯": 85,
      "°": 86,
      "±": 87,
      "²": 88,
      "³": 89,
      "´": 90,
      "µ": 91,
      "¶": 92,
      "·": 93,
      "¸": 94,
      "¹": 95,
      "º": 96,
      "»": 97,
      "¼": 98,
      "½": 99,
      "¾": 100,
      "¿": 101,
      "æ": 102,
      "ð": 103,
      "œ": 104,
      "ƒ": 105,
      "ˆ": 106,
      "˜": 107,
      "–": 108,
      "‘": 109,
      "’": 110,
      "‚": 111,
      "“": 112,
      "”": 113,
      "„": 114,
      "†": 115,
      "‡": 116,
      "•": 117,
      "…": 118,
      "‰": 119,
      "‹": 120,
      "›": 121,
      "€": 122,
      "™": 123,
      "he": 124,
      "the": 125,
      "an": 126,
      "ed": 127,
      "to": 128,
      "and": 129,
      "in": 130,
      "it": 131,
      "re": 132,
      "ou": 133,
      "as": 134,
      "on": 135,
      "ha": 136,
      "er": 137,
      "was": 138,
      "ar": 139,
      "en": 140,
      "ay": 141,
      "she": 142,
      "ing": 143,
      "om": 144,
      "is": 145,
      "il": 146,
      "id": 147,
      "sa": 148,
      "le": 149,
      "they": 150,
      "al": 151,
      "lo": 152,
      "im": 153,
      "or": 154,
      "her": 155,
      "st": 156,
      "th": 157,
      "ir": 158,
      "at": 159,
      "be": 160,
      "hat": 161,
      "ver": 162,
      "no": 163,
      "ut": 164,
      "you": 165,
      "ke": 166,
      "se": 167,
      "ck": 168,
      "ld": 169,
      "ce": 170,
      "said": 171,
      "so": 172,
      "ve": 173,
      "ri": 174,
      "tim": 175,
      "ily": 176,
      "we": 177,
      "pl": 178,
      "his": 179,
      "am": 180,
      "wit": 181,
      "with": 182,
      "pp": 183,
      "mom": 184,
      "ad": 185,
      "one": 186,
      "ig": 187,
      "lily": 188,
      "of": 189,
      "un": 190,
      "ok": 191,
      "that": 192,
      "ly": 193,
      "day": 194,
      "very": 195,
      "but": 196,
      "ome": 197,
      "li": 198,
      "do": 199,
      "go": 200,
      "ho": 201,
      "ne": 202,
      "up": 203,
      "my": 204,
      "ted": 205,
      "bo": 206,
      "es": 207,
      "play": 208,
      "had": 209,
      "ch": 210,
      "for": 211,
      "all": 212,
      "ro": 213,
      "fe": 214,
      "ould": 215,
      "end": 216,
      "ked": 217,
      "tle": 218,
      "happ": 219,
      "wan": 220,
      "oun": 221,
      "ge": 222,
      "are": 223,
      "ent": 224,
      "ma": 225,
      "not": 226,
      "there": 227,
      "lit": 228,
      "ound": 229,
      "little": 230,
      "ther": 231,
      "time": 232,
      "out": 233,
      "ry": 234,
      "ra": 235,
      "ht": 236,
      "happy": 237,
      "sm": 238,
      "big": 239,
      "fri": 240,
      "saw": 241,
      "some": 242,
      "look": 243,
      "friend": 244,
      ".\"": 245,
      "ack": 246,
      "thing": 247,
      "ul": 248,
      "ide": 249,
      "!\"": 250,
      "ug": 251,
      "ved": 252,
      "were": 253,
      "once": 254,
      "way": 255,
      "sp": 256,
      "whe": 257,
      "car": 258,
      "him": 259,
      "ter": 260,
      "tom": 261,
      "can": 262,
      "su": 263,
      "irl": 264,
      "el": 265,
      "wanted": 266,
      "ben": 267,
      "girl": 268,
      "upon": 269,
      "their": 270,
      "ful": 271,
      "them": 272,
      "mo": 273,
      "co": 274,
      "ill": 275,
      "hel": 276,
      "me": 277,
      "did": 278,
      "smil": 279,
      "could": 280,
      "have": 281,
      "fr": 282,
      "ec": 283,
      "sh": 284,
      "ex": 285,
      "ind": 286,
      "ag": 287,
      "went": 288,
      "ta": 289,
      "new": 290,
      "help": 291,
      "od": 292,
      "nam": 293,
      "?\"": 294,
      "what": 295,
      "friends": 296,
      "ard": 297,
      "when": 298,
      "um": 299,
      "back": 300,
      "say": 301,
      "fel": 302,
      "wn": 303,
      "ur": 304,
      "like": 305,
      "from": 306,
      "fo": 307,
      "fun": 308,
      "man": 309,
      "side": 310,
      "che": 311,
      "ark": 312,
      "too": 313,
      "then": 314,
      "ran": 315,
      "ic": 316,
      "ght": 317,
      "jo": 318,
      "timmy": 319,
      "star": 320,
      "every": 321,
      "la": 322,
      "smiled": 323,
      "named": 324,
      "pr": 325,
      "loved": 326,
      "sto": 327,
      "see": 328,
      "asked": 329,
      "ain": 330,
      "toy": 331,
      "now": 332,
      "felt": 333,
      "low": 334,
      "looked": 335,
      "ts": 336,
      "pe": 337,
      "ick": 338,
      "around": 339,
      "how": 340,
      "ab": 341,
      "ame": 342,
      "bir": 343,
      "make": 344,
      "would": 345,
      "boy": 346,
      "wor": 347,
      "bird": 348,
      "ong": 349,
      "other": 350,
      "ice": 351,
      "ree": 352,
      "na": 353,
      "gr": 354,
      "ca": 355,
      "mommy": 356,
      "than": 357,
      "mad": 358,
      "op": 359,
      ",\"": 360,
      "away": 361,
      "toge": 362,
      "together": 363,
      "dad": 364,
      "ss": 365,
      "dd": 366,
      "says": 367,
      "started": 368,
      "wat": 369,
      "oud": 370,
      "ie": 371,
      "want": 372,
      "something": 373,
      "made": 374,
      "came": 375,
      "ited": 376,
      "park": 377,
      "if": 378,
      "sad": 379,
      "put": 380,
      "good": 381,
      "ight": 382,
      "let": 383,
      "exc": 384,
      "got": 385,
      "who": 386,
      "lu": 387,
      "scar": 388,
      "mu": 389,
      "home": 390,
      "again": 391,
      "wal": 392,
      "get": 393,
      "ave": 394,
      "wo": 395,
      "ll": 396,
      "found": 397,
      "ep": 398,
      "ried": 399,
      "dec": 400,
      "pped": 401,
      "qu": 402,
      "ure": 403,
      "more": 404,
      "hug": 405,
      "by": 406,
      "playing": 407,
      "ought": 408,
      "king": 409,
      "ach": 410,
      "po": 411,
      "wh": 412,
      "things": 413,
      "excited": 414,
      "der": 415,
      "your": 416,
      "liked": 417,
      "ny": 418,
      "yes": 419,
      "sam": 420,
      "ous": 421,
      "ara": 422,
      "ided": 423,
      "sha": 424,
      "fa": 425,
      "decided": 426,
      "af": 427,
      "ouse": 428,
      "ty": 429,
      "care": 430,
      "dog": 431,
      "bu": 432,
      "this": 433,
      "arn": 434,
      "scared": 435,
      "down": 436,
      "ru": 437,
      "use": 438,
      "find": 439,
      "take": 440,
      "clo": 441,
      "ju": 442,
      "anna": 443,
      "sara": 444,
      "ate": 445,
      "will": 446,
      "feel": 447,
      "come": 448,
      "ways": 449,
      "our": 450,
      "max": 451,
      "ang": 452,
      "sor": 453,
      "pre": 454,
      "always": 455,
      "bb": 456,
      "about": 457,
      "took": 458,
      "spec": 459,
      "te": 460,
      "toys": 461,
      "didn": 462,
      "ise": 463,
      "old": 464,
      "outside": 465,
      "ally": 466,
      "tree": 467,
      "ers": 468,
      "thought": 469,
      "learn": 470,
      "cat": 471,
      "ive": 472,
      "ened": 473,
      "ched": 474,
      "de": 475,
      "room": 476,
      "fore": 477,
      "mi": 478,
      "ite": 479,
      "know": 480,
      "ant": 481,
      "ial": 482,
      "wa": 483,
      "don": 484,
      "laug": 485,
      "special": 486,
      "sudd": 487,
      "sudden": 488,
      "inside": 489,
      "knew": 490,
      "ged": 491,
      "run": 492,
      "sorry": 493,
      "any": 494,
      "ball": 495,
      "sw": 496,
      "just": 497,
      "suddenly": 498,
      "ink": 499,
      "never": 500,
      "house": 501,
      "ble": 502,
      "ish": 503,
      "after": 504,
      "us": 505,
      "red": 506,
      "show": 507,
      "lf": 508,
      "jack": 509,
      "ist": 510,
      "much": 511,
      "led": 512,
      "hand": 513,
      "sun": 514,
      "dre": 515,
      "fin": 516,
      "careful": 517,
      "ot": 518,
      "cle": 519,
      "ven": 520,
      "cre": 521,
      "sk": 522,
      "arm": 523,
      "gave": 524,
      "hed": 525,
      "into": 526,
      "tried": 527,
      "long": 528,
      "water": 529,
      "told": 530,
      "ast": 531,
      "box": 532,
      "each": 533,
      "over": 534,
      "proud": 535,
      "pa": 536,
      "heard": 537,
      "dy": 538,
      "read": 539,
      "love": 540,
      "gre": 541,
      "har": 542,
      "thank": 543,
      "eat": 544,
      "br": 545,
      "cl": 546,
      "ump": 547,
      "pick": 548,
      "pret": 549,
      "ear": 550,
      "played": 551,
      "couldn": 552,
      "mia": 553,
      "cause": 554,
      "ion": 555,
      "because": 556,
      "hugged": 557,
      "unt": 558,
      "off": 559,
      "bear": 560,
      "right": 561,
      "exp": 562,
      "where": 563,
      "nice": 564,
      "ile": 565,
      "fly": 566,
      "com": 567,
      "need": 568,
      "many": 569,
      "try": 570,
      "shed": 571,
      "flow": 572,
      "lad": 573,
      "ac": 574,
      "small": 575,
      "ving": 576,
      "anim": 577,
      "bet": 578,
      "animal": 579,
      "rabb": 580,
      "oug": 581,
      "shin": 582,
      "ting": 583,
      "ough": 584,
      "ber": 585,
      "its": 586,
      "even": 587,
      "until": 588,
      "fi": 589,
      "self": 590,
      "soon": 591,
      "per": 592,
      "bed": 593,
      "iz": 594,
      "kind": 595,
      "learned": 596,
      "everyone": 597,
      "bea": 598,
      "ket": 599,
      "better": 600,
      "bro": 601,
      "call": 602,
      "ace": 603,
      "vent": 604,
      "cy": 605,
      "give": 606,
      "best": 607,
      "tur": 608,
      "pu": 609,
      "bra": 610,
      "ass": 611,
      "et": 612,
      "hur": 613,
      "explo": 614,
      "spot": 615,
      "gard": 616,
      "garden": 617,
      "tre": 618,
      "cks": 619,
      "beaut": 620,
      "ol": 621,
      "fle": 622,
      "rea": 623,
      "thanked": 624,
      "sky": 625,
      "laughed": 626,
      "jump": 627,
      "sho": 628,
      "under": 629,
      "sur": 630,
      "safe": 631,
      "joy": 632,
      "tru": 633,
      "ase": 634,
      "ple": 635,
      "loud": 636,
      "list": 637,
      "lly": 638,
      "pt": 639,
      "ft": 640,
      "iful": 641,
      "beautiful": 642,
      "lots": 643,
      "still": 644,
      "rong": 645,
      "fam": 646,
      "ama": 647,
      "ning": 648,
      "animals": 649,
      "rain": 650,
      "joh": 651,
      "stay": 652,
      "mum": 653,
      "john": 654,
      "win": 655,
      "won": 656,
      "book": 657,
      "both": 658,
      "igh": 659,
      "ell": 660,
      "two": 661,
      "bad": 662,
      "cu": 663,
      "hard": 664,
      "turn": 665,
      "keep": 666,
      "ople": 667,
      "lived": 668,
      "people": 669,
      "okay": 670,
      "ct": 671,
      "brave": 672,
      "lucy": 673,
      "row": 674,
      "walked": 675,
      "should": 676,
      "ground": 677,
      "surpr": 678,
      "angry": 679,
      "family": 680,
      "flew": 681,
      "ort": 682,
      "called": 683,
      "sure": 684,
      "ished": 685,
      "ine": 686,
      "hurt": 687,
      "app": 688,
      "door": 689,
      "while": 690,
      "kept": 691,
      "con": 692,
      "real": 693,
      "share": 694,
      "before": 695,
      "fast": 696,
      "lue": 697,
      "ane": 698,
      "ised": 699,
      "pic": 700,
      "going": 701,
      "pretty": 702,
      "xt": 703,
      "ser": 704,
      "sl": 705,
      "clean": 706,
      "next": 707,
      "may": 708,
      "lot": 709,
      "why": 710,
      "advent": 711,
      "imp": 712,
      "able": 713,
      "noise": 714,
      "opened": 715,
      "shiny": 716,
      "doll": 717,
      "cry": 718,
      "explore": 719,
      "feeling": 720,
      "place": 721,
      "grand": 722,
      "illy": 723,
      "kit": 724,
      "dra": 725,
      "also": 726,
      "em": 727,
      "lie": 728,
      "€™": 729,
      "ild": 730,
      "mem": 731,
      "ied": 732,
      "mar": 733,
      "idea": 734,
      "nodd": 735,
      "bob": 736,
      "colo": 737,
      "uck": 738,
      "nodded": 739,
      "blue": 740,
      "tal": 741,
      "fish": 742,
      "picked": 743,
      "color": 744,
      "hear": 745,
      "set": 746,
      "walking": 747,
      "clim": 748,
      "ask": 749,
      "head": 750,
      "work": 751,
      "face": 752,
      "has": 753,
      "ren": 754,
      "adventure": 755,
      "smile": 756,
      "par": 757,
      "ring": 758,
      "being": 759,
      "less": 760,
      "ture": 761,
      "maybe": 762,
      "finally": 763,
      "looking": 764,
      "ies": 765,
      "iced": 766,
      "vo": 767,
      "bye": 768,
      "hair": 769,
      "ious": 770,
      "wait": 771,
      "dif": 772,
      "listen": 773,
      "food": 774,
      "walk": 775,
      "ever": 776,
      "ste": 777,
      "picture": 778,
      "think": 779,
      "night": 780,
      "remem": 781,
      "da": 782,
      "used": 783,
      "les": 784,
      "eyes": 785,
      "ught": 786,
      "here": 787,
      "stopped": 788,
      "cook": 789,
      "great": 790,
      "own": 791,
      "sue": 792,
      "flowers": 793,
      "bl": 794,
      "enjoy": 795,
      "squ": 796,
      "year": 797,
      "mon": 798,
      "wonder": 799,
      "remember": 800,
      "repl": 801,
      "blo": 802,
      "quick": 803,
      "ries": 804,
      "import": 805,
      "ess": 806,
      "forest": 807,
      "noticed": 808,
      "hands": 809,
      "near": 810,
      "watch": 811,
      "ized": 812,
      "ph": 813,
      "dan": 814,
      "irst": 815,
      "leave": 816,
      "bun": 817,
      "important": 818,
      "llow": 819,
      "sound": 820,
      "slide": 821,
      "amaz": 822,
      "replied": 823,
      "cho": 824,
      "stop": 825,
      "table": 826,
      "follow": 827,
      "mor": 828,
      "showed": 829,
      "mean": 830,
      "tou": 831,
      "ip": 832,
      "tin": 833,
      "gan": 834,
      "voice": 835,
      "tell": 836,
      "swe": 837,
      "feren": 838,
      "differen": 839,
      "sarah": 840,
      "mag": 841,
      "cream": 842,
      "swing": 843,
      "sing": 844,
      "rabbit": 845,
      "stick": 846,
      "cake": 847,
      "rest": 848,
      "bright": 849,
      "mis": 850,
      "watched": 851,
      "goodbye": 852,
      "bow": 853,
      "truck": 854,
      "please": 855,
      "dis": 856,
      "store": 857,
      "daddy": 858,
      "quickly": 859,
      "been": 860,
      "boat": 861,
      "gu": 862,
      "strong": 863,
      "curi": 864,
      "ner": 865,
      "jane": 866,
      "stand": 867,
      "flo": 868,
      "different": 869,
      "bit": 870,
      "tor": 871,
      "hello": 872,
      "tow": 873,
      "first": 874,
      "became": 875,
      "does": 876,
      "high": 877,
      "ready": 878,
      "closer": 879,
      "curious": 880,
      "key": 881,
      "sand": 882,
      "warm": 883,
      "ummy": 884,
      "joe": 885,
      "ung": 886,
      "ila": 887,
      "laugh": 888,
      "three": 889,
      "fav": 890,
      "fro": 891,
      "grandma": 892,
      "dress": 893,
      "pie": 894,
      "open": 895,
      "lila": 896,
      "rough": 897,
      "leep": 898,
      "ond": 899,
      "ten": 900,
      "pul": 901,
      "anymore": 902,
      "butter": 903,
      "bunny": 904,
      "sit": 905,
      "flower": 906,
      "kid": 907,
      "grabb": 908,
      "ired": 909,
      "only": 910,
      "pain": 911,
      "med": 912,
      "ba": 913,
      "grabbed": 914,
      "yel": 915,
      "fire": 916,
      "light": 917,
      "isy": 918,
      "times": 919,
      "dro": 920,
      "fell": 921,
      "rock": 922,
      "birds": 923,
      "deli": 924,
      "jumped": 925,
      "glad": 926,
      "chen": 927,
      "kitchen": 928,
      "pare": 929,
      "ered": 930,
      "cut": 931,
      "ff": 932,
      "helped": 933,
      "cket": 934,
      "air": 935,
      "outed": 936,
      "prin": 937,
      "brea": 938,
      "ow": 939,
      "sed": 940,
      "top": 941,
      "happened": 942,
      "ash": 943,
      "yummy": 944,
      "wel": 945,
      "rel": 946,
      "grass": 947,
      "bal": 948,
      "tommy": 949,
      "sees": 950,
      "story": 951,
      "shouted": 952,
      "really": 953,
      "having": 954,
      "dow": 955,
      "brother": 956,
      "reached": 957,
      "din": 958,
      "realized": 959,
      "lady": 960,
      "ster": 961,
      "paren": 962,
      "through": 963,
      "favor": 964,
      "draw": 965,
      "favorite": 966,
      "game": 967,
      "coming": 968,
      "bor": 969,
      "piece": 970,
      "soft": 971,
      "zy": 972,
      "tra": 973,
      "magic": 974,
      "pretend": 975,
      "began": 976,
      "ray": 977,
      "world": 978,
      "looks": 979,
      "sweet": 980,
      "kids": 981,
      "done": 982,
      "cra": 983,
      "himself": 984,
      "col": 985,
      "making": 986,
      "wow": 987,
      "sometimes": 988,
      "mouse": 989,
      "prom": 990,
      "pond": 991,
      "waved": 992,
      "move": 993,
      "tired": 994,
      "fix": 995,
      "cked": 996,
      "fill": 997,
      "cars": 998,
      "worry": 999,
      "sn": 1000,
      "ped": 1001,
      "delic": 1002,
      "name": 1003,
      "hold": 1004,
      "cold": 1005,
      "parents": 1006,
      "touch": 1007,
      "sally": 1008,
      "catch": 1009,
      "funny": 1010,
      "another": 1011,
      "farm": 1012,
      "seen": 1013,
      "ater": 1014,
      "pro": 1015,
      "surprise": 1016,
      "ient": 1017,
      "bab": 1018,
      "daisy": 1019,
      "green": 1020,
      "river": 1021,
      "doing": 1022,
      "hopped": 1023,
      "cried": 1024,
      "oney": 1025,
      "blocks": 1026,
      "ds": 1027,
      "cool": 1028,
      "\".": 1029,
      "cor": 1030,
      "ons": 1031,
      "years": 1032,
      "close": 1033,
      "age": 1034,
      "mess": 1035,
      "wood": 1036,
      "turned": 1037,
      "climb": 1038,
      "andy": 1039,
      "snow": 1040,
      "floor": 1041,
      "hind": 1042,
      "sat": 1043,
      "frog": 1044,
      "cla": 1045,
      "behind": 1046,
      "trees": 1047,
      "full": 1048,
      "running": 1049,
      "lesson": 1050,
      "ppy": 1051,
      "window": 1052,
      "ger": 1053,
      "worked": 1054,
      "wear": 1055,
      "plan": 1056,
      "slow": 1057,
      "dark": 1058,
      "yellow": 1059,
      "paper": 1060,
      "likes": 1061,
      "ign": 1062,
      "wished": 1063,
      "swim": 1064,
      "sleep": 1065,
      "baby": 1066,
      "bag": 1067,
      "fl": 1068,
      "happily": 1069,
      "pat": 1070,
      "jim": 1071,
      "tas": 1072,
      "surprised": 1073,
      "teddy": 1074,
      "cas": 1075,
      "butterfly": 1076,
      "carefully": 1077,
      "pet": 1078,
      "benny": 1079,
      "yard": 1080,
      "hole": 1081,
      "lost": 1082,
      "remembered": 1083,
      "held": 1084,
      "race": 1085,
      "sy": 1086,
      "bar": 1087,
      "needed": 1088,
      "buy": 1089,
      "fair": 1090,
      "castle": 1091,
      "arri": 1092,
      "left": 1093,
      "dream": 1094,
      "billy": 1095,
      "anything": 1096,
      "reed": 1097,
      "chil": 1098,
      "ation": 1099,
      "wrong": 1100,
      "enjoyed": 1101,
      "tri": 1102,
      "bug": 1103,
      "dren": 1104,
      "far": 1105,
      "gen": 1106,
      "children": 1107,
      "duck": 1108,
      "followed": 1109,
      "stran": 1110,
      "mat": 1111,
      "ined": 1112,
      "ross": 1113,
      "delicious": 1114,
      "wind": 1115,
      "someone": 1116,
      "hung": 1117,
      "ak": 1118,
      "molly": 1119,
      "finished": 1120,
      "bot": 1121,
      "hot": 1122,
      "friendly": 1123,
      "contin": 1124,
      "dir": 1125,
      "continu": 1126,
      "spo": 1127,
      "tall": 1128,
      "agreed": 1129,
      "herself": 1130,
      "amy": 1131,
      "cess": 1132,
      "vis": 1133,
      "hill": 1134,
      "ather": 1135,
      "understand": 1136,
      "ards": 1137,
      "oken": 1138,
      "tr": 1139,
      "might": 1140,
      "hid": 1141,
      "everywhere": 1142,
      "arrived": 1143,
      "land": 1144,
      "ings": 1145,
      "wonderful": 1146,
      "else": 1147,
      "broken": 1148,
      "zo": 1149,
      "tight": 1150,
      "forgot": 1151,
      "ield": 1152,
      "pink": 1153,
      "most": 1154,
      "squir": 1155,
      "colors": 1156,
      "que": 1157,
      "jen": 1158,
      "ange": 1159,
      "build": 1160,
      "gone": 1161,
      "filled": 1162,
      "coun": 1163,
      "erous": 1164,
      "fur": 1165,
      "ike": 1166,
      "books": 1167,
      "song": 1168,
      "fight": 1169,
      "everything": 1170,
      "squirrel": 1171,
      "mother": 1172,
      "lion": 1173,
      "wi": 1174,
      "continued": 1175,
      "creat": 1176,
      "asure": 1177,
      "ches": 1178,
      "art": 1179,
      "wants": 1180,
      "leaves": 1181,
      "ced": 1182,
      "later": 1183,
      "getting": 1184,
      "enough": 1185,
      "fru": 1186,
      "morning": 1187,
      "mama": 1188,
      "moment": 1189,
      "fall": 1190,
      "oh": 1191,
      "cookies": 1192,
      "break": 1193,
      "stayed": 1194,
      "poin": 1195,
      "pen": 1196,
      "beach": 1197,
      "ze": 1198,
      "scary": 1199,
      "whis": 1200,
      "stu": 1201,
      "few": 1202,
      "dinner": 1203,
      "tain": 1204,
      "today": 1205,
      "spark": 1206,
      "fect": 1207,
      "hungry": 1208,
      "wet": 1209,
      "ence": 1210,
      "dr": 1211,
      "amazing": 1212,
      "trying": 1213,
      "perfect": 1214,
      "pack": 1215,
      "fas": 1216,
      "plain": 1217,
      "bee": 1218,
      "makes": 1219,
      "others": 1220,
      "asks": 1221,
      "climbed": 1222,
      "talk": 1223,
      "mus": 1224,
      "pictures": 1225,
      "cover": 1226,
      "tail": 1227,
      "spl": 1228,
      "kno": 1229,
      "icy": 1230,
      "white": 1231,
      "tw": 1232,
      "sis": 1233,
      "ton": 1234,
      "pes": 1235,
      "hi": 1236,
      "listened": 1237,
      "fox": 1238,
      "brown": 1239,
      "smiles": 1240,
      "ballo": 1241,
      "roll": 1242,
      "jill": 1243,
      "rew": 1244,
      "wall": 1245,
      "clothe": 1246,
      "alone": 1247,
      "puppy": 1248,
      "av": 1249,
      "clothes": 1250,
      "oup": 1251,
      "train": 1252,
      "ated": 1253,
      "ance": 1254,
      "dang": 1255,
      "brought": 1256,
      "strange": 1257,
      "sear": 1258,
      "met": 1259,
      "appear": 1260,
      "grow": 1261,
      "deep": 1262,
      "woods": 1263,
      "sail": 1264,
      "bike": 1265,
      "well": 1266,
      "pulled": 1267,
      "moral": 1268,
      "ling": 1269,
      "ride": 1270,
      "zz": 1271,
      "pping": 1272,
      "treat": 1273,
      "ffy": 1274,
      "flu": 1275,
      "drag": 1276,
      "gi": 1277,
      "hor": 1278,
      "wasn": 1279,
      "music": 1280,
      "lake": 1281,
      "waited": 1282,
      "nap": 1283,
      "amazed": 1284,
      "hide": 1285,
      "fluffy": 1286,
      "bath": 1287,
      "pur": 1288,
      "towards": 1289,
      "field": 1290,
      "je": 1291,
      "silly": 1292,
      "flying": 1293,
      "thy": 1294,
      "belie": 1295,
      "sc": 1296,
      "owner": 1297,
      "cloud": 1298,
      "shared": 1299,
      "runs": 1300,
      "slowly": 1301,
      "visit": 1302,
      "quie": 1303,
      "living": 1304,
      "job": 1305,
      "du": 1306,
      "ames": 1307,
      "promised": 1308,
      "dance": 1309,
      "pers": 1310,
      "ses": 1311,
      "thinks": 1312,
      "mary": 1313,
      "sister": 1314,
      "mind": 1315,
      "party": 1316,
      "must": 1317,
      "money": 1318,
      "quiet": 1319,
      "ises": 1320,
      "luck": 1321,
      "bran": 1322,
      "worried": 1323,
      "answ": 1324,
      "chair": 1325,
      "ased": 1326,
      "grate": 1327,
      "faster": 1328,
      "grateful": 1329,
      "cup": 1330,
      "pass": 1331,
      "umb": 1332,
      "colorful": 1333,
      "pieces": 1334,
      "ment": 1335,
      "mr": 1336,
      "explain": 1337,
      "ctor": 1338,
      "min": 1339,
      "igg": 1340,
      "join": 1341,
      "broke": 1342,
      "gif": 1343,
      "such": 1344,
      "bigger": 1345,
      "welcome": 1346,
      "cou": 1347,
      "gra": 1348,
      "candy": 1349,
      "shes": 1350,
      "ele": 1351,
      "snack": 1352,
      "monster": 1353,
      "reach": 1354,
      "board": 1355,
      "kis": 1356,
      "blan": 1357,
      "black": 1358,
      "dry": 1359,
      "farmer": 1360,
      "heav": 1361,
      "ually": 1362,
      "des": 1363,
      "monkey": 1364,
      "start": 1365,
      "twin": 1366,
      "words": 1367,
      "treasure": 1368,
      "scream": 1369,
      "magical": 1370,
      "dragon": 1371,
      "dangerous": 1372,
      "sign": 1373,
      "event": 1374,
      "helping": 1375,
      "across": 1376,
      "mil": 1377,
      "ming": 1378,
      "princess": 1379,
      "dri": 1380,
      "jimmy": 1381,
      "smart": 1382,
      "amp": 1383,
      "ja": 1384,
      "outh": 1385,
      "mouth": 1386,
      "smel": 1387,
      "ose": 1388,
      "rot": 1389,
      "ourse": 1390,
      "happen": 1391,
      "di": 1392,
      "believe": 1393,
      "plane": 1394,
      "shar": 1395,
      "dolls": 1396,
      "tower": 1397,
      "threw": 1398,
      "stepped": 1399,
      "heavy": 1400,
      "bite": 1401,
      "doctor": 1402,
      "bowl": 1403,
      "dirty": 1404,
      "twins": 1405,
      "same": 1406,
      "crying": 1407,
      "ves": 1408,
      "ident": 1409,
      "mummy": 1410,
      "wave": 1411,
      "heal": 1412,
      "hig": 1413,
      "appeared": 1414,
      "scho": 1415,
      "ap": 1416,
      "school": 1417,
      "closed": 1418,
      "wag": 1419,
      "stuck": 1420,
      "bas": 1421,
      "balloon": 1422,
      "press": 1423,
      "emma": 1424,
      "lun": 1425,
      "without": 1426,
      "mix": 1427,
      "eating": 1428,
      "hoped": 1429,
      "pow": 1430,
      "fairy": 1431,
      "paint": 1432,
      "pull": 1433,
      "town": 1434,
      "feels": 1435,
      "wr": 1436,
      "iting": 1437,
      "gs": 1438,
      "mit": 1439,
      "cray": 1440,
      "wouldn": 1441,
      "course": 1442,
      "val": 1443,
      "clapped": 1444,
      "stood": 1445,
      "free": 1446,
      "button": 1447,
      "gentle": 1448,
      "tent": 1449,
      "comfor": 1450,
      "child": 1451,
      "eventually": 1452,
      "takes": 1453,
      "basket": 1454,
      "youn": 1455,
      "pop": 1456,
      "along": 1457,
      "drove": 1458,
      "shine": 1459,
      "pushed": 1460,
      "round": 1461,
      "higher": 1462,
      "chee": 1463,
      "neigh": 1464,
      "phone": 1465,
      "teac": 1466,
      "acc": 1467,
      "teacher": 1468,
      "swings": 1469,
      "mine": 1470,
      "ary": 1471,
      "blanket": 1472,
      "stead": 1473,
      "str": 1474,
      "mark": 1475,
      "accident": 1476,
      "games": 1477,
      "wise": 1478,
      "cheered": 1479,
      "moved": 1480,
      "smo": 1481,
      "jour": 1482,
      "wings": 1483,
      "explained": 1484,
      "longer": 1485,
      "sna": 1486,
      "coin": 1487,
      "ible": 1488,
      "late": 1489,
      "bel": 1490,
      "ney": 1491,
      "wish": 1492,
      "throw": 1493,
      "tu": 1494,
      "ps": 1495,
      "noises": 1496,
      "sang": 1497,
      "stone": 1498,
      "though": 1499,
      "hugs": 1500,
      "turns": 1501,
      "apple": 1502,
      "stre": 1503,
      "stories": 1504,
      "singing": 1505,
      "tiny": 1506,
      "instead": 1507,
      "shoes": 1508,
      "lone": 1509,
      "eleph": 1510,
      "owl": 1511,
      "adventures": 1512,
      "del": 1513,
      "trou": 1514,
      "neck": 1515,
      "lunch": 1516,
      "jar": 1517,
      "sea": 1518,
      "fence": 1519,
      "upset": 1520,
      "lonely": 1521,
      "young": 1522,
      "stree": 1523,
      "dist": 1524,
      "secre": 1525,
      "belong": 1526,
      "heart": 1527,
      "ountain": 1528,
      "miss": 1529,
      "soup": 1530,
      "add": 1531,
      "exploring": 1532,
      "nearby": 1533,
      "nee": 1534,
      "shook": 1535,
      "nothing": 1536,
      "ours": 1537,
      "pocket": 1538,
      "sammy": 1539,
      "naught": 1540,
      "bring": 1541,
      "naughty": 1542,
      "stars": 1543,
      "taking": 1544,
      "hit": 1545,
      "fused": 1546,
      "ship": 1547,
      "forget": 1548,
      "sunny": 1549,
      "cal": 1550,
      "res": 1551,
      "caught": 1552,
      "cow": 1553,
      "drink": 1554,
      "purple": 1555,
      "woke": 1556,
      "backyard": 1557,
      "seemed": 1558,
      "rocks": 1559,
      "relie": 1560,
      "fit": 1561,
      "whenever": 1562,
      "body": 1563,
      "sli": 1564,
      "pan": 1565,
      "mail": 1566,
      "dropped": 1567,
      "daught": 1568,
      "ect": 1569,
      "daughter": 1570,
      "orange": 1571,
      "coat": 1572,
      "street": 1573,
      "swam": 1574,
      "mm": 1575,
      "sent": 1576,
      "shop": 1577,
      "days": 1578,
      "part": 1579,
      "mitten": 1580,
      "shapes": 1581,
      "ions": 1582,
      "rainbow": 1583,
      "driver": 1584,
      "pil": 1585,
      "sitting": 1586,
      "sounds": 1587,
      "bench": 1588,
      "pot": 1589,
      "fing": 1590,
      "comes": 1591,
      "boun": 1592,
      "busy": 1593,
      "wondered": 1594,
      "ier": 1595,
      "sco": 1596,
      "nest": 1597,
      "lucky": 1598,
      "nose": 1599,
      "hu": 1600,
      "juice": 1601,
      "erful": 1602,
      "pig": 1603,
      "ugg": 1604,
      "kite": 1605,
      "holding": 1606,
      "wee": 1607,
      "smell": 1608,
      "sug": 1609,
      "cer": 1610,
      "pra": 1611,
      "mach": 1612,
      "cing": 1613,
      "arms": 1614,
      "birth": 1615,
      "rown": 1616,
      "band": 1617,
      "cir": 1618,
      "bottle": 1619,
      "promise": 1620,
      "ull": 1621,
      "cute": 1622,
      "birthday": 1623,
      "loves": 1624,
      "secret": 1625,
      "branch": 1626,
      "quest": 1627,
      "relieved": 1628,
      "pper": 1629,
      "raid": 1630,
      "elephant": 1631,
      "afraid": 1632,
      "zoom": 1633,
      "uni": 1634,
      "idge": 1635,
      "forever": 1636,
      "tun": 1637,
      "gl": 1638,
      "peace": 1639,
      "carry": 1640,
      "sick": 1641,
      "gift": 1642,
      "jenny": 1643,
      "life": 1644,
      "push": 1645,
      "hope": 1646,
      "cheese": 1647,
      "spin": 1648,
      "huge": 1649,
      "touched": 1650,
      "bucket": 1651,
      "patient": 1652,
      "ars": 1653,
      "grab": 1654,
      "live": 1655,
      "covered": 1656,
      "orn": 1657,
      "honey": 1658,
      "letter": 1659,
      "inte": 1660,
      "interest": 1661,
      "wand": 1662,
      "exciting": 1663,
      "wra": 1664,
      "imag": 1665,
      "vel": 1666,
      "onto": 1667,
      "bush": 1668,
      "laughing": 1669,
      "hey": 1670,
      "gigg": 1671,
      "test": 1672,
      "journey": 1673,
      "gest": 1674,
      "creature": 1675,
      "bread": 1676,
      "kick": 1677,
      "bru": 1678,
      "ward": 1679,
      "shell": 1680,
      "act": 1681,
      "craw": 1682,
      "hop": 1683,
      "swimming": 1684,
      "sunshine": 1685,
      "suc": 1686,
      "cozy": 1687,
      "emily": 1688,
      "bubb": 1689,
      "ness": 1690,
      "eas": 1691,
      "milk": 1692,
      "gives": 1693,
      "cha": 1694,
      "watching": 1695,
      "net": 1696,
      "pudd": 1697,
      "roar": 1698,
      "accidentally": 1699,
      "cave": 1700,
      "shout": 1701,
      "sharp": 1702,
      "eg": 1703,
      "ian": 1704,
      "puts": 1705,
      "colle": 1706,
      "talked": 1707,
      "fan": 1708,
      "stor": 1709,
      "pointed": 1710,
      "gather": 1711,
      "mittens": 1712,
      "road": 1713,
      "smiling": 1714,
      "neighbor": 1715,
      "anyone": 1716,
      "snake": 1717,
      "bought": 1718,
      "searched": 1719,
      "ade": 1720,
      "apples": 1721,
      "sandwi": 1722,
      "nic": 1723,
      "shelf": 1724,
      "storm": 1725,
      "proble": 1726,
      "problem": 1727,
      "ia": 1728,
      "word": 1729,
      "splash": 1730,
      "ize": 1731,
      "wide": 1732,
      "these": 1733,
      "inv": 1734,
      "whi": 1735,
      "wom": 1736,
      "spid": 1737,
      "healthy": 1738,
      "interesting": 1739,
      "irt": 1740,
      "woman": 1741,
      "bur": 1742,
      "ducks": 1743,
      "circle": 1744,
      "spoon": 1745,
      "sie": 1746,
      "ens": 1747,
      "tasty": 1748,
      "lar": 1749,
      "pile": 1750,
      "eag": 1751,
      "vill": 1752,
      "trouble": 1753,
      "clever": 1754,
      "rope": 1755,
      "ones": 1756,
      "clouds": 1757,
      "crayons": 1758,
      "grandpa": 1759,
      "matter": 1760,
      "person": 1761,
      "feather": 1762,
      "log": 1763,
      "which": 1764,
      "rose": 1765,
      "path": 1766,
      "rat": 1767,
      "fron": 1768,
      "snowman": 1769,
      "prot": 1770,
      "ently": 1771,
      "front": 1772,
      "wash": 1773,
      "comfortable": 1774,
      "zoo": 1775,
      "shining": 1776,
      "isa": 1777,
      "smelled": 1778,
      "respec": 1779,
      "pract": 1780,
      "jake": 1781,
      "ching": 1782,
      "spotted": 1783,
      "valu": 1784,
      "minut": 1785,
      "screamed": 1786,
      "organ": 1787,
      "mud": 1788,
      "wheel": 1789,
      "lock": 1790,
      "dest": 1791,
      "danced": 1792,
      "ban": 1793,
      "seat": 1794,
      "bark": 1795,
      "puzz": 1796,
      "teach": 1797,
      "myster": 1798,
      "thin": 1799,
      "berries": 1800,
      "orm": 1801,
      "gy": 1802,
      "horse": 1803,
      "fli": 1804,
      "gently": 1805,
      "tries": 1806,
      "lovely": 1807,
      "answer": 1808,
      "asleep": 1809,
      "mir": 1810,
      "rolled": 1811,
      "epend": 1812,
      "wearing": 1813,
      "ob": 1814,
      "wild": 1815,
      "places": 1816,
      "mel": 1817,
      "goes": 1818,
      "present": 1819,
      "whole": 1820,
      "giant": 1821,
      "lisa": 1822,
      "pill": 1823,
      "string": 1824,
      "confused": 1825,
      "fruit": 1826,
      "worm": 1827,
      "step": 1828,
      "impress": 1829,
      "corner": 1830,
      "sharing": 1831,
      "dirt": 1832,
      "ular": 1833,
      "respect": 1834,
      "chick": 1835,
      "card": 1836,
      "calm": 1837,
      "corn": 1838,
      "rich": 1839,
      "vie": 1840,
      "slid": 1841,
      "rubb": 1842,
      "tasted": 1843,
      "forgive": 1844,
      "cean": 1845,
      "ocean": 1846,
      "rude": 1847,
      "picnic": 1848,
      "tee": 1849,
      "machine": 1850,
      "tool": 1851,
      "drive": 1852,
      "true": 1853,
      "spent": 1854,
      "teeth": 1855,
      "inc": 1856,
      "spider": 1857,
      "furry": 1858,
      "char": 1859,
      "cookie": 1860,
      "lay": 1861,
      "pour": 1862,
      "oven": 1863,
      "kitty": 1864,
      "pretended": 1865,
      "past": 1866,
      "fighting": 1867,
      "last": 1868,
      "feet": 1869,
      "shr": 1870,
      "nut": 1871,
      "tomor": 1872,
      "fold": 1873,
      "faces": 1874,
      "peter": 1875,
      "tomorrow": 1876,
      "shy": 1877,
      "tea": 1878,
      "ti": 1879,
      "erly": 1880,
      "helpful": 1881,
      "umber": 1882,
      "spe": 1883,
      "finish": 1884,
      "hang": 1885,
      "ashed": 1886,
      "ann": 1887,
      "chocol": 1888,
      "grace": 1889,
      "mountain": 1890,
      "ity": 1891,
      "lace": 1892,
      "peaceful": 1893,
      "talking": 1894,
      "stret": 1895,
      "sque": 1896,
      "oth": 1897,
      "stair": 1898,
      "tid": 1899,
      "spread": 1900,
      "ladder": 1901,
      "bell": 1902,
      "joke": 1903,
      "foot": 1904,
      "bugs": 1905,
      "cele": 1906,
      "village": 1907,
      "remind": 1908,
      "write": 1909,
      "sol": 1910,
      "ator": 1911,
      "building": 1912,
      "seek": 1913,
      "couch": 1914,
      "den": 1915,
      "spit": 1916,
      "crab": 1917,
      "wore": 1918,
      "smooth": 1919,
      "chased": 1920,
      "fred": 1921,
      "treats": 1922,
      "plant": 1923,
      "ighed": 1924,
      "trip": 1925,
      "blew": 1926,
      "cage": 1927,
      "embar": 1928,
      "paw": 1929,
      "poli": 1930,
      "embarr": 1931,
      "waiting": 1932,
      "stir": 1933,
      "pool": 1934,
      "hiding": 1935,
      "kets": 1936,
      "shake": 1937,
      "knee": 1938,
      "puddle": 1939,
      "prince": 1940,
      "necklace": 1941,
      "chocolate": 1942,
      "songs": 1943,
      "embarrass": 1944,
      "selfish": 1945,
      "cur": 1946,
      "cross": 1947,
      "hum": 1948,
      "cannot": 1949,
      "banan": 1950,
      "trust": 1951,
      "cloth": 1952,
      "taste": 1953,
      "sack": 1954,
      "ult": 1955,
      "leaf": 1956,
      "lves": 1957,
      "spray": 1958,
      "ye": 1959,
      "rag": 1960,
      "bus": 1961,
      "large": 1962,
      "kin": 1963,
      "stra": 1964,
      "tidy": 1965,
      "fixed": 1966,
      "barked": 1967,
      "celebr": 1968,
      "colour": 1969,
      "carrot": 1970,
      "line": 1971,
      "cord": 1972,
      "count": 1973,
      "pee": 1974,
      "hone": 1975,
      "asha": 1976,
      "ipped": 1977,
      "umpy": 1978,
      "moon": 1979,
      "robot": 1980,
      "oin": 1981,
      "mmer": 1982,
      "œi": 1983,
      "jung": 1984,
      "deter": 1985,
      "whistle": 1986,
      "tie": 1987,
      "jungle": 1988,
      "johnny": 1989,
      "za": 1990,
      "honest": 1991,
      "rots": 1992,
      "missed": 1993,
      "shirt": 1994,
      "alice": 1995,
      "sup": 1996,
      "cape": 1997,
      "jumping": 1998,
      "gray": 1999,
      "kiss": 2000,
      "embarrassed": 2001,
      "forward": 2002,
      "landed": 2003,
      "meet": 2004,
      "appoin": 2005,
      "decor": 2006,
      "kitten": 2007,
      "sticks": 2008,
      "rex": 2009,
      "tv": 2010,
      "protect": 2011,
      "polit": 2012,
      "jog": 2013,
      "disappoin": 2014,
      "hears": 2015,
      "hero": 2016,
      "success": 2017,
      "carrots": 2018,
      "clear": 2019,
      "creative": 2020,
      "polite": 2021,
      "cop": 2022,
      "mead": 2023,
      "knocked": 2024,
      "meadow": 2025,
      "sour": 2026,
      "almost": 2027,
      "breath": 2028,
      "vege": 2029,
      "vegetable": 2030,
      "glow": 2031,
      "brush": 2032,
      "gas": 2033,
      "mic": 2034,
      "ending": 2035,
      "legs": 2036,
      "scre": 2037,
      "emp": 2038,
      "plate": 2039,
      "tightly": 2040,
      "pin": 2041,
      "ashamed": 2042,
      "elly": 2043,
      "lemon": 2044,
      "pillow": 2045,
      "meant": 2046,
      "empty": 2047,
      "grew": 2048,
      "sau": 2049,
      "tells": 2050,
      "gold": 2051,
      "sheep": 2052,
      "stairs": 2053,
      "understood": 2054,
      "coura": 2055,
      "ank": 2056,
      "carried": 2057,
      "hours": 2058,
      "pay": 2059,
      "jam": 2060,
      "witch": 2061,
      "yelled": 2062,
      "disappointed": 2063,
      "save": 2064,
      "police": 2065,
      "warn": 2066,
      "nods": 2067,
      "snacks": 2068,
      "vous": 2069,
      "thankful": 2070,
      "frustr": 2071,
      "leo": 2072,
      "block": 2073,
      "chew": 2074,
      "rad": 2075,
      "jewel": 2076,
      "sparkly": 2077,
      "hospit": 2078,
      "hospital": 2079,
      "bat": 2080,
      "piz": 2081,
      "poor": 2082,
      "gets": 2083,
      "standing": 2084,
      "van": 2085,
      "ken": 2086,
      "leta": 2087,
      "usu": 2088,
      "wolf": 2089,
      "knowing": 2090,
      "tic": 2091,
      "flies": 2092,
      "easy": 2093,
      "bored": 2094,
      "seed": 2095,
      "hidden": 2096,
      "generous": 2097,
      "pri": 2098,
      "taught": 2099,
      "dino": 2100,
      "blow": 2101,
      "jelly": 2102,
      "scarf": 2103,
      "plants": 2104,
      "group": 2105,
      "minutes": 2106,
      "gun": 2107,
      "returned": 2108,
      "ni": 2109,
      "mysterious": 2110,
      "waves": 2111,
      "bedroom": 2112,
      "pizza": 2113,
      "sage": 2114,
      "pir": 2115,
      "sighed": 2116,
      "spicy": 2117,
      "frustrated": 2118,
      "fear": 2119,
      "finger": 2120,
      "fla": 2121,
      "mined": 2122,
      "determined": 2123,
      "susie": 2124,
      "powerful": 2125,
      "puzzle": 2126,
      "tro": 2127,
      "sleepy": 2128,
      "fig": 2129,
      "balls": 2130,
      "dle": 2131,
      "mid": 2132,
      "drew": 2133,
      "sandwich": 2134,
      "form": 2135,
      "note": 2136,
      "shore": 2137,
      "passed": 2138,
      "grumpy": 2139,
      "spoil": 2140,
      "packed": 2141,
      "fancy": 2142,
      "keeper": 2143,
      "bridge": 2144,
      "nervous": 2145,
      "ita": 2146,
      "messy": 2147,
      "feed": 2148,
      "tears": 2149,
      "twe": 2150,
      "saur": 2151,
      "cr": 2152,
      "gate": 2153,
      "cater": 2154,
      "caterpill": 2155,
      "tweet": 2156,
      "sold": 2157,
      "kissed": 2158,
      "closet": 2159,
      "working": 2160,
      "liz": 2161,
      "berry": 2162,
      "excite": 2163,
      "dinosaur": 2164,
      "bul": 2165,
      "gathered": 2166,
      "flag": 2167,
      "bubbles": 2168,
      "case": 2169,
      "scis": 2170,
      "scissor": 2171,
      "whisper": 2172,
      "pas": 2173,
      "yourself": 2174,
      "scissors": 2175,
      "chest": 2176,
      "week": 2177,
      "answered": 2178,
      "tig": 2179,
      "often": 2180,
      "cries": 2181,
      "ugly": 2182,
      "fre": 2183,
      "hopping": 2184,
      "twirl": 2185,
      "deer": 2186,
      "lif": 2187,
      "towel": 2188,
      "cand": 2189,
      "collect": 2190,
      "son": 2191,
      "fil": 2192,
      "caterpillar": 2193,
      "ensive": 2194,
      "expensive": 2195,
      "excitement": 2196,
      "ella": 2197,
      "space": 2198,
      "wake": 2199,
      "taken": 2200,
      "middle": 2201,
      "fu": 2202,
      "saved": 2203,
      "leg": 2204,
      "era": 2205,
      "ignor": 2206,
      "bill": 2207,
      "father": 2208,
      "class": 2209,
      "wagged": 2210,
      "crown": 2211,
      "pleased": 2212,
      "known": 2213,
      "boss": 2214,
      "pec": 2215,
      "picks": 2216,
      "boring": 2217,
      "pete": 2218,
      "fine": 2219,
      "bobby": 2220,
      "pair": 2221,
      "asking": 2222,
      "astic": 2223,
      "vase": 2224,
      "sugar": 2225,
      "ror": 2226,
      "queen": 2227,
      "ially": 2228,
      "licked": 2229,
      "dancing": 2230,
      "vegetables": 2231,
      "glass": 2232,
      "number": 2233,
      "eld": 2234,
      "change": 2235,
      "rank": 2236,
      "giggled": 2237,
      "allow": 2238,
      "rocket": 2239,
      "espec": 2240,
      "especially": 2241,
      "clown": 2242,
      "mistake": 2243,
      "ned": 2244,
      "flut": 2245,
      "nel": 2246,
      "lying": 2247,
      "illed": 2248,
      "stuff": 2249,
      "yo": 2250,
      "usual": 2251,
      "exam": 2252,
      "medic": 2253,
      "knight": 2254,
      "sweetie": 2255,
      "moving": 2256,
      "sight": 2257,
      "fake": 2258,
      "ates": 2259,
      "soar": 2260,
      "fruits": 2261,
      "wip": 2262,
      "cri": 2263,
      "drum": 2264,
      "ird": 2265,
      "mandy": 2266,
      "boys": 2267,
      "eggs": 2268,
      "glue": 2269,
      "boo": 2270,
      "medicine": 2271,
      "locked": 2272,
      "walks": 2273,
      "distance": 2274,
      "pray": 2275,
      "drawing": 2276,
      "bone": 2277,
      "bake": 2278,
      "iness": 2279,
      "dogs": 2280,
      "painting": 2281,
      "splashed": 2282,
      "yog": 2283,
      "lead": 2284,
      "rid": 2285,
      "smelly": 2286,
      "yal": 2287,
      "disappeared": 2288,
      "chir": 2289,
      "feathers": 2290,
      "match": 2291,
      "become": 2292,
      "cap": 2293,
      "moms": 2294,
      "order": 2295,
      "aunt": 2296,
      "sting": 2297,
      "lazy": 2298,
      "elderly": 2299,
      "lose": 2300,
      "thanks": 2301,
      "calling": 2302,
      "penny": 2303,
      "aged": 2304,
      "playground": 2305,
      "bathroom": 2306,
      "toes": 2307,
      "incred": 2308,
      "tory": 2309,
      "mirror": 2310,
      "weak": 2311,
      "?\".": 2312,
      "dol": 2313,
      "horn": 2314,
      "yours": 2315,
      "questions": 2316,
      "wro": 2317,
      "wrote": 2318,
      "loyal": 2319,
      "noisy": 2320,
      "nod": 2321,
      "ellie": 2322,
      "suggest": 2323,
      "dolph": 2324,
      "tiger": 2325,
      "check": 2326,
      "eager": 2327,
      "skipped": 2328,
      "lea": 2329,
      "dish": 2330,
      "lamp": 2331,
      "sell": 2332,
      "giving": 2333,
      "famous": 2334,
      "tape": 2335,
      "rela": 2336,
      "zed": 2337,
      "bella": 2338,
      "rare": 2339,
      "stones": 2340,
      "dig": 2341,
      "relax": 2342,
      "soap": 2343,
      "ruined": 2344,
      "incredible": 2345,
      "figure": 2346,
      "swan": 2347,
      "drank": 2348,
      "tub": 2349,
      "illi": 2350,
      "shows": 2351,
      "juicy": 2352,
      "izzy": 2353,
      "measure": 2354,
      "chang": 2355,
      "team": 2356,
      "itch": 2357,
      "cher": 2358,
      "those": 2359,
      "sailed": 2360,
      "comp": 2361,
      "shoot": 2362,
      "straw": 2363,
      "motor": 2364,
      "decide": 2365,
      "ppo": 2366,
      "realised": 2367,
      "umbled": 2368,
      "discovered": 2369,
      "turtle": 2370,
      "ging": 2371,
      "borrow": 2372,
      "coins": 2373,
      "tag": 2374,
      "needs": 2375,
      "micro": 2376,
      "wha": 2377,
      "adventur": 2378,
      "chicken": 2379,
      "aser": 2380,
      "fic": 2381,
      "au": 2382,
      "balance": 2383,
      "extra": 2384,
      "cleaned": 2385,
      "branches": 2386,
      "runk": 2387,
      "using": 2388,
      "asing": 2389,
      "ately": 2390,
      "mighty": 2391,
      "eye": 2392,
      "barn": 2393,
      "content": 2394,
      "adventurous": 2395,
      "lid": 2396,
      "diffic": 2397,
      "ating": 2398,
      "sadly": 2399,
      "offered": 2400,
      "cro": 2401,
      "dolphin": 2402,
      "colourful": 2403,
      "lifted": 2404,
      "organized": 2405,
      "snugg": 2406,
      "map": 2407,
      "frown": 2408,
      "vide": 2409,
      "flash": 2410,
      "toug": 2411,
      "sil": 2412,
      "bobo": 2413,
      "chase": 2414,
      "difficult": 2415,
      "eng": 2416,
      "unique": 2417,
      "cheerful": 2418,
      "zip": 2419,
      "bottom": 2420,
      "selves": 2421,
      "thick": 2422,
      "gue": 2423,
      "jeal": 2424,
      "jealous": 2425,
      "island": 2426,
      "fright": 2427,
      "happening": 2428,
      "kni": 2429,
      "knife": 2430,
      "learning": 2431,
      "hose": 2432,
      "cil": 2433,
      "smoke": 2434,
      "wrapped": 2435,
      "mrs": 2436,
      "kindness": 2437,
      "weird": 2438,
      "four": 2439,
      "ero": 2440,
      "ants": 2441,
      "gara": 2442,
      "garage": 2443,
      "twee": 2444,
      "managed": 2445,
      "vi": 2446,
      "ado": 2447,
      "pencil": 2448,
      "hurts": 2449,
      "imed": 2450,
      "squee": 2451,
      "dave": 2452,
      "ears": 2453,
      "uncle": 2454,
      "bald": 2455,
      "search": 2456,
      "crawled": 2457,
      "saying": 2458,
      "balloons": 2459,
      "coco": 2460,
      "tough": 2461,
      "meal": 2462,
      "men": 2463,
      "dizzy": 2464,
      "stri": 2465,
      "vest": 2466,
      "guess": 2467,
      "pointing": 2468,
      "apo": 2469,
      "market": 2470,
      "pal": 2471,
      "favour": 2472,
      "added": 2473,
      "batter": 2474,
      "swee": 2475,
      "whale": 2476,
      "louder": 2477,
      "tweety": 2478,
      "apolog": 2479,
      "pump": 2480,
      "successful": 2481,
      "guit": 2482,
      "norm": 2483,
      "edge": 2484,
      "harder": 2485,
      "spun": 2486,
      "already": 2487,
      "birdie": 2488,
      "lift": 2489,
      "libr": 2490,
      "unusual": 2491,
      "buzz": 2492,
      "agree": 2493,
      "favourite": 2494,
      "enjoying": 2495,
      "hats": 2496,
      "record": 2497,
      "courage": 2498,
      "terri": 2499,
      "trucks": 2500,
      "belonged": 2501,
      "boxes": 2502,
      "impressed": 2503,
      "city": 2504,
      "grown": 2505,
      "yell": 2506,
      "excitedly": 2507,
      "trunk": 2508,
      "banana": 2509,
      "ddy": 2510,
      "ail": 2511,
      "sword": 2512,
      "normal": 2513,
      "shadow": 2514,
      "choose": 2515,
      "soph": 2516,
      "laughs": 2517,
      "brilli": 2518,
      "bossy": 2519,
      "bby": 2520,
      "guitar": 2521,
      "bounce": 2522,
      "loudly": 2523,
      "ert": 2524,
      "scare": 2525,
      "brilliant": 2526,
      "goat": 2527,
      "proudly": 2528,
      "suit": 2529,
      "cab": 2530,
      "dreamed": 2531,
      "stubb": 2532,
      "buttons": 2533,
      "circles": 2534,
      "skin": 2535,
      "escape": 2536,
      "anc": 2537,
      "ilt": 2538,
      "brothers": 2539,
      "ature": 2540,
      "fool": 2541,
      "frightened": 2542,
      "against": 2543,
      "invited": 2544,
      "stream": 2545,
      "obed": 2546,
      "toma": 2547,
      "helps": 2548,
      "acce": 2549,
      "cudd": 2550,
      "happiness": 2551,
      "port": 2552,
      "fier": 2553,
      "study": 2554,
      "ancient": 2555,
      "depend": 2556,
      "means": 2557,
      "safely": 2558,
      "lola": 2559,
      "snee": 2560,
      "clay": 2561,
      "valuable": 2562,
      "stubborn": 2563,
      "slipped": 2564,
      "stru": 2565,
      "rh": 2566,
      "shark": 2567,
      "bloom": 2568,
      "crayon": 2569,
      "breakfast": 2570,
      "dreams": 2571,
      "walls": 2572,
      "pumpkin": 2573,
      "graceful": 2574,
      "lights": 2575,
      "clap": 2576,
      "obedient": 2577,
      "lean": 2578,
      "foolish": 2579,
      "sca": 2580,
      "ination": 2581,
      "falls": 2582,
      "orge": 2583,
      "knows": 2584,
      "notice": 2585,
      "fierce": 2586,
      "aced": 2587,
      "fridge": 2588,
      "nemo": 2589,
      "shape": 2590,
      "cabin": 2591,
      "fat": 2592,
      "nicely": 2593,
      "houses": 2594,
      "jac": 2595,
      "angel": 2596,
      "harm": 2597,
      "nosy": 2598,
      "dead": 2599,
      "movie": 2600,
      "office": 2601,
      "delicate": 2602,
      "design": 2603,
      "compet": 2604,
      "sty": 2605,
      "excla": 2606,
      "suggested": 2607,
      "wagon": 2608,
      "shells": 2609,
      "rubbed": 2610,
      "exclaimed": 2611,
      "competit": 2612,
      "frag": 2613,
      "crack": 2614,
      "kinds": 2615,
      "mixed": 2616,
      "useful": 2617,
      "wiped": 2618,
      "egg": 2619,
      "cart": 2620,
      "poured": 2621,
      "thoughtful": 2622,
      "tools": 2623,
      "patch": 2624,
      "clock": 2625,
      "stove": 2626,
      "sounded": 2627,
      "explored": 2628,
      "playful": 2629,
      "pi": 2630,
      "hun": 2631,
      "ducky": 2632,
      "dough": 2633,
      "sal": 2634,
      "george": 2635,
      "print": 2636,
      "!\".": 2637,
      "radi": 2638,
      "weal": 2639,
      "bags": 2640,
      "fresh": 2641,
      "abo": 2642,
      "vice": 2643,
      "above": 2644,
      "fountain": 2645,
      "guard": 2646,
      "spoiled": 2647,
      "dom": 2648,
      "lee": 2649,
      "mes": 2650,
      "fragile": 2651,
      "showing": 2652,
      "themselves": 2653,
      "changed": 2654,
      "stumbled": 2655,
      "cam": 2656,
      "bushes": 2657,
      "rescu": 2658,
      "law": 2659,
      "bees": 2660,
      "independ": 2661,
      "robe": 2662,
      "rub": 2663,
      "fingers": 2664,
      "spinning": 2665,
      "dependable": 2666,
      "scrat": 2667,
      "smaller": 2668,
      "ighted": 2669,
      "arrow": 2670,
      "dge": 2671,
      "bled": 2672,
      "orig": 2673,
      "wing": 2674,
      "roof": 2675,
      "jolly": 2676,
      "steal": 2677,
      "practice": 2678,
      "raced": 2679,
      "oc": 2680,
      "delighted": 2681,
      "tele": 2682,
      "built": 2683,
      "seem": 2684,
      "earth": 2685,
      "rode": 2686,
      "brightly": 2687,
      "gem": 2688,
      "handed": 2689,
      "ormous": 2690,
      "enormous": 2691,
      "origin": 2692,
      "acorn": 2693,
      "adm": 2694,
      "cleaning": 2695,
      "cube": 2696,
      "beep": 2697,
      "admired": 2698,
      "nur": 2699,
      "twig": 2700,
      "counted": 2701,
      "kicked": 2702,
      "toby": 2703,
      "mike": 2704,
      "sauce": 2705,
      "reg": 2706,
      "bean": 2707,
      "bitter": 2708,
      "snif": 2709,
      "original": 2710,
      "tered": 2711,
      "lli": 2712,
      "ured": 2713,
      "shone": 2714,
      "popcorn": 2715,
      "memor": 2716,
      "reminded": 2717,
      "hammer": 2718,
      "dona": 2719,
      "solve": 2720,
      "delight": 2721,
      "beak": 2722,
      "hoop": 2723,
      "lolli": 2724,
      "gum": 2725,
      "wrap": 2726,
      "dove": 2727,
      "parrot": 2728,
      "independent": 2729,
      "whispered": 2730,
      "wards": 2731,
      "yet": 2732,
      "yuck": 2733,
      "cone": 2734,
      "serious": 2735,
      "chose": 2736,
      "anut": 2737,
      "peanut": 2738,
      "post": 2739,
      "tunnel": 2740,
      "allowed": 2741,
      "hairy": 2742,
      "spring": 2743,
      "boats": 2744,
      "stronger": 2745,
      "half": 2746,
      "pota": 2747,
      "tummy": 2748,
      "spend": 2749,
      "reli": 2750,
      "cheer": 2751,
      "lollipop": 2752,
      "moder": 2753,
      "terrible": 2754,
      "œyes": 2755,
      "unknown": 2756,
      "salad": 2757,
      "painted": 2758,
      "rushed": 2759,
      "joey": 2760,
      "stal": 2761,
      "power": 2762,
      "reliable": 2763,
      "finding": 2764,
      "picking": 2765,
      "leaving": 2766,
      "tem": 2767,
      "joined": 2768,
      "tti": 2769,
      "clum": 2770,
      "gasped": 2771,
      "load": 2772,
      "strugg": 2773,
      "ended": 2774,
      "metal": 2775,
      "thinking": 2776,
      "bump": 2777,
      "tank": 2778,
      "hay": 2779,
      "os": 2780,
      "vet": 2781,
      "pon": 2782,
      "stup": 2783,
      "thunder": 2784,
      "sink": 2785,
      "view": 2786,
      "glo": 2787,
      "stupid": 2788,
      "barber": 2789,
      "goose": 2790,
      "diam": 2791,
      "kim": 2792,
      "iver": 2793,
      "diamond": 2794,
      "stat": 2795,
      "ya": 2796,
      "kay": 2797,
      "tern": 2798,
      "pirate": 2799,
      "modern": 2800,
      "fort": 2801,
      "forth": 2802,
      "ale": 2803,
      "hetti": 2804,
      "spag": 2805,
      "spaghetti": 2806,
      "advice": 2807,
      "flex": 2808,
      "regular": 2809,
      "fed": 2810,
      "wealthy": 2811,
      "erry": 2812,
      "sleeping": 2813,
      "clu": 2814,
      "toast": 2815,
      "holds": 2816,
      "marble": 2817,
      "clumsy": 2818,
      "friendship": 2819,
      "hen": 2820,
      "create": 2821,
      "paul": 2822,
      "œwhat": 2823,
      "mas": 2824,
      "polly": 2825,
      "nature": 2826,
      "yarn": 2827,
      "ery": 2828,
      "ugged": 2829,
      "telling": 2830,
      "searching": 2831,
      "ingred": 2832,
      "ingredient": 2833,
      "nobody": 2834,
      "roy": 2835,
      "ines": 2836,
      "compass": 2837,
      "march": 2838,
      "guil": 2839,
      "ley": 2840,
      "guilty": 2841,
      "ject": 2842,
      "noon": 2843,
      "crazy": 2844,
      "square": 2845,
      "sophie": 2846,
      "wed": 2847,
      "statu": 2848,
      "collec": 2849,
      "chirp": 2850,
      "cane": 2851,
      "ges": 2852,
      "engine": 2853,
      "opens": 2854,
      "stage": 2855,
      "cco": 2856,
      "beetle": 2857,
      "verse": 2858,
      "uring": 2859,
      "super": 2860,
      "flexible": 2861,
      "ribb": 2862,
      "rella": 2863,
      "driving": 2864,
      "ience": 2865,
      "croco": 2866,
      "meow": 2867,
      "shiver": 2868,
      "speed": 2869,
      "alex": 2870,
      "reading": 2871,
      "lope": 2872,
      "camera": 2873,
      "umbrella": 2874,
      "pebb": 2875,
      "dreaming": 2876,
      "popular": 2877,
      "truth": 2878,
      "rec": 2879,
      "carrying": 2880,
      "washed": 2881,
      "crocod": 2882,
      "dull": 2883,
      "rise": 2884,
      "thirst": 2885,
      "doesn": 2886,
      "lish": 2887,
      "lives": 2888,
      "missing": 2889,
      "umbers": 2890,
      "illa": 2891,
      "sne": 2892,
      "sparkled": 2893,
      "impressive": 2894,
      "brace": 2895,
      "seeds": 2896,
      "deliver": 2897,
      "careless": 2898,
      "destroy": 2899,
      "library": 2900,
      "wander": 2901,
      "tied": 2902,
      "hurry": 2903,
      "pige": 2904,
      "imagined": 2905,
      "jacket": 2906,
      "reward": 2907,
      "complet": 2908,
      "handle": 2909,
      "prize": 2910,
      "crystal": 2911,
      "goal": 2912,
      "wheels": 2913,
      "compassion": 2914,
      "pepper": 2915,
      "shocked": 2916,
      "butterflies": 2917,
      "ingredients": 2918,
      "ations": 2919,
      "ordin": 2920,
      "atta": 2921,
      "hunter": 2922,
      "ordinary": 2923,
      "fork": 2924,
      "enth": 2925,
      "œleta": 2926,
      "yay": 2927,
      "pattern": 2928,
      "poppy": 2929,
      "pup": 2930,
      "early": 2931,
      "stranger": 2932,
      "enve": 2933,
      "cran": 2934,
      "thirsty": 2935,
      "persist": 2936,
      "usi": 2937,
      "serve": 2938,
      "doors": 2939,
      "desk": 2940,
      "enthusi": 2941,
      "host": 2942,
      "numbers": 2943,
      "rece": 2944,
      "seal": 2945,
      "stack": 2946,
      "nurse": 2947,
      "discover": 2948,
      "pengu": 2949,
      "penguin": 2950,
      "pear": 2951,
      "ither": 2952,
      "peeked": 2953,
      "ahead": 2954,
      "ages": 2955,
      "screen": 2956,
      "torn": 2957,
      "stamp": 2958,
      "mole": 2959,
      "rug": 2960,
      "spilled": 2961,
      "bracelet": 2962,
      "ief": 2963,
      "cheap": 2964,
      "humble": 2965,
      "comput": 2966,
      "polish": 2967,
      "avo": 2968,
      "comb": 2969,
      "stops": 2970,
      "env": 2971,
      "given": 2972,
      "towers": 2973,
      "raven": 2974,
      "sunflower": 2975,
      "sorts": 2976,
      "aid": 2977,
      "anx": 2978,
      "intell": 2979,
      "intellig": 2980,
      "ina": 2981,
      "spoke": 2982,
      "mailbox": 2983,
      "counting": 2984,
      "cooking": 2985,
      "flashlight": 2986,
      "steps": 2987,
      "bent": 2988,
      "inde": 2989,
      "warned": 2990,
      "placed": 2991,
      "windows": 2992,
      "pale": 2993,
      "uncomfortable": 2994,
      "value": 2995,
      "travel": 2996,
      "shut": 2997,
      "rema": 2998,
      "scale": 2999,
      "statue": 3000,
      "badly": 3001,
      "older": 3002,
      "bull": 3003,
      "anxious": 3004,
      "deaf": 3005,
      "slides": 3006,
      "sses": 3007,
      "drop": 3008,
      "growing": 3009,
      "biggest": 3010,
      "flute": 3011,
      "couldna": 3012,
      "complete": 3013,
      "celebrate": 3014,
      "nail": 3015,
      "scat": 3016,
      "crocodile": 3017,
      "shad": 3018,
      "ghost": 3019,
      "beg": 3020,
      "cupboard": 3021,
      "bri": 3022,
      "crane": 3023,
      "harmless": 3024,
      "scoo": 3025,
      "beauty": 3026,
      "sofa": 3027,
      "anda": 3028,
      "supp": 3029,
      "gloom": 3030,
      "sity": 3031,
      "tled": 3032,
      "quack": 3033,
      "si": 3034,
      "oo": 3035,
      "cereal": 3036,
      "bin": 3037,
      "cakes": 3038,
      "gifted": 3039,
      "trick": 3040,
      "charming": 3041,
      "yawn": 3042,
      "persistent": 3043,
      "track": 3044,
      "pony": 3045,
      "jumps": 3046,
      "skip": 3047,
      "pretending": 3048,
      "refused": 3049,
      "flour": 3050,
      "names": 3051,
      "pho": 3052,
      "base": 3053,
      "triang": 3054,
      "reci": 3055,
      "neat": 3056,
      "octop": 3057,
      "sandwiches": 3058,
      "suppl": 3059,
      "sandy": 3060,
      "coll": 3061,
      "oked": 3062,
      "snuggled": 3063,
      "curtain": 3064,
      "five": 3065,
      "chasing": 3066,
      "question": 3067,
      "neighb": 3068,
      "pian": 3069,
      "mush": 3070,
      "crawl": 3071,
      "envelope": 3072,
      "drawer": 3073,
      "attra": 3074,
      "computer": 3075,
      "rules": 3076,
      "lively": 3077,
      "mushroom": 3078,
      "ffin": 3079,
      "gie": 3080,
      "turkey": 3081,
      "web": 3082,
      "carto": 3083,
      "cture": 3084,
      "repe": 3085,
      "scooter": 3086,
      "gloomy": 3087,
      "camp": 3088,
      "muffin": 3089,
      "ince": 3090,
      "intelligent": 3091,
      "piano": 3092,
      "lizard": 3093,
      "octopus": 3094,
      "shaking": 3095,
      "cli": 3096,
      "needle": 3097,
      "package": 3098,
      "zebra": 3099,
      "vroom": 3100,
      "annie": 3101,
      "œthat": 3102,
      "helmet": 3103,
      "return": 3104,
      "collar": 3105,
      "parade": 3106,
      "disgu": 3107,
      "alert": 3108,
      "creatures": 3109,
      "fireman": 3110,
      "sailor": 3111,
      "photo": 3112,
      "miser": 3113,
      "twirled": 3114,
      "thief": 3115,
      "henry": 3116,
      "station": 3117,
      "soldier": 3118,
      "miserable": 3119,
      "ignorant": 3120,
      "chance": 3121,
      "buddy": 3122,
      "attract": 3123,
      "tion": 3124,
      "icycle": 3125,
      "spr": 3126,
      "separ": 3127,
      "cycle": 3128,
      "zi": 3129,
      "brownie": 3130,
      "anywhere": 3131,
      "ener": 3132,
      "ceed": 3133,
      "asses": 3134,
      "bicycle": 3135,
      "trap": 3136,
      "dug": 3137,
      "gir": 3138,
      "jet": 3139,
      "stretched": 3140,
      "club": 3141,
      "por": 3142,
      "charlie": 3143,
      "chu": 3144,
      "wishes": 3145,
      "hood": 3146,
      "ckets": 3147,
      "pasta": 3148,
      "gor": 3149,
      "secon": 3150,
      "knot": 3151,
      "spir": 3152,
      "radio": 3153,
      "everyday": 3154,
      "stickers": 3155,
      "bandage": 3156,
      "cob": 3157,
      "cocoa": 3158,
      "listening": 3159,
      "helpless": 3160,
      "papa": 3161,
      "trash": 3162,
      "belt": 3163,
      "jeep": 3164,
      "pigeon": 3165,
      "bounced": 3166,
      "giraf": 3167,
      "chubby": 3168,
      "ador": 3169,
      "tooth": 3170,
      "leash": 3171,
      "otter": 3172,
      "perform": 3173,
      "practiced": 3174,
      "stretch": 3175,
      "letters": 3176,
      "ith": 3177,
      "pun": 3178,
      "attractive": 3179,
      "respectful": 3180,
      "compassionate": 3181,
      "waf": 3182,
      "impat": 3183,
      "lim": 3184,
      "stirred": 3185,
      "jerry": 3186,
      "quar": 3187,
      "thread": 3188,
      "trum": 3189,
      "somewhere": 3190,
      "summer": 3191,
      "spike": 3192,
      "further": 3193,
      "distur": 3194,
      "tweetie": 3195,
      "brocco": 3196,
      "decorate": 3197,
      "broccoli": 3198,
      "jug": 3199,
      "competitive": 3200,
      "rac": 3201,
      "scoop": 3202,
      "waffle": 3203,
      "brighter": 3204,
      "nuts": 3205,
      "impatient": 3206,
      "succeed": 3207,
      "sweethe": 3208,
      "arian": 3209,
      "knock": 3210,
      "melon": 3211,
      "pressed": 3212,
      "leop": 3213,
      "lilly": 3214,
      "hippo": 3215,
      "troubled": 3216,
      "candle": 3217,
      "mug": 3218,
      "loop": 3219,
      "sweetheart": 3220,
      "attic": 3221,
      "vine": 3222,
      "heli": 3223,
      "allig": 3224,
      "itself": 3225,
      "alligator": 3226,
      "restless": 3227,
      "aur": 3228,
      "starts": 3229,
      "ected": 3230,
      "repair": 3231,
      "shoe": 3232,
      "desser": 3233,
      "glasses": 3234,
      "cards": 3235,
      "fearful": 3236,
      "kers": 3237,
      "disgusting": 3238,
      "danny": 3239,
      "carpet": 3240,
      "adorable": 3241,
      "iest": 3242,
      "pants": 3243,
      "restaur": 3244,
      "anyway": 3245,
      "ost": 3246,
      "shouts": 3247,
      "tube": 3248,
      "tray": 3249,
      "mask": 3250,
      "ostrich": 3251,
      "screw": 3252,
      "envious": 3253,
      "mission": 3254,
      "filthy": 3255,
      "distant": 3256,
      "hook": 3257,
      "hive": 3258,
      "twist": 3259,
      "math": 3260,
      "copter": 3261,
      "helicopter": 3262,
      "monkeys": 3263,
      "giggle": 3264,
      "enthusiastic": 3265,
      "afternoon": 3266,
      "exper": 3267,
      "az": 3268,
      "cooked": 3269,
      "aked": 3270,
      "poem": 3271,
      "pipe": 3272,
      "lightning": 3273,
      "complain": 3274,
      "kang": 3275,
      "harsh": 3276,
      "dust": 3277,
      "lk": 3278,
      "paws": 3279,
      "restaurant": 3280,
      "meas": 3281,
      "kangar": 3282,
      "squash": 3283,
      "speak": 3284,
      "since": 3285,
      "admi": 3286,
      "sandbox": 3287,
      "nowhere": 3288,
      "pit": 3289,
      "leopard": 3290,
      "rice": 3291,
      "mill": 3292,
      "split": 3293,
      "backpack": 3294,
      "country": 3295,
      "unk": 3296,
      "cows": 3297,
      "viol": 3298,
      "firework": 3299,
      "trumpet": 3300,
      "aero": 3301,
      "bathtub": 3302,
      "maria": 3303,
      "barking": 3304,
      "cricket": 3305,
      "quite": 3306,
      "gn": 3307,
      "mim": 3308,
      "gorilla": 3309,
      "millie": 3310,
      "jellyfish": 3311,
      "jess": 3312,
      "whiskers": 3313,
      "happier": 3314,
      "panda": 3315,
      "ween": 3316,
      "modest": 3317,
      "admire": 3318,
      "spell": 3319,
      "human": 3320,
      "kate": 3321,
      "laun": 3322,
      "pilot": 3323,
      "sort": 3324,
      "stared": 3325,
      "violin": 3326,
      "salt": 3327,
      "cush": 3328,
      "behave": 3329,
      "didna": 3330,
      "lions": 3331,
      "meat": 3332,
      "message": 3333,
      "mule": 3334,
      "yogur": 3335,
      "grabs": 3336,
      "mimi": 3337,
      "impro": 3338,
      "xi": 3339,
      "oat": 3340,
      "dar": 3341,
      "nit": 3342,
      "vol": 3343,
      "tick": 3344,
      "dessert": 3345,
      "rolling": 3346,
      "paid": 3347,
      "cats": 3348,
      "wheat": 3349,
      "finds": 3350,
      "yogurt": 3351,
      "hedge": 3352,
      "harry": 3353,
      "castles": 3354,
      "kne": 3355,
      "reco": 3356,
      "rescue": 3357,
      "bubble": 3358,
      "swinging": 3359,
      "cact": 3360,
      "shade": 3361,
      "organize": 3362,
      "sport": 3363,
      "pulls": 3364,
      "wever": 3365,
      "however": 3366,
      "tripped": 3367,
      "size": 3368,
      "holes": 3369,
      "chan": 3370,
      "pole": 3371,
      "danger": 3372,
      "riding": 3373,
      "sheet": 3374,
      "spirit": 3375,
      "recogn": 3376,
      "roared": 3377,
      "bikes": 3378,
      "forgave": 3379,
      "pushing": 3380,
      "triangle": 3381,
      "hall": 3382,
      "purse": 3383,
      "object": 3384,
      "choice": 3385,
      "napkin": 3386,
      "tuna": 3387,
      "starting": 3388,
      "haircut": 3389,
      "scold": 3390,
      "bananas": 3391,
      "mild": 3392,
      "sock": 3393,
      "twink": 3394,
      "lands": 3395,
      "cano": 3396,
      "silver": 3397,
      "tomato": 3398,
      "energy": 3399,
      "rod": 3400,
      "bears": 3401,
      "either": 3402,
      "sher": 3403,
      "dive": 3404,
      "seeing": 3405,
      "ache": 3406,
      "œyou": 3407,
      "send": 3408,
      "comet": 3409,
      "boots": 3410,
      "frowned": 3411,
      "trains": 3412,
      "learnt": 3413,
      "porch": 3414,
      "kangaroo": 3415,
      "medal": 3416,
      "taxi": 3417,
      "volcano": 3418,
      "chalk": 3419,
      "strawberry": 3420,
      "tire": 3421,
      "muse": 3422,
      "museum": 3423,
      "prun": 3424,
      "sticker": 3425,
      "jokes": 3426,
      "chain": 3427,
      "ded": 3428,
      "palace": 3429,
      "evening": 3430,
      "fee": 3431,
      "papers": 3432,
      "tony": 3433,
      "wallet": 3434,
      "raft": 3435,
      "imagine": 3436,
      "appreci": 3437,
      "cel": 3438,
      "gain": 3439,
      "judge": 3440,
      "sweater": 3441,
      "steak": 3442,
      "burn": 3443,
      "shel": 3444,
      "shakes": 3445,
      "ino": 3446,
      "shopkeeper": 3447,
      "inse": 3448,
      "enter": 3449,
      "reinde": 3450,
      "wool": 3451,
      "climbing": 3452,
      "sprink": 3453,
      "avoc": 3454,
      "dear": 3455,
      "bang": 3456,
      "avocado": 3457,
      "barrel": 3458,
      "microphone": 3459,
      "iron": 3460,
      "james": 3461,
      "cactus": 3462,
      "smells": 3463,
      "alive": 3464,
      "neighbour": 3465,
      "laundry": 3466,
      "magnet": 3467,
      "cof": 3468,
      "wire": 3469,
      "fac": 3470,
      "resist": 3471,
      "coffee": 3472,
      "sim": 3473,
      "clapping": 3474,
      "shield": 3475,
      "troph": 3476,
      "putting": 3477,
      "planes": 3478,
      "softly": 3479,
      "gro": 3480,
      "pushes": 3481,
      "visited": 3482,
      "iling": 3483,
      "resp": 3484,
      "tricks": 3485,
      "quit": 3486,
      "sir": 3487,
      "mer": 3488,
      "notebook": 3489,
      "drawings": 3490,
      "inking": 3491,
      "support": 3492,
      "oy": 3493,
      "falling": 3494,
      "awe": 3495,
      "motorcycle": 3496,
      "reindeer": 3497,
      "colours": 3498,
      "leaned": 3499,
      "peek": 3500,
      "zoomed": 3501,
      "shovel": 3502,
      "trem": 3503,
      "checked": 3504,
      "quarrel": 3505,
      "winter": 3506,
      "marry": 3507,
      "kat": 3508,
      "shrimp": 3509,
      "belongs": 3510,
      "ucked": 3511,
      "airport": 3512,
      "pebble": 3513,
      "celery": 3514,
      "ambul": 3515,
      "maggie": 3516,
      "shelter": 3517,
      "ambulance": 3518,
      "herb": 3519,
      "aled": 3520,
      "avail": 3521,
      "ath": 3522,
      "marched": 3523,
      "counter": 3524,
      "bol": 3525,
      "aeroplane": 3526,
      "grapes": 3527,
      "nal": 3528,
      "rhino": 3529,
      "fields": 3530,
      "poke": 3531,
      "yach": 3532,
      "dishes": 3533,
      "planet": 3534,
      "barks": 3535,
      "appl": 3536,
      "vator": 3537,
      "smith": 3538,
      "soil": 3539,
      "trophy": 3540,
      "beam": 3541,
      "elevator": 3542,
      "fisher": 3543,
      "apologized": 3544,
      "skill": 3545,
      "rubber": 3546,
      "hoping": 3547,
      "costu": 3548,
      "costume": 3549,
      "onion": 3550,
      "uli": 3551,
      "drops": 3552,
      "god": 3553,
      "raining": 3554,
      "available": 3555,
      "unlock": 3556,
      "film": 3557,
      "vend": 3558,
      "feelings": 3559,
      "scope": 3560,
      "comfort": 3561,
      "unhappy": 3562,
      "page": 3563,
      "inclu": 3564,
      "yacht": 3565,
      "journal": 3566,
      "eraser": 3567,
      "minute": 3568,
      "tap": 3569,
      "cus": 3570,
      "€“": 3571,
      "mechan": 3572,
      "bulb": 3573,
      "mechanic": 3574,
      "baking": 3575,
      "task": 3576,
      "knob": 3577,
      "chur": 3578,
      "perfectly": 3579,
      "diary": 3580,
      "ax": 3581,
      "hadn": 3582,
      "eagerly": 3583,
      "ske": 3584,
      "comm": 3585,
      "cardboard": 3586,
      "player": 3587,
      "clara": 3588,
      "fog": 3589,
      "magaz": 3590,
      "closely": 3591,
      "basketball": 3592,
      "sle": 3593,
      "ense": 3594,
      "yoga": 3595,
      "coal": 3596,
      "ris": 3597,
      "petal": 3598,
      "glove": 3599,
      "frogs": 3600,
      "mee": 3601,
      "rect": 3602,
      "crash": 3603,
      "furnit": 3604,
      "furniture": 3605,
      "pted": 3606,
      "vendor": 3607,
      "church": 3608,
      "fortun": 3609,
      "bey": 3610,
      "tip": 3611,
      "stuffed": 3612,
      "imagination": 3613,
      "second": 3614,
      "treasures": 3615,
      "freez": 3616,
      "skull": 3617,
      "cooler": 3618,
      "headed": 3619,
      "breaks": 3620,
      "bree": 3621,
      "oil": 3622,
      "ah": 3623,
      "wife": 3624,
      "nament": 3625,
      "buck": 3626,
      "peach": 3627,
      "golf": 3628,
      "twis": 3629,
      "squi": 3630,
      "poss": 3631,
      "flame": 3632,
      "cups": 3633,
      "mosqui": 3634,
      "between": 3635,
      "offer": 3636,
      "factory": 3637,
      "sym": 3638,
      "switch": 3639,
      "cheek": 3640,
      "cauli": 3641,
      "potato": 3642,
      "chor": 3643,
      "ire": 3644,
      "pine": 3645,
      "hotel": 3646,
      "painter": 3647,
      "pirates": 3648,
      "swung": 3649,
      "football": 3650,
      "ides": 3651,
      "attent": 3652,
      "shouldn": 3653,
      "va": 3654,
      "disappear": 3655,
      "soc": 3656,
      "ding": 3657,
      "shouting": 3658,
      "hut": 3659,
      "weigh": 3660,
      "died": 3661,
      "tear": 3662,
      "heads": 3663,
      "mixer": 3664,
      "ornament": 3665,
      "blowing": 3666,
      "..": 3667,
      "crow": 3668,
      "skele": 3669,
      "rele": 3670,
      "laser": 3671,
      "powder": 3672,
      "fisherman": 3673,
      "folder": 3674,
      "video": 3675,
      "giraffe": 3676,
      "breathe": 3677,
      "cree": 3678,
      "parent": 3679,
      "skeleton": 3680,
      "soccer": 3681,
      "frame": 3682,
      "throws": 3683,
      "wipe": 3684,
      "created": 3685,
      "izes": 3686,
      "greed": 3687,
      "cauliflower": 3688,
      "cable": 3689,
      "lang": 3690,
      "cushion": 3691,
      "langu": 3692,
      "alright": 3693,
      "horses": 3694,
      "sunset": 3695,
      "attention": 3696,
      "aper": 3697,
      "symbol": 3698,
      "immed": 3699,
      "anchor": 3700,
      "fishing": 3701,
      "battery": 3702,
      "rhinocer": 3703,
      "popped": 3704,
      "mop": 3705,
      "ws": 3706,
      "weather": 3707,
      "maze": 3708,
      "jazz": 3709,
      "trail": 3710,
      "forgotten": 3711,
      "surren": 3712,
      "sla": 3713,
      "surrender": 3714,
      "flea": 3715,
      "celebrated": 3716,
      "luckily": 3717,
      "aff": 3718,
      "rosie": 3719,
      "sneak": 3720,
      "unpack": 3721,
      "surround": 3722,
      "slept": 3723,
      "waving": 3724,
      "intro": 3725,
      "introdu": 3726,
      "apr": 3727,
      "tina": 3728,
      "kingdom": 3729,
      "swamp": 3730,
      "tutor": 3731,
      "rhinoceros": 3732,
      "point": 3733,
      "fortunately": 3734,
      "sub": 3735,
      "points": 3736,
      "lend": 3737,
      "glowing": 3738,
      "fireplace": 3739,
      "breeze": 3740,
      "meeting": 3741,
      "sisted": 3742,
      "seas": 3743,
      "squirrels": 3744,
      "memories": 3745,
      "ckey": 3746,
      "grin": 3747,
      "hockey": 3748,
      "sunglasses": 3749,
      "reve": 3750,
      "stren": 3751,
      "streng": 3752,
      "mistakes": 3753,
      "dancer": 3754,
      "axe": 3755,
      "chickens": 3756,
      "writing": 3757,
      "zipper": 3758,
      "petals": 3759,
      "newsp": 3760,
      "iglo": 3761,
      "greedy": 3762,
      "strength": 3763,
      "ceiling": 3764,
      "snap": 3765,
      "hanging": 3766,
      "superhero": 3767,
      "cuss": 3768,
      "temple": 3769,
      "bury": 3770,
      "golden": 3771,
      "grocer": 3772,
      "chess": 3773,
      "staff": 3774,
      "sniffed": 3775,
      "experience": 3776,
      "trave": 3777,
      "argue": 3778,
      "cell": 3779,
      "eaten": 3780,
      "doggy": 3781,
      "musician": 3782,
      "discuss": 3783,
      "short": 3784,
      "baseball": 3785,
      "theater": 3786,
      "lime": 3787,
      "skirt": 3788,
      "puddles": 3789,
      "immedi": 3790,
      "microscope": 3791,
      "bouncing": 3792,
      "ouch": 3793,
      "immediately": 3794,
      "novel": 3795,
      "tol": 3796,
      "uniform": 3797,
      "miner": 3798,
      "radish": 3799,
      "san": 3800,
      "snowy": 3801,
      "comed": 3802,
      "igloo": 3803,
      "slipper": 3804,
      "shoulder": 3805,
      "lawy": 3806,
      "quietly": 3807,
      "welcomed": 3808,
      "throwing": 3809,
      "pis": 3810,
      "possible": 3811,
      "moves": 3812,
      "invest": 3813,
      "pistol": 3814,
      "plastic": 3815,
      "slippery": 3816,
      "flapped": 3817,
      "washer": 3818,
      "lotion": 3819,
      "accepted": 3820,
      "investig": 3821,
      "fought": 3822,
      "iv": 3823,
      "kayak": 3824,
      "during": 3825,
      "calls": 3826,
      "exer": 3827,
      "creek": 3828,
      "exerc": 3829,
      "mattre": 3830,
      "sticky": 3831,
      "chim": 3832,
      "served": 3833,
      "isn": 3834,
      "coats": 3835,
      "mystery": 3836,
      "pinch": 3837,
      "makeup": 3838,
      "yield": 3839,
      "uce": 3840,
      "freezer": 3841,
      "cared": 3842,
      "reef": 3843,
      "armchair": 3844,
      "wis": 3845,
      "oking": 3846,
      "fauce": 3847,
      "writ": 3848,
      "suff": 3849,
      "valley": 3850,
      "beef": 3851,
      "wigg": 3852,
      "news": 3853,
      "oak": 3854,
      "ison": 3855,
      "cherries": 3856,
      "sailing": 3857,
      "oyster": 3858,
      "tug": 3859,
      "yum": 3860,
      "regre": 3861,
      "crib": 3862,
      "applau": 3863,
      "investigate": 3864,
      "splashing": 3865,
      "œita": 3866,
      "cost": 3867,
      "rake": 3868,
      "zoe": 3869,
      "wags": 3870,
      "mattress": 3871,
      "lia": 3872,
      "presents": 3873,
      "faucet": 3874,
      "chimney": 3875,
      "dishwasher": 3876,
      "ticket": 3877,
      "mineral": 3878,
      "cobweb": 3879,
      "toile": 3880,
      "blin": 3881,
      "worth": 3882,
      "collected": 3883,
      "dressed": 3884,
      "zzy": 3885,
      "magazine": 3886,
      "mint": 3887,
      "freddy": 3888,
      "alarm": 3889,
      "sprayed": 3890,
      "veil": 3891,
      "happens": 3892,
      "separate": 3893,
      "zor": 3894,
      "appro": 3895,
      "entered": 3896,
      "shrugged": 3897,
      "captain": 3898,
      "lawyer": 3899,
      "keeping": 3900,
      "scolded": 3901,
      "rush": 3902,
      "toilet": 3903,
      "fant": 3904,
      "sigh": 3905,
      "shrink": 3906,
      "regret": 3907,
      "mosquito": 3908,
      "razor": 3909,
      "argu": 3910,
      "ruby": 3911,
      "display": 3912,
      "ms": 3913,
      "blankets": 3914,
      "sparkle": 3915,
      "vid": 3916,
      "tucked": 3917,
      "candles": 3918,
      "die": 3919,
      "burned": 3920,
      "ignored": 3921,
      "poo": 3922,
      "hon": 3923,
      "milly": 3924,
      "kisses": 3925,
      "hopes": 3926,
      "len": 3927,
      "classroom": 3928,
      "follows": 3929,
      "bathe": 3930,
      "thr": 3931,
      "missile": 3932,
      "apart": 3933,
      "easily": 3934,
      "chairs": 3935,
      "letting": 3936,
      "omed": 3937,
      "pedal": 3938,
      "language": 3939,
      "straight": 3940,
      "bother": 3941,
      "veter": 3942,
      "veterin": 3943,
      "caring": 3944,
      "accept": 3945,
      "model": 3946,
      "veterinarian": 3947,
      "stable": 3948,
      "olive": 3949,
      "jewelry": 3950,
      "trusted": 3951,
      "wardrobe": 3952,
      "sizes": 3953,
      "lab": 3954,
      "vision": 3955,
      "shower": 3956,
      "claws": 3957,
      "telephone": 3958,
      "label": 3959,
      "opera": 3960,
      "trade": 3961,
      "slice": 3962,
      "incre": 3963,
      "blinked": 3964,
      "rooms": 3965,
      "tornado": 3966,
      "puzzles": 3967,
      "lawn": 3968,
      "cabinet": 3969,
      "couraged": 3970,
      "crossed": 3971,
      "blouse": 3972,
      "newspaper": 3973,
      "kneel": 3974,
      "blueberries": 3975,
      "squeeze": 3976,
      "bookcase": 3977,
      "subway": 3978,
      "delay": 3979,
      "sham": 3980,
      "lumber": 3981,
      "recomm": 3982,
      "ement": 3983,
      "amazement": 3984,
      "grill": 3985,
      "ups": 3986,
      "mustache": 3987,
      "squeezed": 3988,
      "bookshelf": 3989,
      "shampoo": 3990,
      "fuel": 3991,
      "crawling": 3992,
      "gym": 3993,
      "gran": 3994,
      "request": 3995,
      "following": 3996,
      "blood": 3997,
      "reverse": 3998,
      "dic": 3999,
      "television": 4000,
      "padd": 4001,
      "fume": 4002,
      "perfume": 4003,
      "matches": 4004,
      "spear": 4005,
      "lic": 4006,
      "file": 4007,
      "improve": 4008,
      "holid": 4009,
      "holiday": 4010,
      "mand": 4011,
      "poked": 4012,
      "quiz": 4013,
      "war": 4014,
      "€.": 4015,
      "worms": 4016,
      "steam": 4017,
      "licks": 4018,
      "fest": 4019,
      "cliff": 4020,
      "diction": 4021,
      "tast": 4022,
      "drain": 4023,
      "demand": 4024,
      "dent": 4025,
      "prepar": 4026,
      "melt": 4027,
      "attach": 4028,
      "ringing": 4029,
      "waste": 4030,
      "llen": 4031,
      "helper": 4032,
      "nore": 4033,
      "gear": 4034,
      "unfortunately": 4035,
      "dictionary": 4036,
      "lier": 4037,
      "ga": 4038,
      "ribbon": 4039,
      "recei": 4040,
      "katie": 4041,
      "rabbits": 4042,
      "sneeze": 4043,
      "yucky": 4044,
      "decis": 4045,
      "growled": 4046,
      "begged": 4047,
      "ideas": 4048,
      "warmth": 4049,
      "invite": 4050,
      "ival": 4051,
      "birdcage": 4052,
      "hic": 4053,
      "mist": 4054,
      "rail": 4055,
      "below": 4056,
      "vehic": 4057,
      "weep": 4058,
      "calend": 4059,
      "festival": 4060,
      "married": 4061,
      "ollie": 4062,
      "fallen": 4063,
      "moments": 4064,
      "bravely": 4065,
      "pastry": 4066,
      "oas": 4067,
      "offic": 4068,
      "safety": 4069,
      "surprises": 4070,
      "understanding": 4071,
      "structure": 4072,
      "whip": 4073,
      "expected": 4074,
      "oasis": 4075,
      "laught": 4076,
      "œno": 4077,
      "sparkles": 4078,
      "calendar": 4079,
      "junk": 4080,
      "laughter": 4081,
      "wandered": 4082,
      "buckle": 4083,
      "brain": 4084,
      "hurting": 4085,
      "pastel": 4086,
      "cham": 4087,
      "pages": 4088,
      "float": 4089,
      "hearts": 4090,
      "somed": 4091,
      "someday": 4092,
      "surf": 4093,
      "root": 4094,
      "autom": 4095,
      "ignore": 4096,
      "automob": 4097,
      "strawberries": 4098,
      "buried": 4099,
      "apron": 4100,
      "reaches": 4101,
      "admir": 4102,
      "relaxed": 4103,
      "rachel": 4104,
      "myself": 4105,
      "sandcastle": 4106,
      "plates": 4107,
      "raise": 4108,
      "bers": 4109,
      "skills": 4110,
      "invit": 4111,
      "steve": 4112,
      "oper": 4113,
      "spade": 4114,
      "asht": 4115,
      "ashtray": 4116,
      "gers": 4117,
      "direct": 4118,
      "bathrobe": 4119,
      "tsy": 4120,
      "dare": 4121,
      "saving": 4122,
      "beamed": 4123,
      "'.": 4124,
      "snapped": 4125,
      "friger": 4126,
      "refriger": 4127,
      "earlier": 4128,
      "betsy": 4129,
      "weap": 4130,
      "supply": 4131,
      "socks": 4132,
      "refrigerator": 4133,
      "received": 4134,
      "icing": 4135,
      "prevent": 4136,
      "harbor": 4137,
      "ining": 4138,
      "none": 4139,
      "teaching": 4140,
      "spots": 4141,
      "jail": 4142,
      "compl": 4143,
      "thumb": 4144,
      "vanished": 4145,
      "sparkling": 4146,
      "insisted": 4147,
      "bumped": 4148,
      "abig": 4149,
      "prepare": 4150,
      "spending": 4151,
      "dried": 4152,
      "jewels": 4153,
      "frank": 4154,
      "lemonade": 4155,
      "blackboard": 4156,
      "insect": 4157,
      "beans": 4158,
      "scattered": 4159,
      "abigail": 4160,
      "settled": 4161,
      "disturb": 4162,
      "boot": 4163,
      "permission": 4164,
      "balan": 4165,
      "replace": 4166,
      "scooped": 4167,
      "wisdom": 4168,
      "encouraged": 4169,
      "yawned": 4170,
      "wine": 4171,
      "tease": 4172,
      "destroyed": 4173,
      "achie": 4174,
      "hanger": 4175,
      "aking": 4176,
      "remove": 4177,
      "pulling": 4178,
      "hardly": 4179,
      "pride": 4180,
      "ium": 4181,
      "hate": 4182,
      "solved": 4183,
      "shot": 4184,
      "license": 4185,
      "antly": 4186,
      "poison": 4187,
      "ached": 4188,
      "sits": 4189,
      "conf": 4190,
      "decorations": 4191,
      "sters": 4192,
      "washing": 4193,
      "cuddled": 4194,
      "afterwards": 4195,
      "repeat": 4196,
      "rhy": 4197,
      "wiz": 4198,
      "nation": 4199,
      "dresses": 4200,
      "respons": 4201,
      "tling": 4202,
      "vor": 4203,
      "david": 4204,
      "glit": 4205,
      "scratch": 4206,
      "punish": 4207,
      "cation": 4208,
      "guy": 4209,
      "mention": 4210,
      "chip": 4211,
      "suffer": 4212,
      "praised": 4213,
      "equ": 4214,
      "crun": 4215,
      "chirping": 4216,
      "tour": 4217,
      "hits": 4218,
      "appreciate": 4219,
      "buzzing": 4220,
      "remy": 4221,
      "patiently": 4222,
      "fastest": 4223,
      "automobile": 4224,
      "wobb": 4225,
      "warning": 4226,
      "cartoon": 4227,
      "restore": 4228,
      "bleed": 4229,
      "digg": 4230,
      "obey": 4231,
      "mall": 4232,
      "versity": 4233,
      "score": 4234,
      "nies": 4235,
      "destination": 4236,
      "taller": 4237,
      "hers": 4238,
      "climbs": 4239,
      "bling": 4240,
      "hesit": 4241,
      "sausage": 4242,
      "mmm": 4243,
      "digging": 4244,
      "hurri": 4245,
      "proper": 4246,
      "believed": 4247,
      "approached": 4248,
      "wizard": 4249,
      "fied": 4250,
      "remain": 4251,
      "university": 4252,
      "passport": 4253,
      "tore": 4254,
      "vy": 4255,
      "heat": 4256,
      "deeper": 4257,
      "homes": 4258,
      "perfor": 4259,
      "chamber": 4260,
      "turning": 4261,
      "cherry": 4262,
      "anytime": 4263,
      "struggling": 4264,
      "upstairs": 4265,
      "universe": 4266,
      "hills": 4267,
      "hes": 4268,
      "difference": 4269,
      "billboard": 4270,
      "pillows": 4271,
      "tongue": 4272,
      "infant": 4273,
      "teas": 4274,
      "provide": 4275,
      "panic": 4276,
      "thrilled": 4277,
      "sneezed": 4278,
      "lets": 4279,
      "vacation": 4280,
      "shooting": 4281,
      "twisted": 4282,
      "glowed": 4283,
      "hurricane": 4284,
      "worse": 4285,
      "sprinkles": 4286,
      "setting": 4287,
      "cin": 4288,
      "eter": 4289,
      "girls": 4290,
      "parts": 4291,
      "mometer": 4292,
      "thermometer": 4293,
      "weeks": 4294,
      "examine": 4295,
      "wherever": 4296,
      "orang": 4297,
      "airplane": 4298,
      "oranges": 4299,
      "remained": 4300,
      "ranch": 4301,
      "plays": 4302,
      "folded": 4303,
      "chores": 4304,
      "neighborhood": 4305,
      "floated": 4306,
      "leak": 4307,
      "toe": 4308,
      "rhyth": 4309,
      "nie": 4310,
      "floating": 4311,
      "grey": 4312,
      "paints": 4313,
      "copper": 4314,
      "bites": 4315,
      "ki": 4316,
      "fixing": 4317,
      "ski": 4318,
      "adium": 4319,
      "stadium": 4320,
      "measured": 4321,
      "everybody": 4322,
      "sip": 4323,
      "memory": 4324,
      "massage": 4325,
      "surrounded": 4326,
      "scatter": 4327,
      "exercise": 4328,
      "grinned": 4329,
      "!'": 4330,
      "!\",": 4331,
      "suppo": 4332,
      "supposed": 4333,
      "teaspo": 4334,
      "paused": 4335,
      "gifts": 4336,
      "beat": 4337,
      "brings": 4338,
      "fut": 4339,
      "unite": 4340,
      "actually": 4341,
      "future": 4342,
      "signs": 4343,
      "ker": 4344,
      "disco": 4345,
      "œia": 4346,
      "elephants": 4347,
      "collection": 4348,
      "marbles": 4349,
      "flood": 4350,
      "tide": 4351,
      "sunrise": 4352,
      "discovery": 4353,
      "mailman": 4354,
      "mister": 4355,
      "permit": 4356,
      "vehicle": 4357,
      "beth": 4358,
      "palm": 4359,
      "muscle": 4360,
      "crunch": 4361,
      "urge": 4362,
      "œthata": 4363,
      "gust": 4364,
      "stomach": 4365,
      "meowed": 4366,
      "rang": 4367,
      "tomatoes": 4368,
      "jan": 4369,
      "lugg": 4370,
      "fy": 4371,
      "weapon": 4372,
      "zag": 4373,
      "jogging": 4374,
      "fascin": 4375,
      "chewed": 4376,
      "decision": 4377,
      "observe": 4378,
      "cartoons": 4379,
      "sore": 4380,
      "zig": 4381,
      "luggage": 4382,
      "grape": 4383,
      "robb": 4384,
      "velvet": 4385,
      "zipped": 4386,
      "scur": 4387,
      "sunlight": 4388,
      "skipping": 4389,
      "curled": 4390,
      "collecting": 4391,
      "choo": 4392,
      "rhythm": 4393,
      "œit": 4394,
      "teaspoon": 4395,
      "sliding": 4396,
      "iers": 4397,
      "melted": 4398,
      "chirped": 4399,
      "ities": 4400,
      "spill": 4401,
      "lick": 4402,
      "ef": 4403,
      "aded": 4404,
      "pea": 4405,
      "satis": 4406,
      "safar": 4407,
      "luna": 4408,
      "xy": 4409,
      "squeak": 4410,
      "price": 4411,
      "problems": 4412,
      "zero": 4413,
      "fet": 4414,
      "mountains": 4415,
      "navy": 4416,
      "tracks": 4417,
      "emer": 4418,
      "manage": 4419,
      "growl": 4420,
      "umble": 4421,
      "receive": 4422,
      "equip": 4423,
      "unic": 4424,
      "equipment": 4425,
      "œthank": 4426,
      "potatoes": 4427,
      "admiring": 4428,
      "bricks": 4429,
      "laid": 4430,
      "nina": 4431,
      "agreement": 4432,
      "whistling": 4433,
      "watered": 4434,
      "contain": 4435,
      "thom": 4436,
      "ake": 4437,
      "twigs": 4438,
      "soldiers": 4439,
      "goodnight": 4440,
      "prune": 4441,
      "patterns": 4442,
      "kindly": 4443,
      "lap": 4444,
      "petted": 4445,
      "seats": 4446,
      "glitter": 4447,
      "history": 4448,
      "pigs": 4449,
      "ction": 4450,
      "gloves": 4451,
      "anne": 4452,
      "joyed": 4453,
      "overjoyed": 4454,
      "strangers": 4455,
      "quake": 4456,
      "officer": 4457,
      "vic": 4458,
      "beside": 4459,
      "continue": 4460,
      "ordered": 4461,
      "lest": 4462,
      "pets": 4463,
      "safari": 4464,
      "watches": 4465,
      "accidents": 4466,
      "gotten": 4467,
      "eagle": 4468,
      "network": 4469,
      "abby": 4470,
      "thomas": 4471,
      "marching": 4472,
      "operation": 4473,
      "earthquake": 4474,
      "flavor": 4475,
      "lul": 4476,
      "challen": 4477,
      "chlo": 4478,
      "prayed": 4479,
      "lip": 4480,
      "bones": 4481,
      "brid": 4482,
      "ins": 4483,
      "peered": 4484,
      "acorns": 4485,
      "cious": 4486,
      "famil": 4487,
      "invitation": 4488,
      "pip": 4489,
      "julie": 4490,
      "lips": 4491,
      "attached": 4492,
      "wooden": 4493,
      "suzy": 4494,
      "weight": 4495,
      "grocery": 4496,
      "zigzag": 4497,
      "company": 4498,
      "racing": 4499,
      "drinks": 4500,
      "fireworks": 4501,
      "josh": 4502,
      "raised": 4503,
      "disagreed": 4504,
      "orts": 4505,
      "ali": 4506,
      "chloe": 4507,
      "esca": 4508,
      "peanuts": 4509,
      "sidewalk": 4510,
      "burning": 4511,
      "floppy": 4512,
      "freeze": 4513,
      "onwards": 4514,
      "rested": 4515,
      "\",": 4516,
      "spoons": 4517,
      "ashes": 4518,
      "exact": 4519,
      "happiest": 4520,
      "dinosaurs": 4521,
      "crunchy": 4522,
      "crashed": 4523,
      "beha": 4524,
      "œwe": 4525,
      "brick": 4526,
      "whistled": 4527,
      "pies": 4528,
      "hurried": 4529,
      "wre": 4530,
      "prepared": 4531,
      "aw": 4532,
      "refre": 4533,
      "refreshed": 4534,
      "aren": 4535,
      "stitch": 4536,
      "clearing": 4537,
      "bowed": 4538,
      "whatever": 4539,
      "scratched": 4540,
      "remembers": 4541,
      "bridges": 4542,
      "menu": 4543,
      "escaped": 4544,
      "buildings": 4545,
      "planted": 4546,
      "brand": 4547,
      "comfy": 4548,
      "works": 4549,
      "revealed": 4550,
      "settle": 4551,
      "easier": 4552,
      "chat": 4553,
      "selling": 4554,
      "tha": 4555,
      "precious": 4556,
      "pupp": 4557,
      "screams": 4558,
      "jamie": 4559,
      "hated": 4560,
      "oxy": 4561,
      "muddy": 4562,
      "drinking": 4563,
      "fash": 4564,
      "recognized": 4565,
      "accompl": 4566,
      "crept": 4567,
      "rained": 4568,
      "style": 4569,
      "measuring": 4570,
      "circus": 4571,
      "six": 4572,
      "simple": 4573,
      "beds": 4574,
      "oxygen": 4575,
      "waits": 4576,
      "sings": 4577,
      "curio": 4578,
      "lecture": 4579,
      "slip": 4580,
      "shadows": 4581,
      "curiosity": 4582,
      "spaceship": 4583,
      "perched": 4584,
      "flutter": 4585,
      "weren": 4586,
      "solut": 4587,
      "sunday": 4588,
      "reminder": 4589,
      "woof": 4590,
      "ffic": 4591,
      "wonders": 4592,
      "pitch": 4593,
      "ented": 4594,
      "cutting": 4595,
      "œcan": 4596,
      "grandmother": 4597,
      "bene": 4598,
      "responsible": 4599,
      "voices": 4600,
      "cuddle": 4601,
      "umes": 4602,
      "steel": 4603,
      "cub": 4604,
      "fashion": 4605,
      "oats": 4606,
      "swo": 4607,
      "comforted": 4608,
      "apologize": 4609,
      "youa": 4610,
      "west": 4611,
      "exactly": 4612,
      "traffic": 4613,
      "soared": 4614,
      "secrets": 4615,
      "trapped": 4616,
      "peel": 4617,
      "printer": 4618,
      "disturbed": 4619,
      "landscape": 4620,
      "tastes": 4621,
      "shopping": 4622,
      "sages": 4623,
      "succeeded": 4624,
      "villag": 4625,
      "pearl": 4626,
      "olives": 4627,
      "stripes": 4628,
      "stealing": 4629,
      "hanna": 4630,
      "prints": 4631,
      "items": 4632,
      "fer": 4633,
      "bringing": 4634,
      "practicing": 4635,
      "visiting": 4636,
      "sisters": 4637,
      "loaded": 4638,
      "caut": 4639,
      "fuzzy": 4640,
      "activ": 4641,
      "zing": 4642,
      "costumes": 4643,
      "att": 4644,
      "ising": 4645,
      "answers": 4646,
      "breaking": 4647,
      "soak": 4648,
      "startled": 4649,
      "rul": 4650,
      "izing": 4651,
      "sadness": 4652,
      "nails": 4653,
      "waffles": 4654,
      "brushed": 4655,
      "mouths": 4656,
      "ric": 4657,
      "encourage": 4658,
      "monsters": 4659,
      "recommend": 4660,
      "victory": 4661,
      "fascinated": 4662,
      "mare": 4663,
      "lemons": 4664,
      "ky": 4665,
      "chef": 4666,
      "catching": 4667,
      "leather": 4668,
      "underne": 4669,
      "underground": 4670,
      "underneath": 4671,
      "waist": 4672,
      "lung": 4673,
      "unicorn": 4674,
      "beneath": 4675,
      "owned": 4676,
      "claire": 4677,
      "blueberry": 4678,
      "est": 4679,
      "nutty": 4680,
      "knel": 4681,
      "pupil": 4682,
      "knelt": 4683,
      "image": 4684,
      "nightmare": 4685,
      "villagers": 4686,
      "downstairs": 4687,
      "recognize": 4688,
      "yester": 4689,
      "unlocked": 4690,
      "ots": 4691,
      "yesterday": 4692,
      "exit": 4693,
      "inda": 4694,
      "creation": 4695,
      "tremble": 4696,
      "bank": 4697,
      "wanting": 4698,
      "adam": 4699,
      "eats": 4700,
      "doctors": 4701,
      "wreck": 4702,
      "winning": 4703,
      "soaring": 4704,
      "jogged": 4705,
      "wondering": 4706,
      "betty": 4707,
      "ctions": 4708,
      "ripped": 4709,
      "fetch": 4710,
      "bouncy": 4711,
      "mira": 4712,
      "instru": 4713,
      "herbs": 4714,
      "gained": 4715,
      "struggled": 4716,
      "stirring": 4717,
      "punished": 4718,
      "bleeding": 4719,
      "tilly": 4720,
      "nes": 4721,
      "jessie": 4722,
      "area": 4723,
      "heel": 4724,
      "examined": 4725,
      "nicer": 4726,
      "firemen": 4727,
      "machines": 4728,
      "todd": 4729,
      "planned": 4730,
      "guessed": 4731,
      "satisfied": 4732,
      "united": 4733,
      "situ": 4734,
      "piles": 4735,
      "argued": 4736,
      "sides": 4737,
      "chirpy": 4738,
      "challenge": 4739,
      "hannah": 4740,
      "increase": 4741,
      "zooming": 4742,
      "bunnies": 4743,
      "peaches": 4744,
      "tugged": 4745,
      "bare": 4746,
      "studied": 4747,
      "firefight": 4748,
      "iggy": 4749,
      "wagging": 4750,
      "keys": 4751,
      "spiders": 4752,
      "lulu": 4753,
      "rs": 4754,
      "mice": 4755,
      "teasing": 4756,
      "ases": 4757,
      "sniff": 4758,
      "deser": 4759,
      "gathering": 4760,
      "seag": 4761,
      "cot": 4762,
      "properly": 4763,
      "shivering": 4764,
      "lines": 4765,
      "twinkle": 4766,
      "winner": 4767,
      "mixing": 4768,
      "tune": 4769,
      "seagull": 4770,
      "blink": 4771,
      "outdoors": 4772,
      "œhello": 4773,
      "wid": 4774,
      "yelling": 4775,
      "twirling": 4776,
      "lux": 4777,
      "tickets": 4778,
      "release": 4779,
      "decorated": 4780,
      "pancakes": 4781,
      "slapped": 4782,
      "inch": 4783,
      "supplies": 4784,
      "luxu": 4785,
      "neighbourhood": 4786,
      "introduce": 4787,
      "sights": 4788,
      "studying": 4789,
      "susan": 4790,
      "rides": 4791,
      "brushes": 4792,
      "dolly": 4793,
      "begin": 4794,
      "rubbing": 4795,
      "burrow": 4796,
      "struck": 4797,
      "siren": 4798,
      "uses": 4799,
      "loving": 4800,
      "tonight": 4801,
      "strike": 4802,
      "prunes": 4803,
      "weighed": 4804,
      "bert": 4805,
      "released": 4806,
      "draws": 4807,
      "confident": 4808,
      "muffins": 4809,
      "reas": 4810,
      "sneaked": 4811,
      "slim": 4812,
      "realize": 4813,
      "baked": 4814,
      ".'": 4815,
      "stored": 4816,
      "ica": 4817,
      "boom": 4818,
      "instructions": 4819,
      "flap": 4820,
      "competition": 4821,
      "ana": 4822,
      "amb": 4823,
      "thata": 4824,
      "emergen": 4825,
      "pinched": 4826,
      "giggling": 4827,
      "budge": 4828,
      "printed": 4829,
      "trol": 4830,
      "opin": 4831,
      "œlook": 4832,
      "pockets": 4833,
      "strip": 4834,
      "bunch": 4835,
      "deal": 4836,
      "shoulders": 4837,
      "frosting": 4838,
      "ppers": 4839,
      "east": 4840,
      "stamps": 4841,
      "decides": 4842,
      "ecting": 4843,
      "marks": 4844,
      "ourselves": 4845,
      "bend": 4846,
      "stretching": 4847,
      "travell": 4848,
      "œthis": 4849,
      "cones": 4850,
      "chuck": 4851,
      "ents": 4852,
      "patience": 4853,
      "smar": 4854,
      "broom": 4855,
      "pears": 4856,
      "hunt": 4857,
      "poking": 4858,
      "relu": 4859,
      "reluct": 4860,
      "strings": 4861,
      "kicking": 4862,
      "scurried": 4863,
      "€”": 4864,
      "ruler": 4865,
      "carl": 4866,
      "lou": 4867,
      "honk": 4868,
      "sted": 4869,
      "youth": 4870,
      "wednes": 4871,
      "repeated": 4872,
      "claps": 4873,
      "ago": 4874,
      "motion": 4875,
      "control": 4876,
      "sorting": 4877,
      "ler": 4878,
      "kayla": 4879,
      "santa": 4880,
      "cautious": 4881,
      "ruin": 4882,
      "rr": 4883,
      "touching": 4884,
      "demanded": 4885,
      "neighbors": 4886,
      "protected": 4887,
      "linda": 4888,
      "mentioned": 4889,
      "luke": 4890,
      "fab": 4891,
      "guns": 4892,
      "keeps": 4893,
      "sweeties": 4894,
      "powers": 4895,
      "writes": 4896,
      "nibb": 4897,
      "hest": 4898,
      "tex": 4899,
      "tues": 4900,
      "zie": 4901,
      "ribbons": 4902,
      "buckets": 4903,
      "momo": 4904,
      "gree": 4905,
      "hoppy": 4906,
      "jeff": 4907,
      "reluctantly": 4908,
      "tiest": 4909,
      "prettiest": 4910,
      "soaked": 4911,
      "camping": 4912,
      "parked": 4913,
      "œwhy": 4914,
      "beard": 4915,
      "silence": 4916,
      "barely": 4917,
      "œdona": 4918,
      "horns": 4919,
      "pebbles": 4920,
      "dragons": 4921,
      "luxury": 4922,
      "crumb": 4923,
      "discovering": 4924,
      "eight": 4925,
      "riage": 4926,
      "comple": 4927,
      "dolphins": 4928,
      "babies": 4929,
      "guys": 4930,
      "zen": 4931,
      "twinkling": 4932,
      "acted": 4933,
      "result": 4934,
      "surface": 4935,
      "texture": 4936,
      "uh": 4937,
      "stole": 4938,
      "ects": 4939,
      "vies": 4940,
      "weed": 4941,
      "gazed": 4942,
      "ladybug": 4943,
      "vowed": 4944,
      "movies": 4945,
      "purred": 4946,
      "steep": 4947,
      "rocking": 4948,
      "chewing": 4949,
      "emergency": 4950,
      "shock": 4951,
      "unexpected": 4952,
      "tickle": 4953,
      "lizzy": 4954,
      "cind": 4955,
      "applauded": 4956,
      "loose": 4957,
      "entire": 4958,
      "sports": 4959,
      "contest": 4960,
      "urged": 4961,
      "dragged": 4962,
      "muscles": 4963,
      "shelves": 4964,
      "catches": 4965,
      "strum": 4966,
      "wednesday": 4967,
      "ults": 4968,
      "frozen": 4969,
      "flat": 4970,
      "fabric": 4971,
      "jenna": 4972,
      "curtains": 4973,
      "completed": 4974,
      "gg": 4975,
      "season": 4976,
      "chips": 4977,
      "wil": 4978,
      "cindy": 4979,
      "suzie": 4980,
      "curly": 4981,
      "ib": 4982,
      "nick": 4983,
      "introduced": 4984,
      "lena": 4985,
      "excuse": 4986,
      "chases": 4987,
      "direction": 4988,
      "ledge": 4989,
      "snail": 4990,
      "importance": 4991,
      "solution": 4992,
      "librarian": 4993,
      "wound": 4994,
      "highest": 4995,
      "figured": 4996,
      "screaming": 4997,
      "shivered": 4998,
      "hugging": 4999,
      "pouring": 5000,
      "rocked": 5001,
      "rust": 5002,
      "roaring": 5003,
      "achieve": 5004,
      "staring": 5005,
      "cough": 5006,
      "include": 5007,
      "sled": 5008,
      "theirs": 5009,
      "stom": 5010,
      "œoh": 5011,
      "sorted": 5012,
      "drives": 5013,
      "slimy": 5014,
      "ham": 5015,
      "master": 5016,
      "vin": 5017,
      "planets": 5018,
      "moo": 5019,
      "exha": 5020,
      "rings": 5021,
      "rainbows": 5022,
      "cana": 5023,
      "balancing": 5024,
      "policeman": 5025,
      "awesome": 5026,
      "momma": 5027,
      "jon": 5028,
      "mater": 5029,
      "lied": 5030,
      "ads": 5031,
      "tuesday": 5032,
      "material": 5033,
      "exhau": 5034,
      "safer": 5035,
      "effort": 5036,
      "knowledge": 5037,
      "foods": 5038,
      "situation": 5039,
      "snowball": 5040,
      "pinky": 5041,
      "homework": 5042,
      "matched": 5043,
      "passing": 5044,
      "flags": 5045,
      "sighs": 5046,
      "plent": 5047,
      "cast": 5048,
      "wink": 5049,
      "irts": 5050,
      "shined": 5051,
      "dared": 5052,
      "plenty": 5053,
      "towels": 5054,
      "zookeeper": 5055,
      "radishes": 5056,
      "cts": 5057,
      "rip": 5058,
      "rusty": 5059,
      "bravery": 5060,
      "although": 5061,
      "reaching": 5062,
      "thre": 5063,
      "sausages": 5064,
      "resting": 5065,
      "truly": 5066,
      "pretends": 5067,
      "cheering": 5068,
      "accomplish": 5069,
      "dies": 5070,
      "wedding": 5071,
      "swoop": 5072,
      "matt": 5073,
      "yeah": 5074,
      "goals": 5075,
      "marriage": 5076,
      "reveal": 5077,
      "mies": 5078,
      "dusty": 5079,
      "jamas": 5080,
      "jacob": 5081,
      "vanish": 5082,
      "tara": 5083,
      "threat": 5084,
      "worker": 5085,
      "baa": 5086,
      "patted": 5087,
      "packing": 5088,
      "exhausted": 5089,
      "lizz": 5090,
      "caused": 5091,
      "paintings": 5092,
      "colored": 5093,
      "student": 5094,
      "cuts": 5095,
      "zes": 5096,
      "spraying": 5097,
      "arguing": 5098,
      "blooming": 5099,
      "shh": 5100,
      "sobb": 5101,
      "sweets": 5102,
      "piggy": 5103,
      "matching": 5104,
      "growling": 5105,
      "jects": 5106,
      "waiter": 5107,
      "crumbs": 5108,
      "...": 5109,
      "struggle": 5110,
      "sticking": 5111,
      "nect": 5112,
      "lizzie": 5113,
      "markers": 5114,
      "written": 5115,
      "kneeled": 5116,
      "mane": 5117,
      "paddled": 5118,
      "cubes": 5119,
      "tails": 5120,
      "sway": 5121,
      "jessica": 5122,
      "sen": 5123,
      "organizing": 5124,
      "inviting": 5125,
      "rescued": 5126,
      "nets": 5127,
      "fir": 5128,
      "traveled": 5129,
      "julia": 5130,
      "creating": 5131,
      "bottles": 5132,
      "princesses": 5133,
      "singer": 5134,
      "guest": 5135,
      "roads": 5136,
      "learns": 5137,
      "dresser": 5138,
      "inky": 5139,
      "project": 5140,
      "pipp": 5141,
      "ripe": 5142,
      "dais": 5143,
      "disagree": 5144,
      "trembling": 5145,
      "regretted": 5146,
      "bars": 5147,
      "bloomed": 5148,
      "workers": 5149,
      "aster": 5150,
      "replaced": 5151,
      "abb": 5152,
      "arrive": 5153,
      "pots": 5154,
      "desp": 5155,
      "recorded": 5156,
      "pencils": 5157,
      "despite": 5158,
      "daisies": 5159,
      "ranger": 5160,
      "included": 5161,
      "prayer": 5162,
      "fairies": 5163,
      "observed": 5164,
      "faced": 5165,
      "vided": 5166,
      "lamb": 5167,
      "activities": 5168,
      "wires": 5169,
      "darkness": 5170,
      "opening": 5171,
      "firm": 5172,
      "timer": 5173,
      "leader": 5174,
      "poems": 5175,
      "pajamas": 5176,
      "seesaw": 5177,
      "folding": 5178,
      "penguins": 5179,
      "worries": 5180,
      "removed": 5181,
      "peeking": 5182,
      "ventured": 5183,
      "relief": 5184,
      "stare": 5185,
      "countryside": 5186,
      "usually": 5187,
      "polishing": 5188,
      "completely": 5189,
      "snakes": 5190,
      "angled": 5191,
      "inst": 5192,
      "ud": 5193,
      "wasted": 5194,
      "reply": 5195,
      "belly": 5196,
      "storekeeper": 5197,
      "flames": 5198,
      "miles": 5199,
      "cautiously": 5200,
      "rees": 5201,
      "fault": 5202,
      "owners": 5203,
      "crabs": 5204,
      "copy": 5205,
      "johnson": 5206,
      "agrees": 5207,
      "squeaky": 5208,
      "slap": 5209,
      "partic": 5210,
      "applaud": 5211,
      "quacked": 5212,
      "stern": 5213,
      "kites": 5214,
      "gar": 5215,
      "becoming": 5216,
      "rubs": 5217,
      "helme": 5218,
      "rance": 5219,
      "helmets": 5220,
      "wasna": 5221,
      "gig": 5222,
      "scales": 5223,
      "whee": 5224,
      "scra": 5225,
      "mun": 5226,
      "larry": 5227,
      "jun": 5228,
      "melting": 5229,
      "thro": 5230,
      "healed": 5231,
      "squealed": 5232,
      "logs": 5233,
      "coloured": 5234,
      "snat": 5235,
      "shaped": 5236,
      "lollipops": 5237,
      "opinion": 5238,
      "tractor": 5239,
      "stem": 5240,
      "throat": 5241,
      "hoo": 5242,
      "jay": 5243,
      "marked": 5244,
      "cash": 5245,
      "jones": 5246,
      "roses": 5247,
      "dipped": 5248,
      "crowd": 5249,
      "staying": 5250,
      "seems": 5251,
      "knights": 5252,
      "granny": 5253,
      "rist": 5254,
      "bon": 5255,
      "teaches": 5256,
      "groceries": 5257,
      "polished": 5258,
      "rolls": 5259,
      "naps": 5260,
      "valued": 5261,
      "provided": 5262,
      "interested": 5263,
      "freed": 5264,
      "dentist": 5265,
      "baker": 5266,
      "bumpy": 5267,
      "cky": 5268,
      "filling": 5269,
      "june": 5270,
      "hops": 5271,
      "somebody": 5272,
      "blows": 5273,
      "christ": 5274,
      "cracked": 5275,
      "sophia": 5276,
      "cure": 5277,
      "wallow": 5278,
      "faraway": 5279,
      "lau": 5280,
      "swallow": 5281,
      "signed": 5282,
      "desert": 5283,
      "protecting": 5284,
      "actions": 5285,
      "misses": 5286,
      "winked": 5287,
      "wandering": 5288,
      "robo": 5289,
      "balanced": 5290,
      "delivery": 5291,
      "pastries": 5292,
      "crackers": 5293,
      "bess": 5294,
      "younger": 5295,
      "closes": 5296,
      "chuckled": 5297,
      "listens": 5298,
      "single": 5299,
      "roots": 5300,
      "beads": 5301,
      "iar": 5302,
      "coo": 5303,
      "particular": 5304,
      "familiar": 5305,
      "œwhata": 5306,
      "directions": 5307,
      "œmommy": 5308,
      "splashes": 5309,
      "itchy": 5310,
      "pastels": 5311,
      "cous": 5312,
      "abbie": 5313,
      "froze": 5314,
      "ron": 5315,
      "snuggles": 5316,
      "restored": 5317,
      "snowballs": 5318,
      "gaze": 5319,
      "gigi": 5320,
      "fluttered": 5321,
      "sweat": 5322,
      "forehead": 5323,
      "lined": 5324,
      "swooped": 5325,
      "laura": 5326,
      "suitcase": 5327,
      "toss": 5328,
      "wiggled": 5329,
      "christmas": 5330,
      "remo": 5331,
      "swirl": 5332,
      "sparky": 5333,
      "pam": 5334,
      "acting": 5335,
      "refle": 5336,
      "slam": 5337,
      "photos": 5338,
      "nectar": 5339,
      "mickey": 5340,
      "awake": 5341,
      "€˜": 5342,
      "neither": 5343,
      "celebration": 5344,
      "pedals": 5345,
      "trips": 5346,
      "speaking": 5347,
      "backed": 5348,
      "tallest": 5349,
      "cashier": 5350,
      "determin": 5351,
      "remote": 5352,
      "chris": 5353,
      "darker": 5354,
      "ences": 5355,
      "determination": 5356,
      "ility": 5357,
      "complaining": 5358,
      "sequ": 5359,
      "seven": 5360,
      "secure": 5361,
      "--": 5362,
      "pandy": 5363,
      "sneaky": 5364,
      "insist": 5365,
      "milo": 5366,
      "knees": 5367,
      "recording": 5368,
      "month": 5369,
      "sew": 5370,
      "videos": 5371,
      "rockets": 5372,
      "joyful": 5373,
      "pause": 5374,
      "indeed": 5375,
      "cted": 5376,
      "health": 5377,
      "pleasure": 5378,
      "entrance": 5379,
      "accomplishment": 5380,
      "liqu": 5381,
      "liquid": 5382,
      "ongest": 5383,
      "?\",": 5384,
      "emmy": 5385,
      "lies": 5386,
      "rob": 5387,
      "shirts": 5388,
      "glee": 5389,
      "buzzy": 5390,
      "delivered": 5391,
      "beyond": 5392,
      "joking": 5393,
      "wears": 5394,
      "insects": 5395,
      "mesmer": 5396,
      "drif": 5397,
      "mikey": 5398,
      "flake": 5399,
      "ks": 5400,
      "tricked": 5401,
      "cheeks": 5402,
      "stella": 5403,
      "consequ": 5404,
      "hissed": 5405,
      "stays": 5406,
      "fits": 5407,
      "bowls": 5408,
      "fes": 5409,
      "rule": 5410,
      "farther": 5411,
      "masks": 5412,
      "hearing": 5413,
      "œcome": 5414,
      "tricky": 5415,
      "attack": 5416,
      "scaring": 5417,
      "burst": 5418,
      "tickled": 5419,
      "sobbed": 5420,
      "smiley": 5421,
      "sandcastles": 5422,
      "stolen": 5423,
      "giraffes": 5424,
      "jas": 5425,
      "expect": 5426,
      "adding": 5427,
      "sense": 5428,
      "mance": 5429,
      "performance": 5430,
      "covers": 5431,
      "instrum": 5432,
      "gobb": 5433,
      "talented": 5434,
      "calmed": 5435,
      "sof": 5436,
      "handful": 5437,
      "robbie": 5438,
      "?'": 5439,
      "batteries": 5440,
      "darling": 5441,
      "intri": 5442,
      "maya": 5443,
      "tangled": 5444,
      "candies": 5445,
      "smarter": 5446,
      "scarves": 5447,
      "pered": 5448,
      "magnets": 5449,
      "toed": 5450,
      "ene": 5451,
      "choices": 5452,
      "behavi": 5453,
      "leading": 5454,
      "achieved": 5455,
      "liza": 5456,
      "stain": 5457,
      "sale": 5458,
      "bumps": 5459,
      "consequences": 5460,
      "yourselves": 5461,
      "firefighters": 5462,
      "impossible": 5463,
      "reads": 5464,
      "robby": 5465,
      "tigers": 5466,
      "hesitated": 5467,
      "behaved": 5468,
      "clowns": 5469,
      "badge": 5470,
      "xture": 5471,
      "wrist": 5472,
      "itor": 5473,
      "cans": 5474,
      "beginning": 5475,
      "paddle": 5476,
      "hell": 5477,
      "mixture": 5478,
      "explorers": 5479,
      "aut": 5480,
      "mushrooms": 5481,
      "salty": 5482,
      "bak": 5483,
      "ryan": 5484,
      "kicks": 5485,
      "belle": 5486,
      "outfit": 5487,
      "martha": 5488,
      "weeping": 5489,
      "bakery": 5490,
      "recommended": 5491,
      "œlet": 5492,
      "rever": 5493,
      "bobb": 5494,
      "gracefully": 5495,
      "seeker": 5496,
      "ners": 5497,
      "seashell": 5498,
      "click": 5499,
      "karen": 5500,
      "œyoua": 5501,
      "thorn": 5502,
      "improved": 5503,
      "robert": 5504,
      "swept": 5505,
      "flapping": 5506,
      "deserve": 5507,
      "stroked": 5508,
      "ters": 5509,
      "swims": 5510,
      "wipes": 5511,
      "talent": 5512,
      "complained": 5513,
      "intrigu": 5514,
      "hider": 5515,
      "third": 5516,
      "steer": 5517,
      "orted": 5518,
      "abi": 5519,
      "dots": 5520,
      "knocks": 5521,
      "objects": 5522,
      "seconds": 5523,
      "parties": 5524,
      "teased": 5525,
      "cupcakes": 5526,
      "rum": 5527,
      "birdy": 5528,
      "travelled": 5529,
      "wrapping": 5530,
      "basement": 5531,
      "heading": 5532,
      "blings": 5533,
      "ping": 5534,
      "hoot": 5535,
      "horiz": 5536,
      "puppies": 5537,
      "œhi": 5538,
      "fever": 5539,
      "iled": 5540,
      "custom": 5541,
      "snuck": 5542,
      "dip": 5543,
      "jackets": 5544,
      "mabel": 5545,
      "horizon": 5546,
      "siblings": 5547,
      "celebrating": 5548,
      "gems": 5549,
      "drums": 5550,
      "marker": 5551,
      "hallway": 5552,
      "lighter": 5553,
      "gina": 5554,
      "snatched": 5555,
      "paying": 5556,
      "fluttering": 5557,
      "bows": 5558,
      "œdo": 5559,
      "jacky": 5560,
      "yells": 5561,
      "wouldna": 5562,
      "jojo": 5563,
      "bedtime": 5564,
      "among": 5565,
      "rover": 5566,
      "raind": 5567,
      "raindro": 5568,
      "arrows": 5569,
      "janie": 5570,
      "pres": 5571,
      "ral": 5572,
      "wadd": 5573,
      "finn": 5574,
      "ruining": 5575,
      "nine": 5576,
      "concer": 5577,
      "anno": 5578,
      "annoy": 5579,
      "rumble": 5580,
      "avoid": 5581,
      "igning": 5582,
      "buying": 5583,
      "cent": 5584,
      "auntie": 5585,
      "œwow": 5586,
      "families": 5587,
      "lettu": 5588,
      "lettuce": 5589,
      "nan": 5590,
      "squish": 5591,
      "intrigued": 5592,
      "dollhouse": 5593,
      "rivers": 5594,
      "scrubbed": 5595,
      "needles": 5596,
      "creamy": 5597,
      "peacefully": 5598,
      "scratches": 5599,
      "ivity": 5600,
      "widened": 5601,
      "drifted": 5602,
      "tasks": 5603,
      "source": 5604,
      "shoo": 5605,
      "conne": 5606,
      "fid": 5607,
      "treehouse": 5608,
      "wins": 5609,
      "wona": 5610,
      "hides": 5611,
      "players": 5612,
      "willing": 5613,
      "ply": 5614,
      "losing": 5615,
      "mering": 5616,
      "ralph": 5617,
      "repa": 5618,
      "hopeful": 5619,
      "cuddly": 5620,
      "echo": 5621,
      "lower": 5622,
      "rewarded": 5623,
      "shrinking": 5624,
      "ka": 5625,
      "creativity": 5626,
      "iles": 5627,
      "minerals": 5628,
      "binky": 5629,
      "kiki": 5630,
      "itu": 5631,
      "icked": 5632,
      "repaired": 5633,
      "temper": 5634,
      "onions": 5635,
      "limes": 5636,
      "including": 5637,
      "hog": 5638,
      "sadie": 5639,
      "tis": 5640,
      "diving": 5641,
      "imagining": 5642,
      "maddie": 5643,
      "jackie": 5644,
      "gross": 5645,
      "rising": 5646,
      "rocky": 5647,
      "tiptoed": 5648,
      "visitor": 5649,
      "tapped": 5650,
      "grassy": 5651,
      "decorating": 5652,
      "swans": 5653,
      "creations": 5654,
      "cong": 5655,
      "merry": 5656,
      "ops": 5657,
      "peppers": 5658,
      "chop": 5659,
      "chefs": 5660,
      "congrat": 5661,
      "printing": 5662,
      "separated": 5663,
      "sprinkled": 5664,
      "glu": 5665,
      "granted": 5666,
      "earn": 5667,
      "snowflake": 5668,
      "ew": 5669,
      "hael": 5670,
      "michael": 5671,
      "flop": 5672,
      "arran": 5673,
      "tram": 5674,
      "grabbing": 5675,
      "fears": 5676,
      "œmy": 5677,
      "dor": 5678,
      "pans": 5679,
      "congratul": 5680,
      "judy": 5681,
      "mate": 5682,
      "simon": 5683,
      "stit": 5684,
      "screwdriver": 5685,
      "stomped": 5686,
      "hea": 5687,
      "backwards": 5688,
      "pouted": 5689,
      "forgiven": 5690,
      "windy": 5691,
      "squares": 5692,
      "suits": 5693,
      "serving": 5694,
      "itude": 5695,
      "dama": 5696,
      "forts": 5697,
      "hesitant": 5698,
      "damage": 5699,
      "dot": 5700,
      "stung": 5701,
      "spice": 5702,
      "planning": 5703,
      "unpacked": 5704,
      "snowmen": 5705,
      "rup": 5706,
      "artist": 5707,
      "oli": 5708,
      "bluey": 5709,
      "promises": 5710,
      "slower": 5711,
      "raindrops": 5712,
      "center": 5713,
      "beloved": 5714,
      "marie": 5715,
      "ments": 5716,
      "ford": 5717,
      "oops": 5718,
      "whoever": 5719,
      "materials": 5720,
      "heavier": 5721,
      "item": 5722,
      "pointy": 5723,
      "audi": 5724,
      "curiously": 5725,
      "growls": 5726,
      "trampo": 5727,
      "peck": 5728,
      "wrink": 5729,
      "site": 5730,
      "wiping": 5731,
      "praying": 5732,
      "surroundings": 5733,
      "cousin": 5734,
      "haw": 5735,
      "recipe": 5736,
      "audience": 5737,
      "hedgehog": 5738,
      "rustling": 5739,
      "blocking": 5740,
      "neighbours": 5741,
      "nor": 5742,
      "temperature": 5743,
      "couple": 5744,
      "slices": 5745,
      "gobbled": 5746,
      "meg": 5747,
      "weekend": 5748,
      "ornaments": 5749,
      "trampoline": 5750,
      "helpers": 5751,
      "wobbled": 5752,
      "sunflowers": 5753,
      "designed": 5754,
      "sparks": 5755,
      "discussed": 5756,
      "vanilla": 5757,
      "shim": 5758,
      "sailboat": 5759,
      "nif": 5760,
      "zara": 5761,
      "noses": 5762,
      "whata": 5763,
      "dreamt": 5764,
      "stool": 5765,
      "corners": 5766,
      "blu": 5767,
      "racco": 5768,
      "10": 5769,
      "hus": 5770,
      "pecked": 5771,
      "slammed": 5772,
      "hitting": 5773,
      "wea": 5774,
      "afford": 5775,
      "silent": 5776,
      "forks": 5777,
      "marsh": 5778,
      "action": 5779,
      "streets": 5780,
      "dads": 5781,
      "spon": 5782,
      "remembering": 5783,
      "tissue": 5784,
      "ets": 5785,
      "meals": 5786,
      "aside": 5787,
      "changing": 5788,
      "zoey": 5789,
      "sponge": 5790,
      "requested": 5791,
      "reflection": 5792,
      "pad": 5793,
      "zipping": 5794,
      "ref": 5795,
      "warnings": 5796,
      "plans": 5797,
      "dances": 5798,
      "leaning": 5799,
      "screws": 5800,
      "duckling": 5801,
      "scam": 5802,
      "coloring": 5803,
      "scor": 5804,
      "spreading": 5805,
      "dollars": 5806,
      "magician": 5807,
      "fido": 5808,
      "prett": 5809,
      "skunk": 5810,
      "breathed": 5811,
      "astron": 5812,
      "greeted": 5813,
      "bits": 5814,
      "adult": 5815,
      "amelia": 5816,
      "peep": 5817,
      "sation": 5818,
      "forgets": 5819,
      "shops": 5820,
      "tunnels": 5821,
      "sailors": 5822,
      "asm": 5823,
      "thrown": 5824,
      "pose": 5825,
      "chosen": 5826,
      "twice": 5827,
      "hour": 5828,
      "gardener": 5829,
      "snuggle": 5830,
      "prettier": 5831,
      "rotted": 5832,
      "astronaut": 5833,
      "potion": 5834,
      "raincoat": 5835,
      "spikes": 5836,
      "tage": 5837,
      "husband": 5838,
      "spat": 5839,
      "touches": 5840,
      "lings": 5841,
      "enthusiasm": 5842,
      "grandparents": 5843,
      "superheroes": 5844,
      "swords": 5845,
      "daring": 5846,
      "rotten": 5847,
      "cuddles": 5848,
      "mallow": 5849,
      "sever": 5850,
      "antic": 5851,
      "reason": 5852,
      "wishing": 5853,
      "pens": 5854,
      "certain": 5855,
      "wraps": 5856,
      "dod": 5857,
      "spoonful": 5858,
      "least": 5859,
      "bras": 5860,
      "correct": 5861,
      "marshmallow": 5862,
      "steady": 5863,
      "elle": 5864,
      "zebras": 5865,
      "borrowed": 5866,
      "forgetting": 5867,
      "counts": 5868,
      "davey": 5869,
      "sending": 5870,
      "œbut": 5871,
      "courag": 5872,
      "feeding": 5873,
      "gee": 5874,
      "wend": 5875,
      "heroes": 5876,
      "encourag": 5877,
      "frosty": 5878,
      "guests": 5879,
      "bless": 5880,
      "bodies": 5881,
      "glim": 5882,
      "mesmerized": 5883,
      "mints": 5884,
      "flavors": 5885,
      "neare": 5886,
      "raccoon": 5887,
      "ounced": 5888,
      "stro": 5889,
      "cers": 5890,
      "charac": 5891,
      "stroke": 5892,
      "wendy": 5893,
      "dam": 5894,
      "buzzed": 5895,
      "neatly": 5896,
      "handsome": 5897,
      "baths": 5898,
      "grows": 5899,
      "napkins": 5900,
      "flight": 5901,
      "amed": 5902,
      "boards": 5903,
      "delivering": 5904,
      "refresh": 5905,
      "tested": 5906,
      "feast": 5907,
      "foc": 5908,
      "misch": 5909,
      "bage": 5910,
      "months": 5911,
      "ition": 5912,
      "dived": 5913,
      "saman": 5914,
      "samantha": 5915,
      "rains": 5916,
      "holly": 5917,
      "politely": 5918,
      "suffering": 5919,
      "onward": 5920,
      "alien": 5921,
      "sneezing": 5922,
      "warmer": 5923,
      "defe": 5924,
      "maddy": 5925,
      "biting": 5926,
      "throughout": 5927,
      "stands": 5928,
      "unsure": 5929,
      "thud": 5930,
      "honked": 5931,
      "wiggle": 5932,
      "ruth": 5933,
      "lungs": 5934,
      "geese": 5935,
      "rushing": 5936,
      "hal": 5937,
      "crashing": 5938,
      "plucked": 5939,
      "toddler": 5940,
      "joining": 5941,
      "bessie": 5942,
      "poster": 5943,
      "seaweed": 5944,
      "lifts": 5945,
      "matters": 5946,
      "oatmeal": 5947,
      "watering": 5948,
      "pops": 5949,
      "refreshing": 5950,
      "preparing": 5951,
      "ties": 5952,
      "students": 5953,
      "increased": 5954,
      "puff": 5955,
      "iley": 5956,
      "crew": 5957,
      "ropes": 5958,
      "swallowed": 5959,
      "glued": 5960,
      "fia": 5961,
      "swa": 5962,
      "express": 5963,
      "shall": 5964,
      "respond": 5965,
      "tab": 5966,
      "whispers": 5967,
      "œmom": 5968,
      "triangles": 5969,
      "dani": 5970,
      "freedom": 5971,
      "hopper": 5972,
      "toaster": 5973,
      "postman": 5974,
      "amoun": 5975,
      "wobbly": 5976,
      "lessons": 5977,
      "hawk": 5978,
      "performed": 5979,
      "starfish": 5980,
      "presses": 5981,
      "smelling": 5982,
      "adults": 5983,
      "œwell": 5984,
      "leads": 5985,
      "trembled": 5986,
      "bully": 5987,
      "obeyed": 5988,
      "cushions": 5989,
      "wri": 5990,
      "puppet": 5991,
      "dancers": 5992,
      "bubba": 5993,
      "jod": 5994,
      "wrigg": 5995,
      "humans": 5996,
      "confli": 5997,
      "talks": 5998,
      "resisted": 5999,
      "panicked": 6000,
      "sniffs": 6001,
      "scraped": 6002,
      "focused": 6003,
      "allo": 6004,
      "napping": 6005,
      "necklaces": 6006,
      "megan": 6007,
      "nu": 6008,
      "slips": 6009,
      "firmly": 6010,
      "softer": 6011,
      "behaving": 6012,
      "œwhere": 6013,
      "waddled": 6014,
      "firefly": 6015,
      "nervously": 6016,
      "mina": 6017,
      "quarreling": 6018,
      "encouraging": 6019,
      "dropping": 6020,
      "instantly": 6021,
      "formed": 6022,
      "lifting": 6023,
      "worn": 6024,
      "frowning": 6025,
      "tables": 6026,
      "pigeons": 6027,
      "tar": 6028,
      "nood": 6029,
      "drawers": 6030,
      "onna": 6031,
      "woo": 6032,
      "iona": 6033,
      "thump": 6034,
      "sofia": 6035,
      "belts": 6036,
      "firefighter": 6037,
      "faded": 6038,
      "oky": 6039,
      "freddie": 6040,
      "scampered": 6041,
      "drivers": 6042,
      "eva": 6043,
      "rout": 6044,
      "polar": 6045,
      "respected": 6046,
      "cotton": 6047,
      "fiona": 6048,
      "drawn": 6049,
      "scient": 6050,
      "within": 6051,
      "flopsy": 6052,
      "pennies": 6053,
      "spins": 6054,
      "appreciation": 6055,
      "avocados": 6056,
      "robber": 6057,
      "pours": 6058,
      "sured": 6059,
      "surprising": 6060,
      "ev": 6061,
      "thoughts": 6062,
      "stacked": 6063,
      "twinkled": 6064,
      "tam": 6065,
      "meanwhile": 6066,
      "leapt": 6067,
      "blast": 6068,
      "elf": 6069,
      "froggy": 6070,
      "ists": 6071,
      "waterfall": 6072,
      "speedy": 6073,
      "overcome": 6074,
      "katy": 6075,
      "wiggly": 6076,
      "playtime": 6077,
      "forgiving": 6078,
      "notes": 6079,
      "œok": 6080,
      "bravest": 6081,
      "strongest": 6082,
      "battle": 6083,
      "tricycle": 6084,
      "whose": 6085,
      "loading": 6086,
      "manag": 6087,
      "cobwebs": 6088,
      "acle": 6089,
      "gonna": 6090,
      "jean": 6091,
      "cosy": 6092,
      "sharks": 6093,
      "conver": 6094,
      "til": 6095,
      "œif": 6096,
      "prove": 6097,
      "bells": 6098,
      "œokay": 6099,
      "pumpkins": 6100,
      "maid": 6101,
      "grant": 6102,
      "performing": 6103,
      "wept": 6104,
      "squeezing": 6105,
      "ease": 6106,
      "jonny": 6107,
      "colder": 6108,
      "echoed": 6109,
      "scored": 6110,
      "garbage": 6111,
      "wakes": 6112,
      "playroom": 6113,
      "angels": 6114,
      "robots": 6115,
      "squishy": 6116,
      "sank": 6117,
      "designs": 6118,
      "blinking": 6119,
      "pture": 6120,
      "probab": 6121,
      "probably": 6122,
      "giggles": 6123,
      "ram": 6124,
      "amount": 6125,
      "robin": 6126,
      "flown": 6127,
      "healing": 6128,
      "marshmallows": 6129,
      "sweetest": 6130,
      "sadd": 6131,
      "guide": 6132,
      "assm": 6133,
      "sid": 6134,
      "explorer": 6135,
      "oysters": 6136,
      "ggy": 6137,
      "mae": 6138,
      "tying": 6139,
      "tossed": 6140,
      "causing": 6141,
      "unity": 6142,
      "asty": 6143,
      "engers": 6144,
      "twisty": 6145,
      "dred": 6146,
      "hundred": 6147,
      "...\"": 6148,
      "fleas": 6149,
      "shown": 6150,
      "louise": 6151,
      "pins": 6152,
      "spices": 6153,
      "witched": 6154,
      "puzzled": 6155,
      "passengers": 6156,
      "coral": 6157,
      "tighter": 6158,
      "passports": 6159,
      "yielded": 6160,
      "patches": 6161,
      "?!\"": 6162,
      "pound": 6163,
      "py": 6164,
      "kittens": 6165,
      "reversed": 6166,
      "grandchild": 6167,
      "tum": 6168,
      "maker": 6169,
      "faith": 6170,
      "melo": 6171,
      "surfing": 6172,
      "rell": 6173,
      "sewing": 6174,
      "aimed": 6175,
      "nearly": 6176,
      "purr": 6177,
      "tran": 6178,
      "ais": 6179,
      "ilda": 6180,
      "brushing": 6181,
      "pays": 6182,
      "maisy": 6183,
      "hallo": 6184,
      "cheers": 6185,
      "licking": 6186,
      "fact": 6187,
      "evil": 6188,
      "instruments": 6189,
      "clues": 6190,
      "wider": 6191,
      "conflict": 6192,
      "ships": 6193,
      "halloween": 6194,
      "cept": 6195,
      "nuzz": 6196,
      "twisting": 6197,
      "appreciated": 6198,
      "scurry": 6199,
      "doorway": 6200,
      "paintbrush": 6201,
      "laying": 6202,
      "mermaid": 6203,
      "blocked": 6204,
      "rainy": 6205,
      "cottage": 6206,
      "breathing": 6207,
      "œplease": 6208,
      "soaking": 6209,
      "pippin": 6210,
      "asted": 6211,
      "heartbroken": 6212,
      "slither": 6213,
      "ignoring": 6214,
      "pippa": 6215,
      "gaz": 6216,
      "ading": 6217,
      "slipping": 6218,
      "several": 6219,
      "paths": 6220,
      "sweep": 6221,
      "repeating": 6222,
      "figures": 6223,
      "fif": 6224,
      "anger": 6225,
      "mailed": 6226,
      "defin": 6227,
      "results": 6228,
      "noodles": 6229,
      "connected": 6230,
      "crossing": 6231,
      "cloudy": 6232,
      "fantastic": 6233,
      "behavior": 6234,
      "grandson": 6235,
      "becky": 6236,
      "lending": 6237,
      "suffered": 6238,
      "idey": 6239,
      "damaged": 6240,
      "buses": 6241,
      "shrug": 6242,
      "finishing": 6243,
      "œof": 6244,
      "spidey": 6245,
      "dee": 6246,
      "€,": 6247,
      "ponies": 6248,
      "shovels": 6249,
      "tes": 6250,
      "roars": 6251,
      "bracele": 6252,
      "accomplished": 6253,
      "rather": 6254,
      "except": 6255,
      "humming": 6256,
      "bracelets": 6257,
      "responsib": 6258,
      "streamers": 6259,
      "toward": 6260,
      "surrendered": 6261,
      "risks": 6262,
      "insp": 6263,
      "eliza": 6264,
      "shady": 6265,
      "cleaner": 6266,
      "ives": 6267,
      "frankie": 6268,
      "via": 6269,
      "oni": 6270,
      "supported": 6271,
      "popp": 6272,
      "itely": 6273,
      "squaw": 6274,
      "byes": 6275,
      "kelly": 6276,
      "tasting": 6277,
      "rays": 6278,
      "snowflakes": 6279,
      "amber": 6280,
      "awoke": 6281,
      "quieter": 6282,
      "bec": 6283,
      "stitches": 6284,
      "goodbyes": 6285,
      "genie": 6286,
      "thorns": 6287,
      "definitely": 6288,
      "pant": 6289,
      "wally": 6290,
      "granddaughter": 6291,
      "janey": 6292,
      "edges": 6293,
      "tablet": 6294,
      "œnow": 6295,
      "kings": 6296,
      "becca": 6297,
      "prick": 6298,
      "stroll": 6299,
      "final": 6300,
      "frowns": 6301,
      "kevin": 6302,
      "deed": 6303,
      "handing": 6304,
      "ien": 6305,
      "gus": 6306,
      "smal": 6307,
      "sped": 6308,
      "wisely": 6309,
      "drown": 6310,
      "presented": 6311,
      "reminding": 6312,
      "symbols": 6313,
      "cie": 6314,
      "rotting": 6315,
      "terrified": 6316,
      "blad": 6317,
      "correctly": 6318,
      "hairdresser": 6319,
      "gesture": 6320,
      "smallest": 6321,
      "vines": 6322,
      "sou": 6323,
      "wobble": 6324,
      "driveway": 6325,
      "decisions": 6326,
      "peeled": 6327,
      "aware": 6328,
      "simply": 6329,
      "warri": 6330,
      "warrior": 6331,
      "scarecrow": 6332,
      "newfound": 6333,
      "squeaked": 6334,
      "occas": 6335,
      "chopped": 6336,
      "swimsuit": 6337,
      "weeds": 6338,
      "nasty": 6339,
      "recor": 6340,
      "inspired": 6341,
      "arranged": 6342,
      "ee": 6343,
      "fishes": 6344,
      "experien": 6345,
      "bandages": 6346,
      "daniel": 6347,
      "rick": 6348,
      "stopping": 6349,
      "exercises": 6350,
      "respon": 6351,
      "response": 6352,
      "jax": 6353,
      "date": 6354,
      "afar": 6355,
      "believing": 6356,
      "covering": 6357,
      "banged": 6358,
      "force": 6359,
      "tipped": 6360,
      "darlings": 6361,
      "œhey": 6362,
      "disturbing": 6363,
      "travels": 6364,
      "nat": 6365,
      "poppies": 6366,
      "lent": 6367,
      "fills": 6368,
      "footsteps": 6369,
      "phil": 6370,
      "pedaled": 6371,
      "flipped": 6372,
      "roger": 6373,
      "travelling": 6374,
      "convin": 6375,
      "stan": 6376,
      "punishment": 6377,
      "birdhouse": 6378,
      "dory": 6379,
      "spits": 6380,
      "windowsill": 6381,
      "rious": 6382,
      "erk": 6383,
      "leap": 6384,
      "forests": 6385,
      "patty": 6386,
      "desper": 6387,
      "planting": 6388,
      "cour": 6389,
      "grandfather": 6390,
      "testing": 6391,
      "pand": 6392,
      "nodding": 6393,
      "chocolates": 6394,
      "apologised": 6395,
      "iding": 6396,
      "encouragement": 6397,
      "surfboard": 6398,
      "congratulated": 6399,
      "sails": 6400,
      "reassured": 6401,
      "solving": 6402,
      "trotted": 6403,
      "reunited": 6404,
      "opp": 6405,
      "oink": 6406,
      "images": 6407,
      "pandas": 6408,
      "lina": 6409,
      "focus": 6410,
      "reapp": 6411,
      "magnif": 6412,
      "speeding": 6413,
      "campfire": 6414,
      "nancy": 6415,
      "issa": 6416,
      "marve": 6417,
      "officers": 6418,
      "reappear": 6419,
      "mood": 6420,
      "clerk": 6421,
      "sess": 6422,
      "amanda": 6423,
      "backpacks": 6424,
      "lever": 6425,
      "chilly": 6426,
      "foxes": 6427,
      "knots": 6428,
      "mam": 6429,
      "gears": 6430,
      "activity": 6431,
      "masterpiece": 6432,
      "dep": 6433,
      "expert": 6434,
      "beaver": 6435,
      "tuck": 6436,
      "yelped": 6437,
      "labels": 6438,
      "delayed": 6439,
      "wrinkled": 6440,
      "œthe": 6441,
      "bathing": 6442,
      "concert": 6443,
      "grip": 6444,
      "imagin": 6445,
      "comforting": 6446,
      "changes": 6447,
      "whoo": 6448,
      "sniffing": 6449,
      "lotte": 6450,
      "spills": 6451,
      "calmly": 6452,
      "worrying": 6453,
      "braver": 6454,
      "pleaded": 6455,
      "quackers": 6456,
      "burying": 6457,
      "discussing": 6458,
      "stumble": 6459,
      "spies": 6460,
      "aim": 6461,
      "magazines": 6462,
      "charlotte": 6463,
      "crowns": 6464,
      "suggestion": 6465,
      "seller": 6466,
      "carol": 6467,
      "flowing": 6468,
      "jars": 6469,
      "knit": 6470,
      "treated": 6471,
      "mischie": 6472,
      "displayed": 6473,
      "refuse": 6474,
      "ribbit": 6475,
      "belongings": 6476,
      "bothering": 6477,
      "mischievous": 6478,
      "understands": 6479,
      "ends": 6480,
      "fires": 6481,
      "admiration": 6482,
      "experienced": 6483,
      "height": 6484,
      "efforts": 6485,
      "baskets": 6486,
      "inter": 6487,
      "helen": 6488,
      "classm": 6489,
      "bis": 6490,
      "ey": 6491,
      "artwork": 6492,
      "fully": 6493,
      "dragonfly": 6494,
      "toolbox": 6495,
      "bitten": 6496,
      "posit": 6497,
      "dump": 6498,
      "coach": 6499,
      "loops": 6500,
      "gazing": 6501,
      "eddie": 6502,
      "rier": 6503,
      "vehicles": 6504,
      "kn": 6505,
      "annoyed": 6506,
      "elsa": 6507,
      "wealth": 6508,
      "packages": 6509,
      "cowboy": 6510,
      "sunscreen": 6511,
      "tess": 6512,
      "peas": 6513,
      "sheets": 6514,
      "satur": 6515,
      "temp": 6516,
      "sasha": 6517,
      "tumbled": 6518,
      "curl": 6519,
      "sets": 6520,
      "seashells": 6521,
      "melody": 6522,
      "inted": 6523,
      "warmly": 6524,
      "puck": 6525,
      "nibbled": 6526,
      "rudy": 6527,
      "diamonds": 6528,
      "lan": 6529,
      "spooky": 6530,
      "scent": 6531,
      "business": 6532,
      "members": 6533,
      "œsure": 6534,
      "creams": 6535,
      "scram": 6536,
      "insisting": 6537,
      "countered": 6538,
      "prayers": 6539,
      "tammy": 6540,
      "conqu": 6541,
      "untied": 6542,
      "parted": 6543,
      "races": 6544,
      "environ": 6545,
      "icky": 6546,
      "conversation": 6547,
      "collap": 6548,
      "charge": 6549,
      "turtles": 6550,
      "hoops": 6551,
      "encountered": 6552,
      "ava": 6553,
      "purpose": 6554,
      "teachers": 6555,
      "sewed": 6556,
      "joins": 6557,
      "locks": 6558,
      "environment": 6559,
      "whispering": 6560,
      "scurrying": 6561,
      "orders": 6562,
      "nana": 6563,
      "vented": 6564,
      "spells": 6565,
      "permitted": 6566,
      "joked": 6567,
      "argum": 6568,
      "tilted": 6569,
      "otherwise": 6570,
      "troubles": 6571,
      "forgiveness": 6572,
      "terry": 6573,
      "loses": 6574,
      "goats": 6575,
      "scientist": 6576,
      "lil": 6577,
      "tment": 6578,
      "jason": 6579,
      "spy": 6580,
      "fins": 6581,
      "queens": 6582,
      "drift": 6583,
      "glittering": 6584,
      "œsee": 6585,
      "ugging": 6586,
      "burger": 6587,
      "ening": 6588,
      "tubes": 6589,
      "honesty": 6590,
      "acles": 6591,
      "type": 6592,
      "saturday": 6593,
      "pupils": 6594,
      "willi": 6595,
      "grad": 6596,
      "whim": 6597,
      "beaming": 6598,
      "anticip": 6599,
      "biscu": 6600,
      "dressing": 6601,
      "nearest": 6602,
      "films": 6603,
      "tapping": 6604,
      "fishy": 6605,
      "visitors": 6606,
      "william": 6607,
      "stam": 6608,
      "plugged": 6609,
      "customers": 6610,
      "gap": 6611,
      "declar": 6612,
      "opport": 6613,
      "donkey": 6614,
      "wasting": 6615,
      "untie": 6616,
      "cleared": 6617,
      "hunters": 6618,
      "mosquitoes": 6619,
      "convinced": 6620,
      "oppo": 6621,
      "ricky": 6622,
      "nurses": 6623,
      "hover": 6624,
      "examining": 6625,
      "bobbie": 6626,
      "knives": 6627,
      "rely": 6628,
      "rowed": 6629,
      "sweaty": 6630,
      "swollen": 6631,
      "wounds": 6632,
      "ilder": 6633,
      "eric": 6634,
      "ppa": 6635,
      "elsie": 6636,
      "builder": 6637,
      "slowed": 6638,
      "declared": 6639,
      "buckled": 6640,
      "opposite": 6641,
      "finny": 6642,
      "jud": 6643,
      "characters": 6644,
      "guessing": 6645,
      "ilities": 6646,
      "failed": 6647,
      "trans": 6648,
      "active": 6649,
      "tidied": 6650,
      "whoosh": 6651,
      "seagulls": 6652,
      "thanking": 6653,
      "tips": 6654,
      "sternly": 6655,
      "scratching": 6656,
      "goodies": 6657,
      "youngest": 6658,
      "caw": 6659,
      "scrambled": 6660,
      "signing": 6661,
      "earned": 6662,
      "rescuing": 6663,
      "grat": 6664,
      "beeped": 6665,
      "bongo": 6666,
      "nibble": 6667,
      "fain": 6668,
      "meowing": 6669,
      "tessa": 6670,
      "novels": 6671,
      "questioned": 6672,
      "dripping": 6673,
      "bou": 6674,
      "ruf": 6675,
      "mony": 6676,
      "peppa": 6677,
      "plug": 6678,
      "picnics": 6679,
      "knocking": 6680,
      "matey": 6681,
      "tires": 6682,
      "seals": 6683,
      "anticipation": 6684,
      "hike": 6685,
      "responded": 6686,
      "aisle": 6687,
      "responsibility": 6688,
      "gratitude": 6689,
      "floors": 6690,
      "smashed": 6691,
      "zoomy": 6692,
      "lipstick": 6693,
      "attacked": 6694,
      "explains": 6695,
      "emerged": 6696,
      "œwho": 6697,
      "tho": 6698,
      "stall": 6699,
      "ria": 6700,
      "discoveries": 6701,
      "aeroplanes": 6702,
      "decoration": 6703,
      "badger": 6704,
      "zooms": 6705,
      "flip": 6706,
      "manners": 6707,
      "classmates": 6708,
      "vive": 6709,
      "tops": 6710,
      "rats": 6711,
      "visits": 6712,
      "girla": 6713,
      "pene": 6714,
      "twists": 6715,
      "survive": 6716,
      "gary": 6717,
      "rebecca": 6718,
      "crabby": 6719,
      "brian": 6720,
      "manager": 6721,
      "arrr": 6722,
      "cara": 6723,
      "increasing": 6724,
      "penelope": 6725,
      "munk": 6726,
      "poses": 6727,
      "chipmunk": 6728,
      "matilda": 6729,
      "inchworm": 6730,
      "jugg": 6731,
      "breaths": 6732,
      "rumbling": 6733,
      "shrunk": 6734,
      "soo": 6735,
      "beehive": 6736,
      "olivia": 6737,
      "bond": 6738,
      "sill": 6739,
      "brightest": 6740,
      "complim": 6741,
      "elbow": 6742,
      "winding": 6743,
      "munched": 6744,
      "purrs": 6745,
      "flaps": 6746,
      "aliens": 6747,
      "shimmering": 6748,
      "ramp": 6749,
      "œgood": 6750,
      "swaying": 6751,
      "groan": 6752,
      "ssss": 6753,
      "flips": 6754,
      "lowered": 6755,
      "cracks": 6756,
      "movements": 6757,
      "ooh": 6758,
      "achoo": 6759,
      "ghosts": 6760,
      "honking": 6761,
      "argument": 6762,
      "doorbell": 6763,
      "designing": 6764,
      "address": 6765,
      "lor": 6766,
      "ruff": 6767,
      "prevented": 6768,
      "announced": 6769,
      "prickly": 6770,
      "offering": 6771,
      "switched": 6772,
      "shelly": 6773,
      "taped": 6774,
      "tempt": 6775,
      "jilly": 6776,
      "lyn": 6777,
      "gasp": 6778,
      "germs": 6779,
      "heaven": 6780,
      "nuzzled": 6781,
      "destroying": 6782,
      "shines": 6783,
      "ashley": 6784,
      "jobs": 6785,
      "million": 6786,
      "swayed": 6787,
      "aret": 6788,
      "stetho": 6789,
      "gues": 6790,
      "ration": 6791,
      "swap": 6792,
      "minds": 6793,
      "quet": 6794,
      "cares": 6795,
      "genero": 6796,
      "observing": 6797,
      "dodged": 6798,
      "closing": 6799,
      "generosity": 6800,
      "crawls": 6801,
      "glimmering": 6802,
      "whistles": 6803,
      "greet": 6804,
      "recorder": 6805,
      "scooters": 6806,
      "gracie": 6807,
      "smelt": 6808,
      "crops": 6809,
      "snaps": 6810,
      "angle": 6811,
      "court": 6812,
      "beautifully": 6813,
      "dangers": 6814,
      "unpacking": 6815,
      "beating": 6816,
      "tidying": 6817,
      "exploded": 6818,
      "cupcake": 6819,
      "scolds": 6820,
      "checkout": 6821,
      "languages": 6822,
      "stamped": 6823,
      "tests": 6824,
      "abra": 6825,
      "experim": 6826,
      "customer": 6827,
      "haven": 6828,
      "shor": 6829,
      "elect": 6830,
      "cafe": 6831,
      "paddling": 6832,
      "robbers": 6833,
      "thankfully": 6834,
      "tummies": 6835,
      "stethoscope": 6836,
      "nora": 6837,
      "burgers": 6838,
      "drowned": 6839,
      "clicked": 6840,
      "ability": 6841,
      "expecting": 6842,
      "goo": 6843,
      "dryer": 6844,
      "laptop": 6845,
      "routine": 6846,
      "intent": 6847,
      "condu": 6848,
      "scen": 6849,
      "astronauts": 6850,
      "œmaybe": 6851,
      "supplied": 6852,
      "vegg": 6853,
      "peggy": 6854,
      "veggies": 6855,
      "gabby": 6856,
      "bonnie": 6857,
      "flick": 6858,
      "idence": 6859,
      "statues": 6860,
      "paula": 6861,
      "steering": 6862,
      "dears": 6863,
      "scul": 6864,
      "pos": 6865,
      "serv": 6866,
      "bouquet": 6867,
      "twent": 6868,
      "adds": 6869,
      "twenty": 6870,
      "vince": 6871,
      "cocoon": 6872,
      "particularly": 6873,
      "chatted": 6874,
      "cock": 6875,
      "dollar": 6876,
      "conductor": 6877,
      "shorts": 6878,
      "pout": 6879,
      "reminds": 6880,
      "cope": 6881,
      "appla": 6882,
      "tyler": 6883,
      "dock": 6884,
      "rudolph": 6885,
      "cutter": 6886,
      "hardest": 6887,
      "bunbun": 6888,
      "snor": 6889,
      "applause": 6890,
      "zack": 6891,
      "stretches": 6892,
      "healthier": 6893,
      "moma": 6894,
      "cooper": 6895,
      "consid": 6896,
      "floats": 6897,
      "snug": 6898,
      "wiser": 6899,
      "feli": 6900,
      "sprinkle": 6901,
      "provid": 6902,
      "riley": 6903,
      "carla": 6904,
      "awful": 6905,
      "roo": 6906,
      "brad": 6907,
      "minded": 6908,
      "wildflowers": 6909,
      "andrew": 6910,
      "wooly": 6911,
      "overhead": 6912,
      "mered": 6913,
      "vour": 6914,
      "ginger": 6915,
      "april": 6916,
      "weapons": 6917,
      "bluebird": 6918,
      "foxy": 6919,
      "ural": 6920,
      "hiss": 6921,
      "traded": 6922,
      "nests": 6923,
      "midnight": 6924,
      "opinions": 6925,
      "returning": 6926,
      "squished": 6927,
      "umbrell": 6928,
      "distrac": 6929,
      "burnt": 6930,
      "combed": 6931,
      "sprays": 6932,
      "fascinating": 6933,
      "umbrellas": 6934,
      "carries": 6935,
      "syrup": 6936,
      "scribb": 6937,
      "bothered": 6938,
      "admit": 6939,
      "rosa": 6940,
      "flora": 6941,
      "experiences": 6942,
      "faint": 6943,
      "trusting": 6944,
      "pleas": 6945,
      "container": 6946,
      "deserved": 6947,
      "target": 6948,
      "providing": 6949,
      "killed": 6950,
      "teles": 6951,
      "defeated": 6952,
      "flashing": 6953,
      "beast": 6954,
      "born": 6955,
      "example": 6956,
      "shorter": 6957,
      "farmers": 6958,
      "tearing": 6959,
      "raising": 6960,
      "sculpture": 6961,
      "liam": 6962,
      "flashed": 6963,
      "checks": 6964,
      "inches": 6965,
      "lopes": 6966,
      "bounces": 6967,
      "burns": 6968,
      "annabelle": 6969,
      "nights": 6970,
      "melissa": 6971,
      "apers": 6972,
      "hotter": 6973,
      "applauding": 6974,
      "rows": 6975,
      "confidence": 6976,
      "rench": 6977,
      "grumbled": 6978,
      "compan": 6979,
      "glided": 6980,
      "mila": 6981,
      "storms": 6982,
      "whales": 6983,
      "concent": 6984,
      "grily": 6985,
      "crystals": 6986,
      "mamma": 6987,
      "cubs": 6988,
      "telescope": 6989,
      "member": 6990,
      "bats": 6991,
      "sadder": 6992,
      "tions": 6993,
      "rufus": 6994,
      "gardens": 6995,
      "convince": 6996,
      "blur": 6997,
      "craf": 6998,
      "asers": 6999,
      "vio": 7000,
      "vast": 7001,
      "cheated": 7002,
      "petting": 7003,
      "omb": 7004,
      "checking": 7005,
      "awhile": 7006,
      "bam": 7007,
      "necks": 7008,
      "clip": 7009,
      "otters": 7010,
      "teams": 7011,
      "soapy": 7012,
      "barry": 7013,
      "zee": 7014,
      "€¦": 7015,
      "possess": 7016,
      "blown": 7017,
      "munching": 7018,
      "extraordinary": 7019,
      "traveling": 7020,
      "aa": 7021,
      "collapsed": 7022,
      "relaxing": 7023,
      "insepar": 7024,
      "sirens": 7025,
      "inseparable": 7026,
      "slee": 7027,
      "miracle": 7028,
      "forgives": 7029,
      "prizes": 7030,
      "types": 7031,
      "gul": 7032,
      "torto": 7033,
      "hunting": 7034,
      "lenny": 7035,
      "behaviour": 7036,
      "shat": 7037,
      "scrub": 7038,
      "pinching": 7039,
      "imaginary": 7040,
      "waters": 7041,
      "chin": 7042,
      "rent": 7043,
      "instrument": 7044,
      "mona": 7045,
      "meows": 7046,
      "bicycles": 7047,
      "unable": 7048,
      "singers": 7049,
      "sprout": 7050,
      "tortoise": 7051,
      "pills": 7052,
      "tempted": 7053,
      "waded": 7054,
      "willy": 7055,
      "dial": 7056,
      "sprang": 7057,
      "ades": 7058,
      "upside": 7059,
      "ative": 7060,
      "mommies": 7061,
      "exploration": 7062,
      "salon": 7063,
      "peeped": 7064,
      "adabra": 7065,
      "jose": 7066,
      "opportunity": 7067,
      "longest": 7068,
      "attitude": 7069,
      "expression": 7070,
      "conquered": 7071,
      "sometime": 7072,
      "distracted": 7073,
      "œbe": 7074,
      "gradually": 7075,
      "realizes": 7076,
      "bomb": 7077,
      "cheaper": 7078,
      "acts": 7079,
      "discouraged": 7080,
      "sweaters": 7081,
      "bride": 7082,
      "crocodiles": 7083,
      "coolest": 7084,
      "enemies": 7085,
      "jody": 7086,
      "wriggled": 7087,
      "clearly": 7088,
      "engines": 7089,
      "necess": 7090,
      "odd": 7091,
      "yawning": 7092,
      "trig": 7093,
      "envelopes": 7094,
      "ware": 7095,
      "getic": 7096,
      "beetles": 7097,
      "flock": 7098,
      "oliver": 7099,
      "passes": 7100,
      "moat": 7101,
      "ounce": 7102,
      "grasshopper": 7103,
      "swimmer": 7104,
      "countries": 7105,
      "cheat": 7106,
      "compete": 7107,
      "surely": 7108,
      "marking": 7109,
      "overwhe": 7110,
      "overwhel": 7111,
      "jennie": 7112,
      "reappeared": 7113,
      "chatting": 7114,
      "gallo": 7115,
      "quacking": 7116,
      "miller": 7117,
      "glittered": 7118,
      "martin": 7119,
      "maje": 7120,
      "trigger": 7121,
      "weighing": 7122,
      "haircuts": 7123,
      "common": 7124,
      "spilling": 7125,
      "annoying": 7126,
      "mattered": 7127,
      "servant": 7128,
      "details": 7129,
      "strips": 7130,
      "enjoyable": 7131,
      "mac": 7132,
      "crowded": 7133,
      "cheerfully": 7134,
      "als": 7135,
      "local": 7136,
      "noticing": 7137,
      "approach": 7138,
      "whined": 7139,
      "hangers": 7140,
      "janet": 7141,
      "uniforms": 7142,
      "treas": 7143,
      "thicker": 7144,
      "natural": 7145,
      "joanna": 7146,
      "soundly": 7147,
      "smoking": 7148,
      "bubbly": 7149,
      "brant": 7150,
      "companion": 7151,
      "repairman": 7152,
      "fond": 7153,
      "ishes": 7154,
      "abrac": 7155,
      "skies": 7156,
      "abracadabra": 7157,
      "stur": 7158,
      "vibrant": 7159,
      "shallow": 7160,
      "airplanes": 7161,
      "plo": 7162,
      "uff": 7163,
      "violet": 7164,
      "outfits": 7165,
      "becomes": 7166,
      "washes": 7167,
      "bud": 7168,
      "stripe": 7169,
      "freezing": 7170,
      "treasured": 7171,
      "aboard": 7172,
      "newspapers": 7173,
      "blank": 7174,
      "joyfully": 7175,
      "iff": 7176,
      "moonlight": 7177,
      "izz": 7178,
      "ketch": 7179,
      "cris": 7180,
      "camel": 7181,
      "occasion": 7182,
      "leah": 7183,
      "pepperoni": 7184,
      "necessary": 7185,
      "backs": 7186,
      "teen": 7187,
      "swirls": 7188,
      "jasmine": 7189,
      "wanna": 7190,
      "rie": 7191,
      "scrun": 7192,
      "œyay": 7193,
      "timid": 7194,
      "crou": 7195,
      "bulbs": 7196,
      "clue": 7197,
      "cheating": 7198,
      "cowboys": 7199,
      "sincere": 7200,
      "coug": 7201,
      "ering": 7202,
      "clut": 7203,
      "blon": 7204,
      "hummed": 7205,
      "sneezes": 7206,
      "scattering": 7207,
      "mugs": 7208,
      "bound": 7209,
      "cherish": 7210,
      "blonde": 7211,
      "erase": 7212,
      "messes": 7213,
      "biscuit": 7214,
      "cathy": 7215,
      "grump": 7216,
      "faction": 7217,
      "johny": 7218,
      "produ": 7219,
      "satisfaction": 7220,
      "avery": 7221,
      "lump": 7222,
      "models": 7223,
      "successfully": 7224,
      "cells": 7225,
      "calmer": 7226,
      "brake": 7227,
      "squinted": 7228,
      "communic": 7229,
      "caterpillars": 7230,
      "blushed": 7231,
      "sipped": 7232,
      "venir": 7233,
      "souvenir": 7234,
      "slapping": 7235,
      "situations": 7236,
      "leaking": 7237,
      "positive": 7238,
      "coughed": 7239,
      "',": 7240,
      "meatballs": 7241,
      "explaining": 7242,
      "glittery": 7243,
      "eve": 7244,
      "lers": 7245,
      "bruises": 7246,
      "answering": 7247,
      "smartest": 7248,
      "fris": 7249,
      "acing": 7250,
      "weighs": 7251,
      "tickling": 7252,
      "certainly": 7253,
      "scenery": 7254,
      "pressing": 7255,
      "pilots": 7256,
      "chill": 7257,
      "storing": 7258,
      "traps": 7259,
      "rewards": 7260,
      "rin": 7261,
      "goodness": 7262,
      "melons": 7263,
      "unfair": 7264,
      "joan": 7265,
      "welcoming": 7266,
      "scares": 7267,
      "phe": 7268,
      "possib": 7269,
      "cages": 7270,
      "nate": 7271,
      "talents": 7272,
      "hundreds": 7273,
      "rubbish": 7274,
      "rewarding": 7275,
      "hootie": 7276,
      "bamboo": 7277,
      "shattered": 7278,
      "rowing": 7279,
      "claw": 7280,
      "ketchup": 7281,
      "compar": 7282,
      "hisses": 7283,
      "cleans": 7284,
      "''": 7285,
      "foreshadow": 7286,
      "risk": 7287,
      "fireflies": 7288,
      "stuffing": 7289,
      "pantry": 7290,
      "cluck": 7291,
      "tale": 7292,
      "dition": 7293,
      "scow": 7294,
      "chickie": 7295,
      "ami": 7296,
      "practised": 7297,
      "steven": 7298,
      "binoc": 7299,
      "ada": 7300,
      "teapot": 7301,
      "digs": 7302,
      "secur": 7303,
      "intently": 7304,
      "guards": 7305,
      "sturdy": 7306,
      "horri": 7307,
      "pipes": 7308,
      "angrily": 7309,
      "baller": 7310,
      "endant": 7311,
      "bruce": 7312,
      "groaned": 7313,
      "int": 7314,
      "apology": 7315,
      "aho": 7316,
      "mumma": 7317,
      "œwea": 7318,
      "marveled": 7319,
      "ahoy": 7320,
      "runner": 7321,
      "bends": 7322,
      "nightmares": 7323,
      "unfamiliar": 7324,
      "finishes": 7325,
      "sandpit": 7326,
      "tunes": 7327,
      "meadows": 7328,
      "bubbling": 7329,
      "hopscot": 7330,
      "aly": 7331,
      "rowave": 7332,
      "doorstep": 7333,
      "microwave": 7334,
      "croaked": 7335,
      "jets": 7336,
      "shyly": 7337,
      "aston": 7338,
      "witches": 7339,
      "invites": 7340,
      "alley": 7341,
      "stun": 7342,
      "section": 7343,
      "tentacles": 7344,
      "spoiling": 7345,
      "energetic": 7346,
      "felix": 7347,
      "lookout": 7348,
      "sweeter": 7349,
      "fifi": 7350,
      "!'.": 7351,
      "tugging": 7352,
      "exchange": 7353,
      "stepping": 7354,
      "overwhelmed": 7355,
      "chews": 7356,
      "styles": 7357,
      "phew": 7358,
      "hopscotch": 7359,
      "protection": 7360,
      "aming": 7361,
      "teamwork": 7362,
      "ying": 7363,
      "chopping": 7364,
      "messages": 7365,
      "isna": 7366,
      "defeat": 7367,
      "strolled": 7368,
      "moons": 7369,
      "phones": 7370,
      "jing": 7371,
      "shrank": 7372,
      "rrrr": 7373,
      "popsic": 7374,
      "randy": 7375,
      "playhouse": 7376,
      "napped": 7377,
      "mayor": 7378,
      "loyalty": 7379,
      "hesitation": 7380,
      "dou": 7381,
      "underwater": 7382,
      "hamm": 7383,
      "ulars": 7384,
      "gasps": 7385,
      "obst": 7386,
      "inju": 7387,
      "inspec": 7388,
      "fade": 7389,
      "josie": 7390,
      "gemma": 7391,
      "guardian": 7392,
      "oscar": 7393,
      "juic": 7394,
      "demanding": 7395,
      "pleasant": 7396,
      "cled": 7397,
      "binoculars": 7398,
      "ballerina": 7399,
      "pouch": 7400,
      "rips": 7401,
      "jacka": 7402,
      "stew": 7403,
      "ared": 7404,
      "crouched": 7405,
      "raking": 7406,
      "shares": 7407,
      "ari": 7408,
      "buggy": 7409,
      "slithered": 7410,
      "disappointment": 7411,
      "electri": 7412,
      "realizing": 7413,
      "differently": 7414,
      "tickles": 7415,
      "concentr": 7416,
      "minnie": 7417,
      "crickets": 7418,
      "snar": 7419,
      "patrick": 7420,
      "pounced": 7421,
      "meaning": 7422,
      "stores": 7423,
      "transformed": 7424,
      "œhow": 7425,
      "recess": 7426,
      "thie": 7427,
      "landing": 7428,
      "allie": 7429,
      "peacock": 7430,
      "unwrapped": 7431,
      "condition": 7432,
      "riverbank": 7433,
      "amused": 7434,
      "ravi": 7435,
      "spi": 7436,
      "sandra": 7437,
      "sweetly": 7438,
      "squeezes": 7439,
      "cracker": 7440,
      "fries": 7441,
      "inj": 7442,
      "rosy": 7443,
      "playdate": 7444,
      "hmm": 7445,
      "erup": 7446,
      "spic": 7447,
      "ankle": 7448,
      "pokes": 7449,
      "bil": 7450,
      "actor": 7451,
      "cherished": 7452,
      "vac": 7453,
      "choosing": 7454,
      "whimpered": 7455,
      "kel": 7456,
      "creak": 7457,
      "judges": 7458,
      "snorted": 7459,
      "oma": 7460,
      "ips": 7461,
      "thrill": 7462,
      "kinder": 7463,
      "electricity": 7464,
      "invent": 7465,
      "claus": 7466,
      "thieves": 7467,
      "formation": 7468,
      "marley": 7469,
      "mysteries": 7470,
      "blades": 7471,
      "snapping": 7472,
      "keepers": 7473,
      "suppor": 7474,
      "mie": 7475,
      "œdon": 7476,
      "whir": 7477,
      "watermelon": 7478,
      "centre": 7479,
      "elace": 7480,
      "shoelace": 7481,
      "wilbur": 7482,
      "rita": 7483,
      "sacks": 7484,
      "sey": 7485,
      "aller": 7486,
      "injured": 7487,
      "gates": 7488,
      "craft": 7489,
      "groups": 7490,
      "ambi": 7491,
      "munch": 7492,
      "thest": 7493,
      "trusty": 7494,
      "lumberjack": 7495,
      "kneeling": 7496,
      "leans": 7497,
      "heels": 7498,
      "bold": 7499,
      "temptation": 7500,
      "halfway": 7501,
      "intelligence": 7502,
      "ahh": 7503,
      "seasons": 7504,
      "enemy": 7505,
      "tant": 7506,
      "ands": 7507,
      "trading": 7508,
      "pinchy": 7509,
      "stanley": 7510,
      "boil": 7511,
      "tained": 7512,
      "umbling": 7513,
      "frustration": 7514,
      "structures": 7515,
      "consider": 7516,
      "keyhole": 7517,
      "computers": 7518,
      "level": 7519,
      "spare": 7520,
      "skirts": 7521,
      "reversing": 7522,
      "alan": 7523,
      "spears": 7524,
      "solute": 7525,
      "scene": 7526,
      "wiggles": 7527,
      "fluff": 7528,
      "lizards": 7529,
      "supporting": 7530,
      "oos": 7531,
      "unless": 7532,
      "kenny": 7533,
      "bambi": 7534,
      "lush": 7535,
      "kangaroos": 7536,
      "banging": 7537,
      "astonished": 7538,
      "absolute": 7539,
      "swimsuits": 7540,
      "sleeps": 7541,
      "charm": 7542,
      "foggy": 7543,
      "benches": 7544,
      "magically": 7545,
      "sno": 7546,
      "warmed": 7547,
      "weaker": 7548,
      "jona": 7549,
      "jodie": 7550,
      "tantrum": 7551,
      "textures": 7552,
      "communicate": 7553,
      "wen": 7554,
      "wiggling": 7555,
      "levers": 7556,
      "jonathan": 7557,
      "hissing": 7558,
      "alongside": 7559,
      "hank": 7560,
      "enger": 7561,
      "nicest": 7562,
      "speople": 7563,
      "ziggy": 7564,
      "townspeople": 7565,
      "motorcycles": 7566,
      "writer": 7567,
      "anie": 7568,
      "reled": 7569,
      "shinier": 7570,
      "luckiest": 7571,
      "thumbs": 7572,
      "othy": 7573,
      "wolves": 7574,
      "bloss": 7575,
      "roller": 7576,
      "prank": 7577,
      "cops": 7578,
      "visible": 7579,
      "pedaling": 7580,
      ",'": 7581,
      "rung": 7582,
      "gwen": 7583,
      "trusts": 7584,
      "quarreled": 7585,
      "softened": 7586,
      "hudd": 7587,
      "knobs": 7588,
      "jeremy": 7589,
      "owls": 7590,
      "magnifying": 7591,
      "colin": 7592,
      "disappearing": 7593,
      "mooed": 7594,
      "whine": 7595,
      "toothbrush": 7596,
      "poisonous": 7597,
      "kyle": 7598,
      "limp": 7599,
      "boiling": 7600,
      "\"!": 7601,
      "bowing": 7602,
      "gle": 7603,
      "groom": 7604,
      "worst": 7605,
      "cases": 7606,
      "continuing": 7607,
      "guarding": 7608,
      "alled": 7609,
      "zips": 7610,
      "habit": 7611,
      "concerned": 7612,
      "fetched": 7613,
      "udged": 7614,
      "gic": 7615,
      "compared": 7616,
      "buster": 7617,
      "surprisingly": 7618,
      "funn": 7619,
      "revealing": 7620,
      "pest": 7621,
      "doesna": 7622,
      "bushy": 7623,
      "improving": 7624,
      "property": 7625,
      "absolutely": 7626,
      "thew": 7627,
      "laby": 7628,
      "peak": 7629,
      "speaker": 7630,
      "attemp": 7631,
      "oldest": 7632,
      "croak": 7633,
      "lullaby": 7634,
      "tock": 7635,
      "lucas": 7636,
      "popping": 7637,
      "œthanks": 7638,
      "mais": 7639,
      "glan": 7640,
      "cuddling": 7641,
      "sensation": 7642,
      "ko": 7643,
      "tink": 7644,
      "œwelcome": 7645,
      "nibbles": 7646,
      "libby": 7647,
      "canv": 7648,
      "cupboards": 7649,
      "character": 7650,
      "dia": 7651,
      "wheelbar": 7652,
      "embarrassing": 7653,
      "puppets": 7654,
      "facing": 7655,
      "harmony": 7656,
      "brains": 7657,
      "desperate": 7658,
      "rebuild": 7659,
      "owns": 7660,
      "blade": 7661,
      "maisie": 7662,
      "wrench": 7663,
      "journeys": 7664,
      "drying": 7665,
      "allowing": 7666,
      "soothing": 7667,
      "whirl": 7668,
      "disaster": 7669,
      "cooled": 7670,
      "facts": 7671,
      "aloud": 7672,
      "repairing": 7673,
      "ites": 7674,
      "lava": 7675,
      "shoots": 7676,
      "appearance": 7677,
      "thumper": 7678,
      "till": 7679,
      "realise": 7680,
      "narrow": 7681,
      "foam": 7682,
      "gress": 7683,
      "thunderstorm": 7684,
      "sneaks": 7685,
      "ostri": 7686,
      "courageous": 7687,
      "invitations": 7688,
      "coughing": 7689,
      "security": 7690,
      "mindful": 7691,
      "ibly": 7692,
      "alligators": 7693,
      "spiky": 7694,
      "canvas": 7695,
      "whoa": 7696,
      "sooner": 7697,
      "heavily": 7698,
      "blooms": 7699,
      "deeply": 7700,
      "larger": 7701,
      "sobbing": 7702,
      "toto": 7703,
      "quilt": 7704,
      "skate": 7705,
      "circled": 7706,
      "dashed": 7707,
      "jes": 7708,
      "mest": 7709,
      "jennif": 7710,
      "sleds": 7711,
      "nearer": 7712,
      "ena": 7713,
      "angrier": 7714,
      "mustered": 7715,
      "jennifer": 7716,
      "ress": 7717,
      "current": 7718,
      "chewy": 7719,
      "medals": 7720,
      "costs": 7721,
      "honks": 7722,
      "completing": 7723,
      "mold": 7724,
      "stinky": 7725,
      "pickles": 7726,
      "cousins": 7727,
      "hollow": 7728,
      "foo": 7729,
      "shrugs": 7730,
      "wheelbarrow": 7731,
      "ths": 7732,
      "scoops": 7733,
      "œthere": 7734,
      "compe": 7735,
      "conten": 7736,
      "bruno": 7737,
      "cru": 7738,
      "repeats": 7739,
      "ostriches": 7740,
      "hips": 7741,
      "waking": 7742,
      "loudest": 7743,
      "throne": 7744,
      "contented": 7745,
      "flashes": 7746,
      "whipped": 7747,
      "hangs": 7748,
      "kayaking": 7749,
      "warmest": 7750,
      "winds": 7751,
      "springing": 7752,
      "mana": 7753,
      "copied": 7754,
      "rails": 7755,
      "attempts": 7756,
      "minding": 7757,
      "incredibly": 7758,
      "cooperate": 7759,
      "plopped": 7760,
      "lunchtime": 7761,
      "disobey": 7762,
      "matthew": 7763,
      "fights": 7764,
      "swat": 7765,
      "preschool": 7766,
      "lantern": 7767,
      "ratty": 7768,
      "gratefully": 7769,
      "footprints": 7770,
      "achievement": 7771,
      "dozed": 7772,
      "sitter": 7773,
      "scratchy": 7774,
      "savor": 7775,
      "calming": 7776,
      "flooded": 7777,
      "aye": 7778,
      "ripp": 7779,
      "wance": 7780,
      "caution": 7781,
      "allowance": 7782,
      "caps": 7783,
      "atest": 7784,
      "johna": 7785,
      "glared": 7786,
      "tippy": 7787,
      "hooves": 7788,
      "huddled": 7789,
      "theat": 7790,
      "soda": 7791,
      "ector": 7792,
      "cig": 7793,
      "pled": 7794,
      "juiciest": 7795,
      "misty": 7796,
      "shave": 7797,
      "œwould": 7798,
      "springtime": 7799,
      "persistence": 7800,
      "ticking": 7801,
      "woodcutter": 7802,
      "strokes": 7803,
      "disagreement": 7804,
      "loads": 7805,
      "chatter": 7806,
      "aroma": 7807,
      "movement": 7808,
      "squawk": 7809,
      "chall": 7810,
      "desperately": 7811,
      "liness": 7812,
      "hatched": 7813,
      "swapped": 7814,
      "cigaret": 7815,
      "glistening": 7816,
      "racer": 7817,
      "missy": 7818,
      "bellies": 7819,
      "seriously": 7820,
      "comets": 7821,
      "booth": 7822,
      "clover": 7823,
      "freya": 7824,
      "hooks": 7825,
      "experiment": 7826,
      "lifeguard": 7827,
      "seatbelt": 7828,
      "enges": 7829,
      "speaks": 7830,
      "challenges": 7831,
      "kissing": 7832,
      "interrup": 7833,
      "willow": 7834,
      "whether": 7835,
      "coop": 7836,
      "quacks": 7837,
      "theatre": 7838,
      "possibilities": 7839,
      "science": 7840,
      "oceans": 7841,
      "vinegar": 7842,
      "gogg": 7843,
      "usion": 7844,
      "clare": 7845,
      "chanted": 7846,
      "bathed": 7847,
      "bumping": 7848,
      "glanced": 7849,
      "capture": 7850,
      "daily": 7851,
      "squeal": 7852,
      "bolt": 7853,
      "sniffled": 7854,
      "magnific": 7855,
      "royal": 7856,
      "doggie": 7857,
      "harvest": 7858,
      "musicians": 7859,
      "lasted": 7860,
      "chili": 7861,
      "theya": 7862,
      "poop": 7863,
      "smoothly": 7864,
      "hippos": 7865,
      "stomp": 7866,
      "œare": 7867,
      "def": 7868,
      "wax": 7869,
      "introducing": 7870,
      "champ": 7871,
      "rinse": 7872,
      "scut": 7873,
      "pollen": 7874,
      "blamed": 7875,
      "fuss": 7876,
      "energ": 7877,
      "nicky": 7878,
      "deciding": 7879,
      "congratulations": 7880,
      "goggles": 7881,
      "gummy": 7882,
      "plus": 7883,
      "charged": 7884,
      "stirs": 7885,
      "ppings": 7886,
      "imaginations": 7887,
      "exhi": 7888,
      "stacking": 7889,
      "mur": 7890,
      "folds": 7891,
      "paste": 7892,
      "pounds": 7893,
      "desks": 7894,
      "yumm": 7895,
      "mesmerised": 7896,
      "uncovered": 7897,
      "parks": 7898,
      "det": 7899,
      "stains": 7900,
      "amongst": 7901,
      "passenger": 7902,
      "stic": 7903,
      "gogo": 7904,
      "olly": 7905,
      "babysitter": 7906,
      "wrapper": 7907,
      "progress": 7908,
      "obediently": 7909,
      "dedic": 7910,
      "carly": 7911,
      "cloths": 7912,
      "roamed": 7913,
      "maps": 7914,
      "piled": 7915,
      "hoor": 7916,
      "span": 7917,
      "messed": 7918,
      "cutest": 7919,
      "joseph": 7920,
      "retri": 7921,
      "process": 7922,
      "recommendation": 7923,
      "hooray": 7924,
      "hatch": 7925,
      "pizz": 7926,
      "cooed": 7927,
      "ulous": 7928,
      "cuc": 7929,
      "sean": 7930,
      "disobeyed": 7931,
      "files": 7932,
      "fooled": 7933,
      "magnificent": 7934,
      "isted": 7935,
      "undone": 7936,
      "cocon": 7937,
      "pecks": 7938,
      "anten": 7939,
      "coconut": 7940,
      "hoses": 7941,
      "borrowing": 7942,
      "hamster": 7943,
      "hovering": 7944,
      "allergic": 7945,
      "noah": 7946,
      "braid": 7947,
      "flavour": 7948,
      "yummiest": 7949,
      "doves": 7950,
      "juli": 7951,
      "confusion": 7952,
      "shooed": 7953,
      "clubs": 7954,
      "desserts": 7955,
      "handy": 7956,
      "purring": 7957,
      "aprons": 7958,
      "army": 7959,
      "plat": 7960,
      "hadna": 7961,
      "compromise": 7962,
      "laces": 7963,
      "sleigh": 7964,
      "differences": 7965,
      "gulped": 7966,
      "slur": 7967,
      "widely": 7968,
      "incts": 7969,
      "instincts": 7970,
      "sion": 7971,
      "gooey": 7972,
      "frisbee": 7973,
      "greatest": 7974,
      "mous": 7975,
      "los": 7976,
      "bundle": 7977,
      "untangle": 7978,
      "snip": 7979,
      "silently": 7980,
      "rinsed": 7981,
      "iring": 7982,
      "liest": 7983,
      "rory": 7984,
      "chains": 7985,
      "nibbling": 7986,
      "fived": 7987,
      "gladly": 7988,
      "laws": 7989,
      "valleys": 7990,
      "globe": 7991,
      "greeting": 7992,
      "keen": 7993,
      "bait": 7994,
      "drill": 7995,
      "drip": 7996,
      "performers": 7997,
      "œa": 7998,
      "asp": 7999
    },
    "merges": [
      [
        "h",
        "e"
      ],
      [
        "t",
        "he"
      ],
      [
        "a",
        "n"
      ],
      [
        "e",
        "d"
      ],
      [
        "t",
        "o"
      ],
      [
        "an",
        "d"
      ],
      [
        "i",
        "n"
      ],
      [
        "i",
        "t"
      ],
      [
        "r",
        "e"
      ],
      [
        "o",
        "u"
      ],
      [
        "a",
        "s"
      ],
      [
        "o",
        "n"
      ],
      [
        "h",
        "a"
      ],
      [
        "e",
        "r"
      ],
      [
        "w",
        "as"
      ],
      [
        "a",
        "r"
      ],
      [
        "e",
        "n"
      ],
      [
        "a",
        "y"
      ],
      [
        "s",
        "he"
      ],
      [
        "in",
        "g"
      ],
      [
        "o",
        "m"
      ],
      [
        "i",
        "s"
      ],
      [
        "i",
        "l"
      ],
      [
        "i",
        "d"
      ],
      [
        "s",
        "a"
      ],
      [
        "l",
        "e"
      ],
      [
        "the",
        "y"
      ],
      [
        "a",
        "l"
      ],
      [
        "l",
        "o"
      ],
      [
        "i",
        "m"
      ],
      [
        "o",
        "r"
      ],
      [
        "he",
        "r"
      ],
      [
        "s",
        "t"
      ],
      [
        "t",
        "h"
      ],
      [
        "i",
        "r"
      ],
      [
        "a",
        "t"
      ],
      [
        "b",
        "e"
      ],
      [
        "ha",
        "t"
      ],
      [
        "v",
        "er"
      ],
      [
        "n",
        "o"
      ],
      [
        "u",
        "t"
      ],
      [
        "y",
        "ou"
      ],
      [
        "k",
        "e"
      ],
      [
        "s",
        "e"
      ],
      [
        "c",
        "k"
      ],
      [
        "l",
        "d"
      ],
      [
        "c",
        "e"
      ],
      [
        "sa",
        "id"
      ],
      [
        "s",
        "o"
      ],
      [
        "v",
        "e"
      ],
      [
        "r",
        "i"
      ],
      [
        "t",
        "im"
      ],
      [
        "il",
        "y"
      ],
      [
        "w",
        "e"
      ],
      [
        "p",
        "l"
      ],
      [
        "h",
        "is"
      ],
      [
        "a",
        "m"
      ],
      [
        "w",
        "it"
      ],
      [
        "wit",
        "h"
      ],
      [
        "p",
        "p"
      ],
      [
        "m",
        "om"
      ],
      [
        "a",
        "d"
      ],
      [
        "on",
        "e"
      ],
      [
        "i",
        "g"
      ],
      [
        "l",
        "ily"
      ],
      [
        "o",
        "f"
      ],
      [
        "u",
        "n"
      ],
      [
        "o",
        "k"
      ],
      [
        "t",
        "hat"
      ],
      [
        "l",
        "y"
      ],
      [
        "d",
        "ay"
      ],
      [
        "ver",
        "y"
      ],
      [
        "b",
        "ut"
      ],
      [
        "om",
        "e"
      ],
      [
        "l",
        "i"
      ],
      [
        "d",
        "o"
      ],
      [
        "g",
        "o"
      ],
      [
        "h",
        "o"
      ],
      [
        "n",
        "e"
      ],
      [
        "u",
        "p"
      ],
      [
        "m",
        "y"
      ],
      [
        "t",
        "ed"
      ],
      [
        "b",
        "o"
      ],
      [
        "e",
        "s"
      ],
      [
        "pl",
        "ay"
      ],
      [
        "ha",
        "d"
      ],
      [
        "c",
        "h"
      ],
      [
        "f",
        "or"
      ],
      [
        "al",
        "l"
      ],
      [
        "r",
        "o"
      ],
      [
        "f",
        "e"
      ],
      [
        "ou",
        "ld"
      ],
      [
        "en",
        "d"
      ],
      [
        "k",
        "ed"
      ],
      [
        "t",
        "le"
      ],
      [
        "ha",
        "pp"
      ],
      [
        "w",
        "an"
      ],
      [
        "ou",
        "n"
      ],
      [
        "g",
        "e"
      ],
      [
        "a",
        "re"
      ],
      [
        "en",
        "t"
      ],
      [
        "m",
        "a"
      ],
      [
        "no",
        "t"
      ],
      [
        "the",
        "re"
      ],
      [
        "l",
        "it"
      ],
      [
        "oun",
        "d"
      ],
      [
        "lit",
        "tle"
      ],
      [
        "the",
        "r"
      ],
      [
        "tim",
        "e"
      ],
      [
        "ou",
        "t"
      ],
      [
        "r",
        "y"
      ],
      [
        "r",
        "a"
      ],
      [
        "h",
        "t"
      ],
      [
        "happ",
        "y"
      ],
      [
        "s",
        "m"
      ],
      [
        "b",
        "ig"
      ],
      [
        "f",
        "ri"
      ],
      [
        "sa",
        "w"
      ],
      [
        "s",
        "ome"
      ],
      [
        "lo",
        "ok"
      ],
      [
        "fri",
        "end"
      ],
      [
        ".",
        "\""
      ],
      [
        "a",
        "ck"
      ],
      [
        "th",
        "ing"
      ],
      [
        "u",
        "l"
      ],
      [
        "id",
        "e"
      ],
      [
        "!",
        "\""
      ],
      [
        "u",
        "g"
      ],
      [
        "v",
        "ed"
      ],
      [
        "we",
        "re"
      ],
      [
        "on",
        "ce"
      ],
      [
        "w",
        "ay"
      ],
      [
        "s",
        "p"
      ],
      [
        "w",
        "he"
      ],
      [
        "c",
        "ar"
      ],
      [
        "h",
        "im"
      ],
      [
        "t",
        "er"
      ],
      [
        "to",
        "m"
      ],
      [
        "c",
        "an"
      ],
      [
        "s",
        "u"
      ],
      [
        "ir",
        "l"
      ],
      [
        "e",
        "l"
      ],
      [
        "wan",
        "ted"
      ],
      [
        "b",
        "en"
      ],
      [
        "g",
        "irl"
      ],
      [
        "up",
        "on"
      ],
      [
        "the",
        "ir"
      ],
      [
        "f",
        "ul"
      ],
      [
        "the",
        "m"
      ],
      [
        "m",
        "o"
      ],
      [
        "c",
        "o"
      ],
      [
        "il",
        "l"
      ],
      [
        "he",
        "l"
      ],
      [
        "m",
        "e"
      ],
      [
        "d",
        "id"
      ],
      [
        "sm",
        "il"
      ],
      [
        "c",
        "ould"
      ],
      [
        "ha",
        "ve"
      ],
      [
        "f",
        "r"
      ],
      [
        "e",
        "c"
      ],
      [
        "s",
        "h"
      ],
      [
        "e",
        "x"
      ],
      [
        "in",
        "d"
      ],
      [
        "a",
        "g"
      ],
      [
        "w",
        "ent"
      ],
      [
        "t",
        "a"
      ],
      [
        "ne",
        "w"
      ],
      [
        "hel",
        "p"
      ],
      [
        "o",
        "d"
      ],
      [
        "n",
        "am"
      ],
      [
        "?",
        "\""
      ],
      [
        "w",
        "hat"
      ],
      [
        "friend",
        "s"
      ],
      [
        "ar",
        "d"
      ],
      [
        "whe",
        "n"
      ],
      [
        "u",
        "m"
      ],
      [
        "b",
        "ack"
      ],
      [
        "s",
        "ay"
      ],
      [
        "fe",
        "l"
      ],
      [
        "w",
        "n"
      ],
      [
        "u",
        "r"
      ],
      [
        "li",
        "ke"
      ],
      [
        "fr",
        "om"
      ],
      [
        "f",
        "o"
      ],
      [
        "f",
        "un"
      ],
      [
        "m",
        "an"
      ],
      [
        "s",
        "ide"
      ],
      [
        "c",
        "he"
      ],
      [
        "ar",
        "k"
      ],
      [
        "to",
        "o"
      ],
      [
        "the",
        "n"
      ],
      [
        "r",
        "an"
      ],
      [
        "i",
        "c"
      ],
      [
        "g",
        "ht"
      ],
      [
        "j",
        "o"
      ],
      [
        "tim",
        "my"
      ],
      [
        "st",
        "ar"
      ],
      [
        "e",
        "very"
      ],
      [
        "l",
        "a"
      ],
      [
        "smil",
        "ed"
      ],
      [
        "nam",
        "ed"
      ],
      [
        "p",
        "r"
      ],
      [
        "lo",
        "ved"
      ],
      [
        "s",
        "to"
      ],
      [
        "se",
        "e"
      ],
      [
        "as",
        "ked"
      ],
      [
        "a",
        "in"
      ],
      [
        "to",
        "y"
      ],
      [
        "no",
        "w"
      ],
      [
        "fel",
        "t"
      ],
      [
        "lo",
        "w"
      ],
      [
        "look",
        "ed"
      ],
      [
        "t",
        "s"
      ],
      [
        "p",
        "e"
      ],
      [
        "i",
        "ck"
      ],
      [
        "ar",
        "ound"
      ],
      [
        "ho",
        "w"
      ],
      [
        "a",
        "b"
      ],
      [
        "am",
        "e"
      ],
      [
        "b",
        "ir"
      ],
      [
        "ma",
        "ke"
      ],
      [
        "w",
        "ould"
      ],
      [
        "bo",
        "y"
      ],
      [
        "w",
        "or"
      ],
      [
        "bir",
        "d"
      ],
      [
        "on",
        "g"
      ],
      [
        "o",
        "ther"
      ],
      [
        "i",
        "ce"
      ],
      [
        "re",
        "e"
      ],
      [
        "n",
        "a"
      ],
      [
        "g",
        "r"
      ],
      [
        "c",
        "a"
      ],
      [
        "mom",
        "my"
      ],
      [
        "th",
        "an"
      ],
      [
        "m",
        "ad"
      ],
      [
        "o",
        "p"
      ],
      [
        ",",
        "\""
      ],
      [
        "a",
        "way"
      ],
      [
        "to",
        "ge"
      ],
      [
        "toge",
        "ther"
      ],
      [
        "d",
        "ad"
      ],
      [
        "s",
        "s"
      ],
      [
        "d",
        "d"
      ],
      [
        "say",
        "s"
      ],
      [
        "star",
        "ted"
      ],
      [
        "w",
        "at"
      ],
      [
        "ou",
        "d"
      ],
      [
        "i",
        "e"
      ],
      [
        "wan",
        "t"
      ],
      [
        "some",
        "thing"
      ],
      [
        "mad",
        "e"
      ],
      [
        "c",
        "ame"
      ],
      [
        "it",
        "ed"
      ],
      [
        "p",
        "ark"
      ],
      [
        "i",
        "f"
      ],
      [
        "sa",
        "d"
      ],
      [
        "p",
        "ut"
      ],
      [
        "go",
        "od"
      ],
      [
        "ig",
        "ht"
      ],
      [
        "le",
        "t"
      ],
      [
        "ex",
        "c"
      ],
      [
        "go",
        "t"
      ],
      [
        "w",
        "ho"
      ],
      [
        "l",
        "u"
      ],
      [
        "s",
        "car"
      ],
      [
        "m",
        "u"
      ],
      [
        "h",
        "ome"
      ],
      [
        "ag",
        "ain"
      ],
      [
        "w",
        "al"
      ],
      [
        "ge",
        "t"
      ],
      [
        "a",
        "ve"
      ],
      [
        "w",
        "o"
      ],
      [
        "l",
        "l"
      ],
      [
        "f",
        "ound"
      ],
      [
        "e",
        "p"
      ],
      [
        "ri",
        "ed"
      ],
      [
        "d",
        "ec"
      ],
      [
        "pp",
        "ed"
      ],
      [
        "q",
        "u"
      ],
      [
        "u",
        "re"
      ],
      [
        "mo",
        "re"
      ],
      [
        "h",
        "ug"
      ],
      [
        "b",
        "y"
      ],
      [
        "play",
        "ing"
      ],
      [
        "ou",
        "ght"
      ],
      [
        "k",
        "ing"
      ],
      [
        "a",
        "ch"
      ],
      [
        "p",
        "o"
      ],
      [
        "w",
        "h"
      ],
      [
        "thing",
        "s"
      ],
      [
        "exc",
        "ited"
      ],
      [
        "d",
        "er"
      ],
      [
        "you",
        "r"
      ],
      [
        "li",
        "ked"
      ],
      [
        "n",
        "y"
      ],
      [
        "y",
        "es"
      ],
      [
        "sa",
        "m"
      ],
      [
        "ou",
        "s"
      ],
      [
        "ar",
        "a"
      ],
      [
        "id",
        "ed"
      ],
      [
        "s",
        "ha"
      ],
      [
        "f",
        "a"
      ],
      [
        "dec",
        "ided"
      ],
      [
        "a",
        "f"
      ],
      [
        "ou",
        "se"
      ],
      [
        "t",
        "y"
      ],
      [
        "c",
        "are"
      ],
      [
        "do",
        "g"
      ],
      [
        "b",
        "u"
      ],
      [
        "th",
        "is"
      ],
      [
        "ar",
        "n"
      ],
      [
        "scar",
        "ed"
      ],
      [
        "do",
        "wn"
      ],
      [
        "r",
        "u"
      ],
      [
        "u",
        "se"
      ],
      [
        "f",
        "ind"
      ],
      [
        "ta",
        "ke"
      ],
      [
        "c",
        "lo"
      ],
      [
        "j",
        "u"
      ],
      [
        "an",
        "na"
      ],
      [
        "s",
        "ara"
      ],
      [
        "at",
        "e"
      ],
      [
        "w",
        "ill"
      ],
      [
        "fe",
        "el"
      ],
      [
        "c",
        "ome"
      ],
      [
        "way",
        "s"
      ],
      [
        "ou",
        "r"
      ],
      [
        "ma",
        "x"
      ],
      [
        "an",
        "g"
      ],
      [
        "s",
        "or"
      ],
      [
        "p",
        "re"
      ],
      [
        "al",
        "ways"
      ],
      [
        "b",
        "b"
      ],
      [
        "ab",
        "out"
      ],
      [
        "to",
        "ok"
      ],
      [
        "sp",
        "ec"
      ],
      [
        "t",
        "e"
      ],
      [
        "toy",
        "s"
      ],
      [
        "did",
        "n"
      ],
      [
        "is",
        "e"
      ],
      [
        "o",
        "ld"
      ],
      [
        "out",
        "side"
      ],
      [
        "al",
        "ly"
      ],
      [
        "t",
        "ree"
      ],
      [
        "er",
        "s"
      ],
      [
        "th",
        "ought"
      ],
      [
        "le",
        "arn"
      ],
      [
        "c",
        "at"
      ],
      [
        "i",
        "ve"
      ],
      [
        "en",
        "ed"
      ],
      [
        "che",
        "d"
      ],
      [
        "d",
        "e"
      ],
      [
        "ro",
        "om"
      ],
      [
        "fo",
        "re"
      ],
      [
        "m",
        "i"
      ],
      [
        "it",
        "e"
      ],
      [
        "k",
        "now"
      ],
      [
        "an",
        "t"
      ],
      [
        "i",
        "al"
      ],
      [
        "w",
        "a"
      ],
      [
        "d",
        "on"
      ],
      [
        "la",
        "ug"
      ],
      [
        "spec",
        "ial"
      ],
      [
        "su",
        "dd"
      ],
      [
        "sudd",
        "en"
      ],
      [
        "in",
        "side"
      ],
      [
        "k",
        "new"
      ],
      [
        "g",
        "ed"
      ],
      [
        "r",
        "un"
      ],
      [
        "sor",
        "ry"
      ],
      [
        "an",
        "y"
      ],
      [
        "b",
        "all"
      ],
      [
        "s",
        "w"
      ],
      [
        "ju",
        "st"
      ],
      [
        "sudden",
        "ly"
      ],
      [
        "in",
        "k"
      ],
      [
        "ne",
        "ver"
      ],
      [
        "h",
        "ouse"
      ],
      [
        "b",
        "le"
      ],
      [
        "is",
        "h"
      ],
      [
        "af",
        "ter"
      ],
      [
        "u",
        "s"
      ],
      [
        "r",
        "ed"
      ],
      [
        "s",
        "how"
      ],
      [
        "l",
        "f"
      ],
      [
        "j",
        "ack"
      ],
      [
        "is",
        "t"
      ],
      [
        "mu",
        "ch"
      ],
      [
        "l",
        "ed"
      ],
      [
        "h",
        "and"
      ],
      [
        "s",
        "un"
      ],
      [
        "d",
        "re"
      ],
      [
        "f",
        "in"
      ],
      [
        "care",
        "ful"
      ],
      [
        "o",
        "t"
      ],
      [
        "c",
        "le"
      ],
      [
        "v",
        "en"
      ],
      [
        "c",
        "re"
      ],
      [
        "s",
        "k"
      ],
      [
        "ar",
        "m"
      ],
      [
        "g",
        "ave"
      ],
      [
        "he",
        "d"
      ],
      [
        "in",
        "to"
      ],
      [
        "t",
        "ried"
      ],
      [
        "l",
        "ong"
      ],
      [
        "wat",
        "er"
      ],
      [
        "to",
        "ld"
      ],
      [
        "as",
        "t"
      ],
      [
        "bo",
        "x"
      ],
      [
        "e",
        "ach"
      ],
      [
        "o",
        "ver"
      ],
      [
        "pr",
        "oud"
      ],
      [
        "p",
        "a"
      ],
      [
        "he",
        "ard"
      ],
      [
        "d",
        "y"
      ],
      [
        "re",
        "ad"
      ],
      [
        "lo",
        "ve"
      ],
      [
        "g",
        "re"
      ],
      [
        "ha",
        "r"
      ],
      [
        "than",
        "k"
      ],
      [
        "e",
        "at"
      ],
      [
        "b",
        "r"
      ],
      [
        "c",
        "l"
      ],
      [
        "um",
        "p"
      ],
      [
        "p",
        "ick"
      ],
      [
        "pre",
        "t"
      ],
      [
        "e",
        "ar"
      ],
      [
        "play",
        "ed"
      ],
      [
        "could",
        "n"
      ],
      [
        "mi",
        "a"
      ],
      [
        "ca",
        "use"
      ],
      [
        "i",
        "on"
      ],
      [
        "be",
        "cause"
      ],
      [
        "hug",
        "ged"
      ],
      [
        "un",
        "t"
      ],
      [
        "of",
        "f"
      ],
      [
        "be",
        "ar"
      ],
      [
        "ri",
        "ght"
      ],
      [
        "ex",
        "p"
      ],
      [
        "whe",
        "re"
      ],
      [
        "n",
        "ice"
      ],
      [
        "il",
        "e"
      ],
      [
        "f",
        "ly"
      ],
      [
        "c",
        "om"
      ],
      [
        "ne",
        "ed"
      ],
      [
        "man",
        "y"
      ],
      [
        "t",
        "ry"
      ],
      [
        "she",
        "d"
      ],
      [
        "f",
        "low"
      ],
      [
        "l",
        "ad"
      ],
      [
        "a",
        "c"
      ],
      [
        "sm",
        "all"
      ],
      [
        "v",
        "ing"
      ],
      [
        "an",
        "im"
      ],
      [
        "be",
        "t"
      ],
      [
        "anim",
        "al"
      ],
      [
        "ra",
        "bb"
      ],
      [
        "ou",
        "g"
      ],
      [
        "sh",
        "in"
      ],
      [
        "t",
        "ing"
      ],
      [
        "oug",
        "h"
      ],
      [
        "b",
        "er"
      ],
      [
        "it",
        "s"
      ],
      [
        "e",
        "ven"
      ],
      [
        "unt",
        "il"
      ],
      [
        "f",
        "i"
      ],
      [
        "se",
        "lf"
      ],
      [
        "so",
        "on"
      ],
      [
        "p",
        "er"
      ],
      [
        "b",
        "ed"
      ],
      [
        "i",
        "z"
      ],
      [
        "k",
        "ind"
      ],
      [
        "learn",
        "ed"
      ],
      [
        "every",
        "one"
      ],
      [
        "be",
        "a"
      ],
      [
        "ke",
        "t"
      ],
      [
        "bet",
        "ter"
      ],
      [
        "b",
        "ro"
      ],
      [
        "c",
        "all"
      ],
      [
        "a",
        "ce"
      ],
      [
        "v",
        "ent"
      ],
      [
        "c",
        "y"
      ],
      [
        "g",
        "ive"
      ],
      [
        "be",
        "st"
      ],
      [
        "t",
        "ur"
      ],
      [
        "p",
        "u"
      ],
      [
        "b",
        "ra"
      ],
      [
        "as",
        "s"
      ],
      [
        "e",
        "t"
      ],
      [
        "h",
        "ur"
      ],
      [
        "exp",
        "lo"
      ],
      [
        "sp",
        "ot"
      ],
      [
        "g",
        "ard"
      ],
      [
        "gard",
        "en"
      ],
      [
        "t",
        "re"
      ],
      [
        "ck",
        "s"
      ],
      [
        "bea",
        "ut"
      ],
      [
        "o",
        "l"
      ],
      [
        "f",
        "le"
      ],
      [
        "re",
        "a"
      ],
      [
        "than",
        "ked"
      ],
      [
        "sk",
        "y"
      ],
      [
        "laug",
        "hed"
      ],
      [
        "j",
        "ump"
      ],
      [
        "s",
        "ho"
      ],
      [
        "un",
        "der"
      ],
      [
        "su",
        "r"
      ],
      [
        "sa",
        "fe"
      ],
      [
        "jo",
        "y"
      ],
      [
        "t",
        "ru"
      ],
      [
        "as",
        "e"
      ],
      [
        "p",
        "le"
      ],
      [
        "l",
        "oud"
      ],
      [
        "l",
        "ist"
      ],
      [
        "l",
        "ly"
      ],
      [
        "p",
        "t"
      ],
      [
        "f",
        "t"
      ],
      [
        "i",
        "ful"
      ],
      [
        "beaut",
        "iful"
      ],
      [
        "lo",
        "ts"
      ],
      [
        "st",
        "ill"
      ],
      [
        "r",
        "ong"
      ],
      [
        "f",
        "am"
      ],
      [
        "am",
        "a"
      ],
      [
        "n",
        "ing"
      ],
      [
        "animal",
        "s"
      ],
      [
        "ra",
        "in"
      ],
      [
        "jo",
        "h"
      ],
      [
        "st",
        "ay"
      ],
      [
        "m",
        "um"
      ],
      [
        "joh",
        "n"
      ],
      [
        "w",
        "in"
      ],
      [
        "w",
        "on"
      ],
      [
        "bo",
        "ok"
      ],
      [
        "bo",
        "th"
      ],
      [
        "ig",
        "h"
      ],
      [
        "el",
        "l"
      ],
      [
        "t",
        "wo"
      ],
      [
        "b",
        "ad"
      ],
      [
        "c",
        "u"
      ],
      [
        "har",
        "d"
      ],
      [
        "tur",
        "n"
      ],
      [
        "ke",
        "ep"
      ],
      [
        "op",
        "le"
      ],
      [
        "li",
        "ved"
      ],
      [
        "pe",
        "ople"
      ],
      [
        "ok",
        "ay"
      ],
      [
        "c",
        "t"
      ],
      [
        "bra",
        "ve"
      ],
      [
        "lu",
        "cy"
      ],
      [
        "ro",
        "w"
      ],
      [
        "wal",
        "ked"
      ],
      [
        "sh",
        "ould"
      ],
      [
        "gr",
        "ound"
      ],
      [
        "sur",
        "pr"
      ],
      [
        "ang",
        "ry"
      ],
      [
        "fam",
        "ily"
      ],
      [
        "fle",
        "w"
      ],
      [
        "or",
        "t"
      ],
      [
        "call",
        "ed"
      ],
      [
        "su",
        "re"
      ],
      [
        "i",
        "shed"
      ],
      [
        "in",
        "e"
      ],
      [
        "hur",
        "t"
      ],
      [
        "a",
        "pp"
      ],
      [
        "do",
        "or"
      ],
      [
        "wh",
        "ile"
      ],
      [
        "ke",
        "pt"
      ],
      [
        "c",
        "on"
      ],
      [
        "re",
        "al"
      ],
      [
        "sha",
        "re"
      ],
      [
        "be",
        "fore"
      ],
      [
        "f",
        "ast"
      ],
      [
        "lu",
        "e"
      ],
      [
        "an",
        "e"
      ],
      [
        "is",
        "ed"
      ],
      [
        "p",
        "ic"
      ],
      [
        "go",
        "ing"
      ],
      [
        "pret",
        "ty"
      ],
      [
        "x",
        "t"
      ],
      [
        "s",
        "er"
      ],
      [
        "s",
        "l"
      ],
      [
        "cle",
        "an"
      ],
      [
        "ne",
        "xt"
      ],
      [
        "m",
        "ay"
      ],
      [
        "lo",
        "t"
      ],
      [
        "wh",
        "y"
      ],
      [
        "ad",
        "vent"
      ],
      [
        "im",
        "p"
      ],
      [
        "ab",
        "le"
      ],
      [
        "no",
        "ise"
      ],
      [
        "op",
        "ened"
      ],
      [
        "shin",
        "y"
      ],
      [
        "do",
        "ll"
      ],
      [
        "c",
        "ry"
      ],
      [
        "explo",
        "re"
      ],
      [
        "feel",
        "ing"
      ],
      [
        "pl",
        "ace"
      ],
      [
        "gr",
        "and"
      ],
      [
        "il",
        "ly"
      ],
      [
        "k",
        "it"
      ],
      [
        "d",
        "ra"
      ],
      [
        "al",
        "so"
      ],
      [
        "e",
        "m"
      ],
      [
        "li",
        "e"
      ],
      [
        "€",
        "™"
      ],
      [
        "il",
        "d"
      ],
      [
        "me",
        "m"
      ],
      [
        "i",
        "ed"
      ],
      [
        "m",
        "ar"
      ],
      [
        "ide",
        "a"
      ],
      [
        "no",
        "dd"
      ],
      [
        "bo",
        "b"
      ],
      [
        "co",
        "lo"
      ],
      [
        "u",
        "ck"
      ],
      [
        "nodd",
        "ed"
      ],
      [
        "b",
        "lue"
      ],
      [
        "t",
        "al"
      ],
      [
        "f",
        "ish"
      ],
      [
        "pick",
        "ed"
      ],
      [
        "colo",
        "r"
      ],
      [
        "he",
        "ar"
      ],
      [
        "se",
        "t"
      ],
      [
        "wal",
        "king"
      ],
      [
        "cl",
        "im"
      ],
      [
        "as",
        "k"
      ],
      [
        "he",
        "ad"
      ],
      [
        "wor",
        "k"
      ],
      [
        "fa",
        "ce"
      ],
      [
        "h",
        "as"
      ],
      [
        "re",
        "n"
      ],
      [
        "advent",
        "ure"
      ],
      [
        "smil",
        "e"
      ],
      [
        "p",
        "ar"
      ],
      [
        "r",
        "ing"
      ],
      [
        "be",
        "ing"
      ],
      [
        "le",
        "ss"
      ],
      [
        "t",
        "ure"
      ],
      [
        "may",
        "be"
      ],
      [
        "fin",
        "ally"
      ],
      [
        "look",
        "ing"
      ],
      [
        "i",
        "es"
      ],
      [
        "ic",
        "ed"
      ],
      [
        "v",
        "o"
      ],
      [
        "by",
        "e"
      ],
      [
        "ha",
        "ir"
      ],
      [
        "i",
        "ous"
      ],
      [
        "wa",
        "it"
      ],
      [
        "d",
        "if"
      ],
      [
        "list",
        "en"
      ],
      [
        "fo",
        "od"
      ],
      [
        "wal",
        "k"
[...]
