{
  "version": "1.0",
  "truncation": null,
  "padding": null,
  "added_tokens": [
    {
      "id": 0,
      "content": "[PAD]",
      "single_word": false,
      "lstrip": false,
      "rstrip": false,
      "normalized": false,
      "special": true
    },
    {
      "id": 1,
      "content": "[UNK]",
      "single_word": false,
      "lstrip": false,
      "rstrip": false,
      "normalized": false,
      "special": true
    },
    {
      "id": 2,
      "content": "<s>",
      "single_word": false,
      "lstrip": false,
      "rstrip": false,
      "normalized": false,
      "special": true
    },
    {
      "id": 3,
      "content": "</s>",
      "single_word": false,
      "lstrip": false,
      "rstrip": false,
      "normalized": false,
      "special": true
    }
  ],
  "normalizer": {
    "type": "Sequence",
    "normalizers": [
      {
        "type": "NFD"
      },
      {
        "type": "Lowercase"
      },
      {
        "type": "StripAccents"
      }
    ]
  },
  "pre_tokenizer": {
    "type": "Whitespace"
  },
  "post_processor": null,
  "decoder": null,
  "model": {
    "type": "BPE",
    "dropout": null,
    "unk_token": null,
    "continuing_subword_prefix": null,
    "end_of_word_suffix": null,
    "fuse_unk": false,
    "byte_fallback": false,
    "ignore_merges": false,
    "vocab": {
      "[PAD]": 0,
      "[UNK]": 1,
      "<s>": 2,
      "</s>": 3,
      "!": 4,
      "\"": 5,
      "#": 6,
      "$": 7,
      "%": 8,
      "&": 9,
      "'": 10,
      "(": 11,
      ")": 12,
      "*": 13,
      "+": 14,
      ",": 15,
      "-": 16,
      ".": 17,
      "/": 18,
      "0": 19,
      "1": 20,
      "2": 21,
      "3": 22,
      "4": 23,
      "5": 24,
      "6": 25,
      "7": 26,
      "8": 27,
      "9": 28,
      ":": 29,
      ";": 30,
      "<": 31,
      "=": 32,
      ">": 33,
      "?": 34,
      "@": 35,
      "[": 36,
      "\\": 37,
      "]": 38,
      "_": 39,
      "`": 40,
      "a": 41,
      "b": 42,
      "c": 43,
      "d": 44,
      "e": 45,
      "f": 46,
      "g": 47,
      "h": 48,
      "i": 49,
      "j": 50,
      "k": 51,
      "l": 52,
      "m": 53,
      "n": 54,
      "o": 55,
      "p": 56,
      "q": 57,
      "r": 58,
      "s": 59,
      "t": 60,
      "u": 61,
      "v": 62,
      "w": 63,
      "x": 64,
      "y": 65,
      "z": 66,
      "{": 67,
      "|": 68,
      "}": 69,
      "~": 70,
      "¡": 71,
      "¢": 72,
      "£": 73,
      "¤": 74,
      "¥": 75,
      "¦": 76,
      "§": 77,
      "¨": 78,
      "©": 79,
      "ª": 80,
      "«": 81,
      "¬": 82,
      "­": 83,
      "®": 84,
      "¯": 85,
      "°": 86,
      "±": 87,
      "²": 88,
      "³": 89,
      "´": 90,
      "µ": 91,
      "¶": 92,
      "·": 93,
      "¸": 94,
      "¹": 95,
      "º": 96,
      "»": 97,
      "¼": 98,
      "½": 99,
      "¾": 100,
      "¿": 101,
      "æ": 102,
      "ð": 103,
      "œ": 104,
      "ƒ": 105,
      "ˆ": 106,
      "˜": 107,
      "–": 108,
      "‘": 109,
      "’": 110,
      "‚": 111,
      "“": 112,
      "”": 113,
      "„": 114,
      "†": 115,
      "‡": 116,
      "•": 117,
      "…": 118,
      "‰": 119,
      "‹": 120,
      "›": 121,
      "€": 122,
      "™": 123,
      "he": 124,
      "the": 125,
      "an": 126,
      "ed": 127,
      "to": 128,
      "and": 129,
      "in": 130,
      "it": 131,
      "re": 132,
      "ou": 133,
      "as": 134,
      "on": 135,
      "ha": 136,
      "er": 137,
      "was": 138,
      "ar": 139,
      "en": 140,
      "ay": 141,
      "she": 142,
      "ing": 143,
      "om": 144,
      "is": 145,
      "il": 146,
      "id": 147,
      "sa": 148,
      "le": 149,
      "they": 150,
      "al": 151,
      "lo": 152,
      "im": 153,
      "or": 154,
      "her": 155,
      "st": 156,
      "th": 157,
      "ir": 158,
      "at": 159,
      "be": 160,
      "hat": 161,
      "ver": 162,
      "no": 163,
      "ut": 164,
      "you": 165,
      "ke": 166,
      "se": 167,
      "ck": 168,
      "ld": 169,
      "ce": 170,
      "said": 171,
      "so": 172,
      "ve": 173,
      "ri": 174,
      "tim": 175,
      "ily": 176,
      "we": 177,
      "pl": 178,
      "his": 179,
      "am": 180,
      "wit": 181,
      "with": 182,
      "pp": 183,
      "mom": 184,
      "ad": 185,
      "one": 186,
      "ig": 187,
      "lily": 188,
      "of": 189,
      "un": 190,
      "ok": 191,
      "that": 192,
      "ly": 193,
      "day": 194,
      "very": 195,
      "but": 196,
      "ome": 197,
      "li": 198,
      "do": 199,
      "go": 200,
      "ho": 201,
      "ne": 202,
      "up": 203,
      "my": 204,
      "ted": 205,
      "bo": 206,
      "es": 207,
      "play": 208,
      "had": 209,
      "ch": 210,
      "for": 211,
      "all": 212,
      "ro": 213,
      "fe": 214,
      "ould": 215,
      "end": 216,
      "ked": 217,
      "tle": 218,
      "happ": 219,
      "wan": 220,
      "oun": 221,
      "ge": 222,
      "are": 223,
      "ent": 224,
      "ma": 225,
      "not": 226,
      "there": 227,
      "lit": 228,
      "ound": 229,
      "little": 230,
      "ther": 231,
      "time": 232,
      "out": 233,
      "ry": 234,
      "ra": 235,
      "ht": 236,
      "happy": 237,
      "sm": 238,
      "big": 239,
      "fri": 240,
      "saw": 241,
      "some": 242,
      "look": 243,
      "friend": 244,
      ".\"": 245,
      "ack": 246,
      "thing": 247,
      "ul": 248,
      "ide": 249,
      "!\"": 250,
      "ug": 251,
      "ved": 252,
      "were": 253,
      "once": 254,
      "way": 255,
      "sp": 256,
      "whe": 257,
      "car": 258,
      "him": 259,
      "ter": 260,
      "tom": 261,
      "can": 262,
      "su": 263,
      "irl": 264,
      "el": 265,
      "wanted": 266,
      "ben": 267,
      "girl": 268,
      "upon": 269,
      "their": 270,
      "ful": 271,
      "them": 272,
      "mo": 273,
      "co": 274,
      "ill": 275,
      "hel": 276,
      "me": 277,
      "did": 278,
      "smil": 279,
      "could": 280,
      "have": 281,
      "fr": 282,
      "ec": 283,
      "sh": 284,
      "ex": 285,
      "ind": 286,
      "ag": 287,
      "went": 288,
      "ta": 289,
      "new": 290,
      "help": 291,
      "od": 292,
      "nam": 293,
      "?\"": 294,
      "what": 295,
      "friends": 296,
      "ard": 297,
      "when": 298,
      "um": 299,
      "back": 300,
      "say": 301,
      "fel": 302,
      "wn": 303,
      "ur": 304,
      "like": 305,
      "from": 306,
      "fo": 307,
      "fun": 308,
      "man": 309,
      "side": 310,
      "che": 311,
      "ark": 312,
      "too": 313,
      "then": 314,
      "ran": 315,
      "ic": 316,
      "ght": 317,
      "jo": 318,
      "timmy": 319,
      "star": 320,
      "every": 321,
      "la": 322,
      "smiled": 323,
      "named": 324,
      "pr": 325,
      "loved": 326,
      "sto": 327,
      "see": 328,
      "asked": 329,
      "ain": 330,
      "toy": 331,
      "now": 332,
      "felt": 333,
      "low": 334,
      "looked": 335,
      "ts": 336,
      "pe": 337,
      "ick": 338,
      "around": 339,
      "how": 340,
      "ab": 341,
      "ame": 342,
      "bir": 343,
      "make": 344,
      "would": 345,
      "boy": 346,
      "wor": 347,
      "bird": 348,
      "ong": 349,
      "other": 350,
      "ice": 351,
      "ree": 352,
      "na": 353,
      "gr": 354,
      "ca": 355,
      "mommy": 356,
      "than": 357,
      "mad": 358,
      "op": 359,
      ",\"": 360,
      "away": 361,
      "toge": 362,
      "together": 363,
      "dad": 364,
      "ss": 365,
      "dd": 366,
      "says": 367,
      "started": 368,
      "wat": 369,
      "oud": 370,
      "ie": 371,
      "want": 372,
      "something": 373,
      "made": 374,
      "came": 375,
      "ited": 376,
      "park": 377,
      "if": 378,
      "sad": 379,
      "put": 380,
      "good": 381,
      "ight": 382,
      "let": 383,
      "exc": 384,
      "got": 385,
      "who": 386,
      "lu": 387,
      "scar": 388,
      "mu": 389,
      "home": 390,
      "again": 391,
      "wal": 392,
      "get": 393,
      "ave": 394,
      "wo": 395,
      "ll": 396,
      "found": 397,
      "ep": 398,
      "ried": 399,
      "dec": 400,
      "pped": 401,
      "qu": 402,
      "ure": 403,
      "more": 404,
      "hug": 405,
      "by": 406,
      "playing": 407,
      "ought": 408,
      "king": 409,
      "ach": 410,
      "po": 411,
      "wh": 412,
      "things": 413,
      "excited": 414,
      "der": 415,
      "your": 416,
      "liked": 417,
      "ny": 418,
      "yes": 419,
      "sam": 420,
      "ous": 421,
      "ara": 422,
      "ided": 423,
      "sha": 424,
      "fa": 425,
      "decided": 426,
      "af": 427,
      "ouse": 428,
      "ty": 429,
      "care": 430,
      "dog": 431,
      "bu": 432,
      "this": 433,
      "arn": 434,
      "scared": 435,
      "down": 436,
      "ru": 437,
      "use": 438,
      "find": 439,
      "take": 440,
      "clo": 441,
      "ju": 442,
      "anna": 443,
      "sara": 444,
      "ate": 445,
      "will": 446,
      "feel": 447,
      "come": 448,
      "ways": 449,
      "our": 450,
      "max": 451,
      "ang": 452,
      "sor": 453,
      "pre": 454,
      "always": 455,
      "bb": 456,
      "about": 457,
      "took": 458,
      "spec": 459,
      "te": 460,
      "toys": 461,
      "didn": 462,
      "ise": 463,
      "old": 464,
      "outside": 465,
      "ally": 466,
      "tree": 467,
      "ers": 468,
      "thought": 469,
      "learn": 470,
      "cat": 471,
      "ive": 472,
      "ened": 473,
      "ched": 474,
      "de": 475,
      "room": 476,
      "fore": 477,
      "mi": 478,
      "ite": 479,
      "know": 480,
      "ant": 481,
      "ial": 482,
      "wa": 483,
      "don": 484,
      "laug": 485,
      "special": 486,
      "sudd": 487,
      "sudden": 488,
      "inside": 489,
      "knew": 490,
      "ged": 491,
      "run": 492,
      "sorry": 493,
      "any": 494,
      "ball": 495,
      "sw": 496,
      "just": 497,
      "suddenly": 498,
      "ink": 499,
      "never": 500,
      "house": 501,
      "ble": 502,
      "ish": 503,
      "after": 504,
      "us": 505,
      "red": 506,
      "show": 507,
      "lf": 508,
      "jack": 509,
      "ist": 510,
      "much": 511,
      "led": 512,
      "hand": 513,
      "sun": 514,
      "dre": 515,
      "fin": 516,
      "careful": 517,
      "ot": 518,
      "cle": 519,
      "ven": 520,
      "cre": 521,
      "sk": 522,
      "arm": 523,
      "gave": 524,
      "hed": 525,
      "into": 526,
      "tried": 527,
      "long": 528,
      "water": 529,
      "told": 530,
      "ast": 531,
      "box": 532,
      "each": 533,
      "over": 534,
      "proud": 535,
      "pa": 536,
      "heard": 537,
      "dy": 538,
      "read": 539,
      "love": 540,
      "gre": 541,
      "har": 542,
      "thank": 543,
      "eat": 544,
      "br": 545,
      "cl": 546,
      "ump": 547,
      "pick": 548,
      "pret": 549,
      "ear": 550,
      "played": 551,
      "couldn": 552,
      "mia": 553,
      "cause": 554,
      "ion": 555,
      "because": 556,
      "hugged": 557,
      "unt": 558,
      "off": 559,
      "bear": 560,
      "right": 561,
      "exp": 562,
      "where": 563,
      "nice": 564,
      "ile": 565,
      "fly": 566,
      "com": 567,
      "need": 568,
      "many": 569,
      "try": 570,
      "shed": 571,
      "flow": 572,
      "lad": 573,
      "ac": 574,
      "small": 575,
      "ving": 576,
      "anim": 577,
      "bet": 578,
      "animal": 579,
      "rabb": 580,
      "oug": 581,
      "shin": 582,
      "ting": 583,
      "ough": 584,
      "ber": 585,
      "its": 586,
      "even": 587,
      "until": 588,
      "fi": 589,
      "self": 590,
      "soon": 591,
      "per": 592,
      "bed": 593,
      "iz": 594,
      "kind": 595,
      "learned": 596,
      "everyone": 597,
      "bea": 598,
      "ket": 599,
      "better": 600,
      "bro": 601,
      "call": 602,
      "ace": 603,
      "vent": 604,
      "cy": 605,
      "give": 606,
      "best": 607,
      "tur": 608,
      "pu": 609,
      "bra": 610,
      "ass": 611,
      "et": 612,
      "hur": 613,
      "explo": 614,
      "spot": 615,
      "gard": 616,
      "garden": 617,
      "tre": 618,
      "cks": 619,
      "beaut": 620,
      "ol": 621,
      "fle": 622,
      "rea": 623,
      "thanked": 624,
      "sky": 625,
      "laughed": 626,
      "jump": 627,
      "sho": 628,
      "under": 629,
      "sur": 630,
      "safe": 631,
      "joy": 632,
      "tru": 633,
      "ase": 634,
      "ple": 635,
      "loud": 636,
      "list": 637,
      "lly": 638,
      "pt": 639,
      "ft": 640,
      "iful": 641,
      "beautiful": 642,
      "lots": 643,
      "still": 644,
      "rong": 645,
      "fam": 646,
      "ama": 647,
      "ning": 648,
      "animals": 649,
      "rain": 650,
      "joh": 651,
      "stay": 652,
      "mum": 653,
      "john": 654,
      "win": 655,
      "won": 656,
      "book": 657,
      "both": 658,
      "igh": 659,
      "ell": 660,
      "two": 661,
      "bad": 662,
      "cu": 663,
      "hard": 664,
      "turn": 665,
      "keep": 666,
      "ople": 667,
      "lived": 668,
      "people": 669,
      "okay": 670,
      "ct": 671,
      "brave": 672,
      "lucy": 673,
      "row": 674,
      "walked": 675,
      "should": 676,
      "ground": 677,
      "surpr": 678,
      "angry": 679,
      "family": 680,
      "flew": 681,
      "ort": 682,
      "called": 683,
      "sure": 684,
      "ished": 685,
      "ine": 686,
      "hurt": 687,
      "app": 688,
      "door": 689,
      "while": 690,
      "kept": 691,
      "con": 692,
      "real": 693,
      "share": 694,
      "before": 695,
      "fast": 696,
      "lue": 697,
      "ane": 698,
      "ised": 699,
      "pic": 700,
      "going": 701,
      "pretty": 702,
      "xt": 703,
      "ser": 704,
      "sl": 705,
      "clean": 706,
      "next": 707,
      "may": 708,
      "lot": 709,
      "why": 710,
      "advent": 711,
      "imp": 712,
      "able": 713,
      "noise": 714,
      "opened": 715,
      "shiny": 716,
      "doll": 717,
      "cry": 718,
      "explore": 719,
      "feeling": 720,
      "place": 721,
      "grand": 722,
      "illy": 723,
      "kit": 724,
      "dra": 725,
      "also": 726,
      "em": 727,
      "lie": 728,
      "€™": 729,
      "ild": 730,
      "mem": 731,
      "ied": 732,
      "mar": 733,
      "idea": 734,
      "nodd": 735,
      "bob": 736,
      "colo": 737,
      "uck": 738,
      "nodded": 739,
      "blue": 740,
      "tal": 741,
      "fish": 742,
      "picked": 743,
      "color": 744,
      "hear": 745,
      "set": 746,
      "walking": 747,
      "clim": 748,
      "ask": 749,
      "head": 750,
      "work": 751,
      "face": 752,
      "has": 753,
      "ren": 754,
      "adventure": 755,
      "smile": 756,
      "par": 757,
      "ring": 758,
      "being": 759,
      "less": 760,
      "ture": 761,
      "maybe": 762,
      "finally": 763,
      "looking": 764,
      "ies": 765,
      "iced": 766,
      "vo": 767,
      "bye": 768,
      "hair": 769,
      "ious": 770,
      "wait": 771,
      "dif": 772,
      "listen": 773,
      "food": 774,
      "walk": 775,
      "ever": 776,
      "ste": 777,
      "picture": 778,
      "think": 779,
      "night": 780,
      "remem": 781,
      "da": 782,
      "used": 783,
      "les": 784,
      "eyes": 785,
      "ught": 786,
      "here": 787,
      "stopped": 788,
      "cook": 789,
      "great": 790,
      "own": 791,
      "sue": 792,
      "flowers": 793,
      "bl": 794,
      "enjoy": 795,
      "squ": 796,
      "year": 797,
      "mon": 798,
      "wonder": 799,
      "remember": 800,
      "repl": 801,
      "blo": 802,
      "quick": 803,
      "ries": 804,
      "import": 805,
      "ess": 806,
      "forest": 807,
      "noticed": 808,
      "hands": 809,
      "near": 810,
      "watch": 811,
      "ized": 812,
      "ph": 813,
      "dan": 814,
      "irst": 815,
      "leave": 816,
      "bun": 817,
      "important": 818,
      "llow": 819,
      "sound": 820,
      "slide": 821,
      "amaz": 822,
      "replied": 823,
      "cho": 824,
      "stop": 825,
      "table": 826,
      "follow": 827,
      "mor": 828,
      "showed": 829,
      "mean": 830,
      "tou": 831,
      "ip": 832,
      "tin": 833,
      "gan": 834,
      "voice": 835,
      "tell": 836,
      "swe": 837,
      "feren": 838,
      "differen": 839,
      "sarah": 840,
      "mag": 841,
      "cream": 842,
      "swing": 843,
      "sing": 844,
      "rabbit": 845,
      "stick": 846,
      "cake": 847,
      "rest": 848,
      "bright": 849,
      "mis": 850,
      "watched": 851,
      "goodbye": 852,
      "bow": 853,
      "truck": 854,
      "please": 855,
      "dis": 856,
      "store": 857,
      "daddy": 858,
      "quickly": 859,
      "been": 860,
      "boat": 861,
      "gu": 862,
      "strong": 863,
      "curi": 864,
      "ner": 865,
      "jane": 866,
      "stand": 867,
      "flo": 868,
      "different": 869,
      "bit": 870,
      "tor": 871,
      "hello": 872,
      "tow": 873,
      "first": 874,
      "became": 875,
      "does": 876,
      "high": 877,
      "ready": 878,
      "closer": 879,
      "curious": 880,
      "key": 881,
      "sand": 882,
      "warm": 883,
      "ummy": 884,
      "joe": 885,
      "ung": 886,
      "ila": 887,
      "laugh": 888,
      "three": 889,
      "fav": 890,
      "fro": 891,
      "grandma": 892,
      "dress": 893,
      "pie": 894,
      "open": 895,
      "lila": 896,
      "rough": 897,
      "leep": 898,
      "ond": 899,
      "ten": 900,
      "pul": 901,
      "anymore": 902,
      "butter": 903,
      "bunny": 904,
      "sit": 905,
      "flower": 906,
      "kid": 907,
      "grabb": 908,
      "ired": 909,
      "only": 910,
      "pain": 911,
      "med": 912,
      "ba": 913,
      "grabbed": 914,
      "yel": 915,
      "fire": 916,
      "light": 917,
      "isy": 918,
      "times": 919,
      "dro": 920,
      "fell": 921,
      "rock": 922,
      "birds": 923,
      "deli": 924,
      "jumped": 925,
      "glad": 926,
      "chen": 927,
      "kitchen": 928,
      "pare": 929,
      "ered": 930,
      "cut": 931,
      "ff": 932,
      "helped": 933,
      "cket": 934,
      "air": 935,
      "outed": 936,
      "prin": 937,
      "brea": 938,
      "ow": 939,
      "sed": 940,
      "top": 941,
      "happened": 942,
      "ash": 943,
      "yummy": 944,
      "wel": 945,
      "rel": 946,
      "grass": 947,
      "bal": 948,
      "tommy": 949,
      "sees": 950,
      "story": 951,
      "shouted": 952,
      "really": 953,
      "having": 954,
      "dow": 955,
      "brother": 956,
      "reached": 957,
      "din": 958,
      "realized": 959,
      "lady": 960,
      "ster": 961,
      "paren": 962,
      "through": 963,
      "favor": 964,
      "draw": 965,
      "favorite": 966,
      "game": 967,
      "coming": 968,
      "bor": 969,
      "piece": 970,
      "soft": 971,
      "zy": 972,
      "tra": 973,
      "magic": 974,
      "pretend": 975,
      "began": 976,
      "ray": 977,
      "world": 978,
      "looks": 979,
      "sweet": 980,
      "kids": 981,
      "done": 982,
      "cra": 983,
      "himself": 984,
      "col": 985,
      "making": 986,
      "wow": 987,
      "sometimes": 988,
      "mouse": 989,
      "prom": 990,
      "pond": 991,
      "waved": 992,
      "move": 993,
      "tired": 994,
      "fix": 995,
      "cked": 996,
      "fill": 997,
      "cars": 998,
      "worry": 999,
      "sn": 1000,
      "ped": 1001,
      "delic": 1002,
      "name": 1003,
      "hold": 1004,
      "cold": 1005,
      "parents": 1006,
      "touch": 1007,
      "sally": 1008,
      "catch": 1009,
      "funny": 1010,
      "another": 1011,
      "farm": 1012,
      "seen": 1013,
      "ater": 1014,
      "pro": 1015,
      "surprise": 1016,
      "ient": 1017,
      "bab": 1018,
      "daisy": 1019,
      "green": 1020,
      "river": 1021,
      "doing": 1022,
      "hopped": 1023,
      "cried": 1024,
      "oney": 1025,
      "blocks": 1026,
      "ds": 1027,
      "cool": 1028,
      "\".": 1029,
      "cor": 1030,
      "ons": 1031,
      "years": 1032,
      "close": 1033,
      "age": 1034,
      "mess": 1035,
      "wood": 1036,
      "turned": 1037,
      "climb": 1038,
      "andy": 1039,
      "snow": 1040,
      "floor": 1041,
      "hind": 1042,
      "sat": 1043,
      "frog": 1044,
      "cla": 1045,
      "behind": 1046,
      "trees": 1047,
      "full": 1048,
      "running": 1049,
      "lesson": 1050,
      "ppy": 1051,
      "window": 1052,
      "ger": 1053,
      "worked": 1054,
      "wear": 1055,
      "plan": 1056,
      "slow": 1057,
      "dark": 1058,
      "yellow": 1059,
      "paper": 1060,
      "likes": 1061,
      "ign": 1062,
      "wished": 1063,
      "swim": 1064,
      "sleep": 1065,
      "baby": 1066,
      "bag": 1067,
      "fl": 1068,
      "happily": 1069,
      "pat": 1070,
      "jim": 1071,
      "tas": 1072,
      "surprised": 1073,
      "teddy": 1074,
      "cas": 1075,
      "butterfly": 1076,
      "carefully": 1077,
      "pet": 1078,
      "benny": 1079,
      "yard": 1080,
      "hole": 1081,
      "lost": 1082,
      "remembered": 1083,
      "held": 1084,
      "race": 1085,
      "sy": 1086,
      "bar": 1087,
      "needed": 1088,
      "buy": 1089,
      "fair": 1090,
      "castle": 1091,
      "arri": 1092,
      "left": 1093,
      "dream": 1094,
      "billy": 1095,
      "anything": 1096,
      "reed": 1097,
      "chil": 1098,
      "ation": 1099,
      "wrong": 1100,
      "enjoyed": 1101,
      "tri": 1102,
      "bug": 1103,
      "dren": 1104,
      "far": 1105,
      "gen": 1106,
      "children": 1107,
      "duck": 1108,
      "followed": 1109,
      "stran": 1110,
      "mat": 1111,
      "ined": 1112,
      "ross": 1113,
      "delicious": 1114,
      "wind": 1115,
      "someone": 1116,
      "hung": 1117,
      "ak": 1118,
      "molly": 1119,
      "finished": 1120,
      "bot": 1121,
      "hot": 1122,
      "friendly": 1123,
      "contin": 1124,
      "dir": 1125,
      "continu": 1126,
      "spo": 1127,
      "tall": 1128,
      "agreed": 1129,
      "herself": 1130,
      "amy": 1131,
      "cess": 1132,
      "vis": 1133,
      "hill": 1134,
      "ather": 1135,
      "understand": 1136,
      "ards": 1137,
      "oken": 1138,
      "tr": 1139,
      "might": 1140,
      "hid": 1141,
      "everywhere": 1142,
      "arrived": 1143,
      "land": 1144,
      "ings": 1145,
      "wonderful": 1146,
      "else": 1147,
      "broken": 1148,
      "zo": 1149,
      "tight": 1150,
      "forgot": 1151,
      "ield": 1152,
      "pink": 1153,
      "most": 1154,
      "squir": 1155,
      "colors": 1156,
      "que": 1157,
      "jen": 1158,
      "ange": 1159,
      "build": 1160,
      "gone": 1161,
      "filled": 1162,
      "coun": 1163,
      "erous": 1164,
      "fur": 1165,
      "ike": 1166,
      "books": 1167,
      "song": 1168,
      "fight": 1169,
      "everything": 1170,
      "squirrel": 1171,
      "mother": 1172,
      "lion": 1173,
      "wi": 1174,
      "continued": 1175,
      "creat": 1176,
      "asure": 1177,
      "ches": 1178,
      "art": 1179,
      "wants": 1180,
      "leaves": 1181,
      "ced": 1182,
      "later": 1183,
      "getting": 1184,
      "enough": 1185,
      "fru": 1186,
      "morning": 1187,
      "mama": 1188,
      "moment": 1189,
      "fall": 1190,
      "oh": 1191,
      "cookies": 1192,
      "break": 1193,
      "stayed": 1194,
      "poin": 1195,
      "pen": 1196,
      "beach": 1197,
      "ze": 1198,
      "scary": 1199,
      "whis": 1200,
      "stu": 1201,
      "few": 1202,
      "dinner": 1203,
      "tain": 1204,
      "today": 1205,
      "spark": 1206,
      "fect": 1207,
      "hungry": 1208,
      "wet": 1209,
      "ence": 1210,
      "dr": 1211,
      "amazing": 1212,
      "trying": 1213,
      "perfect": 1214,
      "pack": 1215,
      "fas": 1216,
      "plain": 1217,
      "bee": 1218,
      "makes": 1219,
      "others": 1220,
      "asks": 1221,
      "climbed": 1222,
      "talk": 1223,
      "mus": 1224,
      "pictures": 1225,
      "cover": 1226,
      "tail": 1227,
      "spl": 1228,
      "kno": 1229,
      "icy": 1230,
      "white": 1231,
      "tw": 1232,
      "sis": 1233,
      "ton": 1234,
      "pes": 1235,
      "hi": 1236,
      "listened": 1237,
      "fox": 1238,
      "brown": 1239,
      "smiles": 1240,
      "ballo": 1241,
      "roll": 1242,
      "jill": 1243,
      "rew": 1244,
      "wall": 1245,
      "clothe": 1246,
      "alone": 1247,
      "puppy": 1248,
      "av": 1249,
      "clothes": 1250,
      "oup": 1251,
      "train": 1252,
      "ated": 1253,
      "ance": 1254,
      "dang": 1255,
      "brought": 1256,
      "strange": 1257,
      "sear": 1258,
      "met": 1259,
      "appear": 1260,
      "grow": 1261,
      "deep": 1262,
      "woods": 1263,
      "sail": 1264,
      "bike": 1265,
      "well": 1266,
      "pulled": 1267,
      "moral": 1268,
      "ling": 1269,
      "ride": 1270,
      "zz": 1271,
      "pping": 1272,
      "treat": 1273,
      "ffy": 1274,
      "flu": 1275,
      "drag": 1276,
      "gi": 1277,
      "hor": 1278,
      "wasn": 1279,
      "music": 1280,
      "lake": 1281,
      "waited": 1282,
      "nap": 1283,
      "amazed": 1284,
      "hide": 1285,
      "fluffy": 1286,
      "bath": 1287,
      "pur": 1288,
      "towards": 1289,
      "field": 1290,
      "je": 1291,
      "silly": 1292,
      "flying": 1293,
      "thy": 1294,
      "belie": 1295,
      "sc": 1296,
      "owner": 1297,
      "cloud": 1298,
      "shared": 1299,
      "runs": 1300,
      "slowly": 1301,
      "visit": 1302,
      "quie": 1303,
      "living": 1304,
      "job": 1305,
      "du": 1306,
      "ames": 1307,
      "promised": 1308,
      "dance": 1309,
      "pers": 1310,
      "ses": 1311,
      "thinks": 1312,
      "mary": 1313,
      "sister": 1314,
      "mind": 1315,
      "party": 1316,
      "must": 1317,
      "money": 1318,
      "quiet": 1319,
      "ises": 1320,
      "luck": 1321,
      "bran": 1322,
      "worried": 1323,
      "answ": 1324,
      "chair": 1325,
      "ased": 1326,
      "grate": 1327,
      "faster": 1328,
      "grateful": 1329,
      "cup": 1330,
      "pass": 1331,
      "umb": 1332,
      "colorful": 1333,
      "pieces": 1334,
      "ment": 1335,
      "mr": 1336,
      "explain": 1337,
      "ctor": 1338,
      "min": 1339,
      "igg": 1340,
      "join": 1341,
      "broke": 1342,
      "gif": 1343,
      "such": 1344,
      "bigger": 1345,
      "welcome": 1346,
      "cou": 1347,
      "gra": 1348,
      "candy": 1349,
      "shes": 1350,
      "ele": 1351,
      "snack": 1352,
      "monster": 1353,
      "reach": 1354,
      "board": 1355,
      "kis": 1356,
      "blan": 1357,
      "black": 1358,
      "dry": 1359,
      "farmer": 1360,
      "heav": 1361,
      "ually": 1362,
      "des": 1363,
      "monkey": 1364,
      "start": 1365,
      "twin": 1366,
      "words": 1367,
      "treasure": 1368,
      "scream": 1369,
      "magical": 1370,
      "dragon": 1371,
      "dangerous": 1372,
      "sign": 1373,
      "event": 1374,
      "helping": 1375,
      "across": 1376,
      "mil": 1377,
      "ming": 1378,
      "princess": 1379,
      "dri": 1380,
      "jimmy": 1381,
      "smart": 1382,
      "amp": 1383,
      "ja": 1384,
      "outh": 1385,
      "mouth": 1386,
      "smel": 1387,
      "ose": 1388,
      "rot": 1389,
      "ourse": 1390,
      "happen": 1391,
      "di": 1392,
      "believe": 1393,
      "plane": 1394,
      "shar": 1395,
      "dolls": 1396,
      "tower": 1397,
      "threw": 1398,
      "stepped": 1399,
      "heavy": 1400,
      "bite": 1401,
      "doctor": 1402,
      "bowl": 1403,
      "dirty": 1404,
      "twins": 1405,
      "same": 1406,
      "crying": 1407,
      "ves": 1408,
      "ident": 1409,
      "mummy": 1410,
      "wave": 1411,
      "heal": 1412,
      "hig": 1413,
      "appeared": 1414,
      "scho": 1415,
      "ap": 1416,
      "school": 1417,
      "closed": 1418,
      "wag": 1419,
      "stuck": 1420,
      "bas": 1421,
      "balloon": 1422,
      "press": 1423,
      "emma": 1424,
      "lun": 1425,
      "without": 1426,
      "mix": 1427,
      "eating": 1428,
      "hoped": 1429,
      "pow": 1430,
      "fairy": 1431,
      "paint": 1432,
      "pull": 1433,
      "town": 1434,
      "feels": 1435,
      "wr": 1436,
      "iting": 1437,
      "gs": 1438,
      "mit": 1439,
      "cray": 1440,
      "wouldn": 1441,
      "course": 1442,
      "val": 1443,
      "clapped": 1444,
      "stood": 1445,
      "free": 1446,
      "button": 1447,
      "gentle": 1448,
      "tent": 1449,
      "comfor": 1450,
      "child": 1451,
      "eventually": 1452,
      "takes": 1453,
      "basket": 1454,
      "youn": 1455,
      "pop": 1456,
      "along": 1457,
      "drove": 1458,
      "shine": 1459,
      "pushed": 1460,
      "round": 1461,
      "higher": 1462,
      "chee": 1463,
      "neigh": 1464,
      "phone": 1465,
      "teac": 1466,
      "acc": 1467,
      "teacher": 1468,
      "swings": 1469,
      "mine": 1470,
      "ary": 1471,
      "blanket": 1472,
      "stead": 1473,
      "str": 1474,
      "mark": 1475,
      "accident": 1476,
      "games": 1477,
      "wise": 1478,
      "cheered": 1479,
      "moved": 1480,
      "smo": 1481,
      "jour": 1482,
      "wings": 1483,
      "explained": 1484,
      "longer": 1485,
      "sna": 1486,
      "coin": 1487,
      "ible": 1488,
      "late": 1489,
      "bel": 1490,
      "ney": 1491,
      "wish": 1492,
      "throw": 1493,
      "tu": 1494,
      "ps": 1495,
      "noises": 1496,
      "sang": 1497,
      "stone": 1498,
      "though": 1499,
      "hugs": 1500,
      "turns": 1501,
      "apple": 1502,
      "stre": 1503,
      "stories": 1504,
      "singing": 1505,
      "tiny": 1506,
      "instead": 1507,
      "shoes": 1508,
      "lone": 1509,
      "eleph": 1510,
      "owl": 1511,
      "adventures": 1512,
      "del": 1513,
      "trou": 1514,
      "neck": 1515,
      "lunch": 1516,
      "jar": 1517,
      "sea": 1518,
      "fence": 1519,
      "upset": 1520,
      "lonely": 1521,
      "young": 1522,
      "stree": 1523,
      "dist": 1524,
      "secre": 1525,
      "belong": 1526,
      "heart": 1527,
      "ountain": 1528,
      "miss": 1529,
      "soup": 1530,
      "add": 1531,
      "exploring": 1532,
      "nearby": 1533,
      "nee": 1534,
      "shook": 1535,
      "nothing": 1536,
      "ours": 1537,
      "pocket": 1538,
      "sammy": 1539,
      "naught": 1540,
      "bring": 1541,
      "naughty": 1542,
      "stars": 1543,
      "taking": 1544,
      "hit": 1545,
      "fused": 1546,
      "ship": 1547,
      "forget": 1548,
      "sunny": 1549,
      "cal": 1550,
      "res": 1551,
      "caught": 1552,
      "cow": 1553,
      "drink": 1554,
      "purple": 1555,
      "woke": 1556,
      "backyard": 1557,
      "seemed": 1558,
      "rocks": 1559,
      "relie": 1560,
      "fit": 1561,
      "whenever": 1562,
      "body": 1563,
      "sli": 1564,
      "pan": 1565,
      "mail": 1566,
      "dropped": 1567,
      "daught": 1568,
      "ect": 1569,
      "daughter": 1570,
      "orange": 1571,
      "coat": 1572,
      "street": 1573,
      "swam": 1574,
      "mm": 1575,
      "sent": 1576,
      "shop": 1577,
      "days": 1578,
      "part": 1579,
      "mitten": 1580,
      "shapes": 1581,
      "ions": 1582,
      "rainbow": 1583,
      "driver": 1584,
      "pil": 1585,
      "sitting": 1586,
      "sounds": 1587,
      "bench": 1588,
      "pot": 1589,
      "fing": 1590,
      "comes": 1591,
      "boun": 1592,
      "busy": 1593,
      "wondered": 1594,
      "ier": 1595,
      "sco": 1596,
      "nest": 1597,
      "lucky": 1598,
      "nose": 1599,
      "hu": 1600,
      "juice": 1601,
      "erful": 1602,
      "pig": 1603,
      "ugg": 1604,
      "kite": 1605,
      "holding": 1606,
      "wee": 1607,
      "smell": 1608,
      "sug": 1609,
      "cer": 1610,
      "pra": 1611,
      "mach": 1612,
      "cing": 1613,
      "arms": 1614,
      "birth": 1615,
      "rown": 1616,
      "band": 1617,
      "cir": 1618,
      "bottle": 1619,
      "promise": 1620,
      "ull": 1621,
      "cute": 1622,
      "birthday": 1623,
      "loves": 1624,
      "secret": 1625,
      "branch": 1626,
      "quest": 1627,
      "relieved": 1628,
      "pper": 1629,
      "raid": 1630,
      "elephant": 1631,
      "afraid": 1632,
      "zoom": 1633,
      "uni": 1634,
      "idge": 1635,
      "forever": 1636,
      "tun": 1637,
      "gl": 1638,
      "peace": 1639,
      "carry": 1640,
      "sick": 1641,
      "gift": 1642,
      "jenny": 1643,
      "life": 1644,
      "push": 1645,
      "hope": 1646,
      "cheese": 1647,
      "spin": 1648,
      "huge": 1649,
      "touched": 1650,
      "bucket": 1651,
      "patient": 1652,
      "ars": 1653,
      "grab": 1654,
      "live": 1655,
      "covered": 1656,
      "orn": 1657,
      "honey": 1658,
      "letter": 1659,
      "inte": 1660,
      "interest": 1661,
      "wand": 1662,
      "exciting": 1663,
      "wra": 1664,
      "imag": 1665,
      "vel": 1666,
      "onto": 1667,
      "bush": 1668,
      "laughing": 1669,
      "hey": 1670,
      "gigg": 1671,
      "test": 1672,
      "journey": 1673,
      "gest": 1674,
      "creature": 1675,
      "bread": 1676,
      "kick": 1677,
      "bru": 1678,
      "ward": 1679,
      "shell": 1680,
      "act": 1681,
      "craw": 1682,
      "hop": 1683,
      "swimming": 1684,
      "sunshine": 1685,
      "suc": 1686,
      "cozy": 1687,
      "emily": 1688,
      "bubb": 1689,
      "ness": 1690,
      "eas": 1691,
      "milk": 1692,
      "gives": 1693,
      "cha": 1694,
      "watching": 1695,
      "net": 1696,
      "pudd": 1697,
      "roar": 1698,
      "accidentally": 1699,
      "cave": 1700,
      "shout": 1701,
      "sharp": 1702,
      "eg": 1703,
      "ian": 1704,
      "puts": 1705,
      "colle": 1706,
      "talked": 1707,
      "fan": 1708,
      "stor": 1709,
      "pointed": 1710,
      "gather": 1711,
      "mittens": 1712,
      "road": 1713,
      "smiling": 1714,
      "neighbor": 1715,
      "anyone": 1716,
      "snake": 1717,
      "bought": 1718,
      "searched": 1719,
      "ade": 1720,
      "apples": 1721,
      "sandwi": 1722,
      "nic": 1723,
      "shelf": 1724,
      "storm": 1725,
      "proble": 1726,
      "problem": 1727,
      "ia": 1728,
      "word": 1729,
      "splash": 1730,
      "ize": 1731,
      "wide": 1732,
      "these": 1733,
      "inv": 1734,
      "whi": 1735,
      "wom": 1736,
      "spid": 1737,
      "healthy": 1738,
      "interesting": 1739,
      "irt": 1740,
      "woman": 1741,
      "bur": 1742,
      "ducks": 1743,
      "circle": 1744,
      "spoon": 1745,
      "sie": 1746,
      "ens": 1747,
      "tasty": 1748,
      "lar": 1749,
      "pile": 1750,
      "eag": 1751,
      "vill": 1752,
      "trouble": 1753,
      "clever": 1754,
      "rope": 1755,
      "ones": 1756,
      "clouds": 1757,
      "crayons": 1758,
      "grandpa": 1759,
      "matter": 1760,
      "person": 1761,
      "feather": 1762,
      "log": 1763,
      "which": 1764,
      "rose": 1765,
      "path": 1766,
      "rat": 1767,
      "fron": 1768,
      "snowman": 1769,
      "prot": 1770,
      "ently": 1771,
      "front": 1772,
      "wash": 1773,
      "comfortable": 1774,
      "zoo": 1775,
      "shining": 1776,
      "isa": 1777,
      "smelled": 1778,
      "respec": 1779,
      "pract": 1780,
      "jake": 1781,
      "ching": 1782,
      "spotted": 1783,
      "valu": 1784,
      "minut": 1785,
      "screamed": 1786,
      "organ": 1787,
      "mud": 1788,
      "wheel": 1789,
      "lock": 1790,
      "dest": 1791,
      "danced": 1792,
      "ban": 1793,
      "seat": 1794,
      "bark": 1795,
      "puzz": 1796,
      "teach": 1797,
      "myster": 1798,
      "thin": 1799,
      "berries": 1800,
      "orm": 1801,
      "gy": 1802,
      "horse": 1803,
      "fli": 1804,
      "gently": 1805,
      "tries": 1806,
      "lovely": 1807,
      "answer": 1808,
      "asleep": 1809,
      "mir": 1810,
      "rolled": 1811,
      "epend": 1812,
      "wearing": 1813,
      "ob": 1814,
      "wild": 1815,
      "places": 1816,
      "mel": 1817,
      "goes": 1818,
      "present": 1819,
      "whole": 1820,
      "giant": 1821,
      "lisa": 1822,
      "pill": 1823,
      "string": 1824,
      "confused": 1825,
      "fruit": 1826,
      "worm": 1827,
      "step": 1828,
      "impress": 1829,
      "corner": 1830,
      "sharing": 1831,
      "dirt": 1832,
      "ular": 1833,
      "respect": 1834,
      "chick": 1835,
      "card": 1836,
      "calm": 1837,
      "corn": 1838,
      "rich": 1839,
      "vie": 1840,
      "slid": 1841,
      "rubb": 1842,
      "tasted": 1843,
      "forgive": 1844,
      "cean": 1845,
      "ocean": 1846,
      "rude": 1847,
      "picnic": 1848,
      "tee": 1849,
      "machine": 1850,
      "tool": 1851,
      "drive": 1852,
      "true": 1853,
      "spent": 1854,
      "teeth": 1855,
      "inc": 1856,
      "spider": 1857,
      "furry": 1858,
      "char": 1859,
      "cookie": 1860,
      "lay": 1861,
      "pour": 1862,
      "oven": 1863,
      "kitty": 1864,
      "pretended": 1865,
      "past": 1866,
      "fighting": 1867,
      "last": 1868,
      "feet": 1869,
      "shr": 1870,
      "nut": 1871,
      "tomor": 1872,
      "fold": 1873,
      "faces": 1874,
      "peter": 1875,
      "tomorrow": 1876,
      "shy": 1877,
      "tea": 1878,
      "ti": 1879,
      "erly": 1880,
      "helpful": 1881,
      "umber": 1882,
      "spe": 1883,
      "finish": 1884,
      "hang": 1885,
      "ashed": 1886,
      "ann": 1887,
      "chocol": 1888,
      "grace": 1889,
      "mountain": 1890,
      "ity": 1891,
      "lace": 1892,
      "peaceful": 1893,
      "talking": 1894,
      "stret": 1895,
      "sque": 1896,
      "oth": 1897,
      "stair": 1898,
      "tid": 1899,
      "spread": 1900,
      "ladder": 1901,
      "bell": 1902,
      "joke": 1903,
      "foot": 1904,
      "bugs": 1905,
      "cele": 1906,
      "village": 1907,
      "remind": 1908,
      "write": 1909,
      "sol": 1910,
      "ator": 1911,
      "building": 1912,
      "seek": 1913,
      "couch": 1914,
      "den": 1915,
      "spit": 1916,
      "crab": 1917,
      "wore": 1918,
      "smooth": 1919,
      "chased": 1920,
      "fred": 1921,
      "treats": 1922,
      "plant": 1923,
      "ighed": 1924,
      "trip": 1925,
      "blew": 1926,
      "cage": 1927,
      "embar": 1928,
      "paw": 1929,
      "poli": 1930,
      "embarr": 1931,
      "waiting": 1932,
      "stir": 1933,
      "pool": 1934,
      "hiding": 1935,
      "kets": 1936,
      "shake": 1937,
      "knee": 1938,
      "puddle": 1939,
      "prince": 1940,
      "necklace": 1941,
      "chocolate": 1942,
      "songs": 1943,
      "embarrass": 1944,
      "selfish": 1945,
      "cur": 1946,
      "cross": 1947,
      "hum": 1948,
      "cannot": 1949,
      "banan": 1950,
      "trust": 1951,
      "cloth": 1952,
      "taste": 1953,
      "sack": 1954,
      "ult": 1955,
      "leaf": 1956,
      "lves": 1957,
      "spray": 1958,
      "ye": 1959,
      "rag": 1960,
      "bus": 1961,
      "large": 1962,
      "kin": 1963,
      "stra": 1964,
      "tidy": 1965,
      "fixed": 1966,
      "barked": 1967,
      "celebr": 1968,
      "colour": 1969,
      "carrot": 1970,
      "line": 1971,
      "cord": 1972,
      "count": 1973,
      "pee": 1974,
      "hone": 1975,
      "asha": 1976,
      "ipped": 1977,
      "umpy": 1978,
      "moon": 1979,
      "robot": 1980,
      "oin": 1981,
      "mmer": 1982,
      "œi": 1983,
      "jung": 1984,
      "deter": 1985,
      "whistle": 1986,
      "tie": 1987,
      "jungle": 1988,
      "johnny": 1989,
      "za": 1990,
      "honest": 1991,
      "rots": 1992,
      "missed": 1993,
      "shirt": 1994,
      "alice": 1995,
      "sup": 1996,
      "cape": 1997,
      "jumping": 1998,
      "gray": 1999,
      "kiss": 2000,
      "embarrassed": 2001,
      "forward": 2002,
      "landed": 2003,
      "meet": 2004,
      "appoin": 2005,
      "decor": 2006,
      "kitten": 2007,
      "sticks": 2008,
      "rex": 2009,
      "tv": 2010,
      "protect": 2011,
      "polit": 2012,
      "jog": 2013,
      "disappoin": 2014,
      "hears": 2015,
      "hero": 2016,
      "success": 2017,
      "carrots": 2018,
      "clear": 2019,
      "creative": 2020,
      "polite": 2021,
      "cop": 2022,
      "mead": 2023,
      "knocked": 2024,
      "meadow": 2025,
      "sour": 2026,
      "almost": 2027,
      "breath": 2028,
      "vege": 2029,
      "vegetable": 2030,
      "glow": 2031,
      "brush": 2032,
      "gas": 2033,
      "mic": 2034,
      "ending": 2035,
      "legs": 2036,
      "scre": 2037,
      "emp": 2038,
      "plate": 2039,
      "tightly": 2040,
      "pin": 2041,
      "ashamed": 2042,
      "elly": 2043,
      "lemon": 2044,
      "pillow": 2045,
      "meant": 2046,
      "empty": 2047,
      "grew": 2048,
      "sau": 2049,
      "tells": 2050,
      "gold": 2051,
      "sheep": 2052,
      "stairs": 2053,
      "understood": 2054,
      "coura": 2055,
      "ank": 2056,
      "carried": 2057,
      "hours": 2058,
      "pay": 2059,
      "jam": 2060,
      "witch": 2061,
      "yelled": 2062,
      "disappointed": 2063,
      "save": 2064,
      "police": 2065,
      "warn": 2066,
      "nods": 2067,
      "snacks": 2068,
      "vous": 2069,
      "thankful": 2070,
      "frustr": 2071,
      "leo": 2072,
      "block": 2073,
      "chew": 2074,
      "rad": 2075,
      "jewel": 2076,
      "sparkly": 2077,
      "hospit": 2078,
      "hospital": 2079,
      "bat": 2080,
      "piz": 2081,
      "poor": 2082,
      "gets": 2083,
      "standing": 2084,
      "van": 2085,
      "ken": 2086,
      "leta": 2087,
      "usu": 2088,
      "wolf": 2089,
      "knowing": 2090,
      "tic": 2091,
      "flies": 2092,
      "easy": 2093,
      "bored": 2094,
      "seed": 2095,
      "hidden": 2096,
      "generous": 2097,
      "pri": 2098,
      "taught": 2099,
      "dino": 2100,
      "blow": 2101,
      "jelly": 2102,
      "scarf": 2103,
      "plants": 2104,
      "group": 2105,
      "minutes": 2106,
      "gun": 2107,
      "returned": 2108,
      "ni": 2109,
      "mysterious": 2110,
      "waves": 2111,
      "bedroom": 2112,
      "pizza": 2113,
      "sage": 2114,
      "pir": 2115,
      "sighed": 2116,
      "spicy": 2117,
      "frustrated": 2118,
      "fear": 2119,
      "finger": 2120,
      "fla": 2121,
      "mined": 2122,
      "determined": 2123,
      "susie": 2124,
      "powerful": 2125,
      "puzzle": 2126,
      "tro": 2127,
      "sleepy": 2128,
      "fig": 2129,
      "balls": 2130,
      "dle": 2131,
      "mid": 2132,
      "drew": 2133,
      "sandwich": 2134,
      "form": 2135,
      "note": 2136,
      "shore": 2137,
      "passed": 2138,
      "grumpy": 2139,
      "spoil": 2140,
      "packed": 2141,
      "fancy": 2142,
      "keeper": 2143,
      "bridge": 2144,
      "nervous": 2145,
      "ita": 2146,
      "messy": 2147,
      "feed": 2148,
      "tears": 2149,
      "twe": 2150,
      "saur": 2151,
      "cr": 2152,
      "gate": 2153,
      "cater": 2154,
      "caterpill": 2155,
      "tweet": 2156,
      "sold": 2157,
      "kissed": 2158,
      "closet": 2159,
      "working": 2160,
      "liz": 2161,
      "berry": 2162,
      "excite": 2163,
      "dinosaur": 2164,
      "bul": 2165,
      "gathered": 2166,
      "flag": 2167,
      "bubbles": 2168,
      "case": 2169,
      "scis": 2170,
      "scissor": 2171,
      "whisper": 2172,
      "pas": 2173,
      "yourself": 2174,
      "scissors": 2175,
      "chest": 2176,
      "week": 2177,
      "answered": 2178,
      "tig": 2179,
      "often": 2180,
      "cries": 2181,
      "ugly": 2182,
      "fre": 2183,
      "hopping": 2184,
      "twirl": 2185,
      "deer": 2186,
      "lif": 2187,
      "towel": 2188,
      "cand": 2189,
      "collect": 2190,
      "son": 2191,
      "fil": 2192,
      "caterpillar": 2193,
      "ensive": 2194,
      "expensive": 2195,
      "excitement": 2196,
      "ella": 2197,
      "space": 2198,
      "wake": 2199,
      "taken": 2200,
      "middle": 2201,
      "fu": 2202,
      "saved": 2203,
      "leg": 2204,
      "era": 2205,
      "ignor": 2206,
      "bill": 2207,
      "father": 2208,
      "class": 2209,
      "wagged": 2210,
      "crown": 2211,
      "pleased": 2212,
      "known": 2213,
      "boss": 2214,
      "pec": 2215,
      "picks": 2216,
      "boring": 2217,
      "pete": 2218,
      "fine": 2219,
      "bobby": 2220,
      "pair": 2221,
      "asking": 2222,
      "astic": 2223,
      "vase": 2224,
      "sugar": 2225,
      "ror": 2226,
      "queen": 2227,
      "ially": 2228,
      "licked": 2229,
      "dancing": 2230,
      "vegetables": 2231,
      "glass": 2232,
      "number": 2233,
      "eld": 2234,
      "change": 2235,
      "rank": 2236,
      "giggled": 2237,
      "allow": 2238,
      "rocket": 2239,
      "espec": 2240,
      "especially": 2241,
      "clown": 2242,
      "mistake": 2243,
      "ned": 2244,
      "flut": 2245,
      "nel": 2246,
      "lying": 2247,
      "illed": 2248,
      "stuff": 2249,
      "yo": 2250,
      "usual": 2251,
      "exam": 2252,
      "medic": 2253,
      "knight": 2254,
      "sweetie": 2255,
      "moving": 2256,
      "sight": 2257,
      "fake": 2258,
      "ates": 2259,
      "soar": 2260,
      "fruits": 2261,
      "wip": 2262,
      "cri": 2263,
      "drum": 2264,
      "ird": 2265,
      "mandy": 2266,
      "boys": 2267,
      "eggs": 2268,
      "glue": 2269,
      "boo": 2270,
      "medicine": 2271,
      "locked": 2272,
      "walks": 2273,
      "distance": 2274,
      "pray": 2275,
      "drawing": 2276,
      "bone": 2277,
      "bake": 2278,
      "iness": 2279,
      "dogs": 2280,
      "painting": 2281,
      "splashed": 2282,
      "yog": 2283,
      "lead": 2284,
      "rid": 2285,
      "smelly": 2286,
      "yal": 2287,
      "disappeared": 2288,
      "chir": 2289,
      "feathers": 2290,
      "match": 2291,
      "become": 2292,
      "cap": 2293,
      "moms": 2294,
      "order": 2295,
      "aunt": 2296,
      "sting": 2297,
      "lazy": 2298,
      "elderly": 2299,
      "lose": 2300,
      "thanks": 2301,
      "calling": 2302,
      "penny": 2303,
      "aged": 2304,
      "playground": 2305,
      "bathroom": 2306,
      "toes": 2307,
      "incred": 2308,
      "tory": 2309,
      "mirror": 2310,
      "weak": 2311,
      "?\".": 2312,
      "dol": 2313,
      "horn": 2314,
      "yours": 2315,
      "questions": 2316,
      "wro": 2317,
      "wrote": 2318,
      "loyal": 2319,
      "noisy": 2320,
      "nod": 2321,
      "ellie": 2322,
      "suggest": 2323,
      "dolph": 2324,
      "tiger": 2325,
      "check": 2326,
      "eager": 2327,
      "skipped": 2328,
      "lea": 2329,
      "dish": 2330,
      "lamp": 2331,
      "sell": 2332,
      "giving": 2333,
      "famous": 2334,
      "tape": 2335,
      "rela": 2336,
      "zed": 2337,
      "bella": 2338,
      "rare": 2339,
      "stones": 2340,
      "dig": 2341,
      "relax": 2342,
      "soap": 2343,
      "ruined": 2344,
      "incredible": 2345,
      "figure": 2346,
      "swan": 2347,
      "drank": 2348,
      "tub": 2349,
      "illi": 2350,
      "shows": 2351,
      "juicy": 2352,
      "izzy": 2353,
      "measure": 2354,
      "chang": 2355,
      "team": 2356,
      "itch": 2357,
      "cher": 2358,
      "those": 2359,
      "sailed": 2360,
      "comp": 2361,
      "shoot": 2362,
      "straw": 2363,
      "motor": 2364,
      "decide": 2365,
      "ppo": 2366,
      "realised": 2367,
      "umbled": 2368,
      "discovered": 2369,
      "turtle": 2370,
      "ging": 2371,
      "borrow": 2372,
      "coins": 2373,
      "tag": 2374,
      "needs": 2375,
      "micro": 2376,
      "wha": 2377,
      "adventur": 2378,
      "chicken": 2379,
      "aser": 2380,
      "fic": 2381,
      "au": 2382,
      "balance": 2383,
      "extra": 2384,
      "cleaned": 2385,
      "branches": 2386,
      "runk": 2387,
      "using": 2388,
      "asing": 2389,
      "ately": 2390,
      "mighty": 2391,
      "eye": 2392,
      "barn": 2393,
      "content": 2394,
      "adventurous": 2395,
      "lid": 2396,
      "diffic": 2397,
      "ating": 2398,
      "sadly": 2399,
      "offered": 2400,
      "cro": 2401,
      "dolphin": 2402,
      "colourful": 2403,
      "lifted": 2404,
      "organized": 2405,
      "snugg": 2406,
      "map": 2407,
      "frown": 2408,
      "vide": 2409,
      "flash": 2410,
      "toug": 2411,
      "sil": 2412,
      "bobo": 2413,
      "chase": 2414,
      "difficult": 2415,
      "eng": 2416,
      "unique": 2417,
      "cheerful": 2418,
      "zip": 2419,
      "bottom": 2420,
      "selves": 2421,
      "thick": 2422,
      "gue": 2423,
      "jeal": 2424,
      "jealous": 2425,
      "island": 2426,
      "fright": 2427,
      "happening": 2428,
      "kni": 2429,
      "knife": 2430,
      "learning": 2431,
      "hose": 2432,
      "cil": 2433,
      "smoke": 2434,
      "wrapped": 2435,
      "mrs": 2436,
      "kindness": 2437,
      "weird": 2438,
      "four": 2439,
      "ero": 2440,
      "ants": 2441,
      "gara": 2442,
      "garage": 2443,
      "twee": 2444,
      "managed": 2445,
      "vi": 2446,
      "ado": 2447,
      "pencil": 2448,
      "hurts": 2449,
      "imed": 2450,
      "squee": 2451,
      "dave": 2452,
      "ears": 2453,
      "uncle": 2454,
      "bald": 2455,
      "search": 2456,
      "crawled": 2457,
      "saying": 2458,
      "balloons": 2459,
      "coco": 2460,
      "tough": 2461,
      "meal": 2462,
      "men": 2463,
      "dizzy": 2464,
      "stri": 2465,
      "vest": 2466,
      "guess": 2467,
      "pointing": 2468,
      "apo": 2469,
      "market": 2470,
      "pal": 2471,
      "favour": 2472,
      "added": 2473,
      "batter": 2474,
      "swee": 2475,
      "whale": 2476,
      "louder": 2477,
      "tweety": 2478,
      "apolog": 2479,
      "pump": 2480,
      "successful": 2481,
      "guit": 2482,
      "norm": 2483,
      "edge": 2484,
      "harder": 2485,
      "spun": 2486,
      "already": 2487,
      "birdie": 2488,
      "lift": 2489,
      "libr": 2490,
      "unusual": 2491,
      "buzz": 2492,
      "agree": 2493,
      "favourite": 2494,
      "enjoying": 2495,
      "hats": 2496,
      "record": 2497,
      "courage": 2498,
      "terri": 2499,
      "trucks": 2500,
      "belonged": 2501,
      "boxes": 2502,
      "impressed": 2503,
      "city": 2504,
      "grown": 2505,
      "yell": 2506,
      "excitedly": 2507,
      "trunk": 2508,
      "banana": 2509,
      "ddy": 2510,
      "ail": 2511,
      "sword": 2512,
      "normal": 2513,
      "shadow": 2514,
      "choose": 2515,
      "soph": 2516,
      "laughs": 2517,
      "brilli": 2518,
      "bossy": 2519,
      "bby": 2520,
      "guitar": 2521,
      "bounce": 2522,
      "loudly": 2523,
      "ert": 2524,
      "scare": 2525,
      "brilliant": 2526,
      "goat": 2527,
      "proudly": 2528,
      "suit": 2529,
      "cab": 2530,
      "dreamed": 2531,
      "stubb": 2532,
      "buttons": 2533,
      "circles": 2534,
      "skin": 2535,
      "escape": 2536,
      "anc": 2537,
      "ilt": 2538,
      "brothers": 2539,
      "ature": 2540,
      "fool": 2541,
      "frightened": 2542,
      "against": 2543,
      "invited": 2544,
      "stream": 2545,
      "obed": 2546,
      "toma": 2547,
      "helps": 2548,
      "acce": 2549,
      "cudd": 2550,
      "happiness": 2551,
      "port": 2552,
      "fier": 2553,
      "study": 2554,
      "ancient": 2555,
      "depend": 2556,
      "means": 2557,
      "safely": 2558,
      "lola": 2559,
      "snee": 2560,
      "clay": 2561,
      "valuable": 2562,
      "stubborn": 2563,
      "slipped": 2564,
      "stru": 2565,
      "rh": 2566,
      "shark": 2567,
      "bloom": 2568,
      "crayon": 2569,
      "breakfast": 2570,
      "dreams": 2571,
      "walls": 2572,
      "pumpkin": 2573,
      "graceful": 2574,
      "lights": 2575,
      "clap": 2576,
      "obedient": 2577,
      "lean": 2578,
      "foolish": 2579,
      "sca": 2580,
      "ination": 2581,
      "falls": 2582,
      "orge": 2583,
      "knows": 2584,
      "notice": 2585,
      "fierce": 2586,
      "aced": 2587,
      "fridge": 2588,
      "nemo": 2589,
      "shape": 2590,
      "cabin": 2591,
      "fat": 2592,
      "nicely": 2593,
      "houses": 2594,
      "jac": 2595,
      "angel": 2596,
      "harm": 2597,
      "nosy": 2598,
      "dead": 2599,
      "movie": 2600,
      "office": 2601,
      "delicate": 2602,
      "design": 2603,
      "compet": 2604,
      "sty": 2605,
      "excla": 2606,
      "suggested": 2607,
      "wagon": 2608,
      "shells": 2609,
      "rubbed": 2610,
      "exclaimed": 2611,
      "competit": 2612,
      "frag": 2613,
      "crack": 2614,
      "kinds": 2615,
      "mixed": 2616,
      "useful": 2617,
      "wiped": 2618,
      "egg": 2619,
      "cart": 2620,
      "poured": 2621,
      "thoughtful": 2622,
      "tools": 2623,
      "patch": 2624,
      "clock": 2625,
      "stove": 2626,
      "sounded": 2627,
      "explored": 2628,
      "playful": 2629,
      "pi": 2630,
      "hun": 2631,
      "ducky": 2632,
      "dough": 2633,
      "sal": 2634,
      "george": 2635,
      "print": 2636,
      "!\".": 2637,
      "radi": 2638,
      "weal": 2639,
      "bags": 2640,
      "fresh": 2641,
      "abo": 2642,
      "vice": 2643,
      "above": 2644,
      "fountain": 2645,
      "guard": 2646,
      "spoiled": 2647,
      "dom": 2648,
      "lee": 2649,
      "mes": 2650,
      "fragile": 2651,
      "showing": 2652,
      "themselves": 2653,
      "changed": 2654,
      "stumbled": 2655,
      "cam": 2656,
      "bushes": 2657,
      "rescu": 2658,
      "law": 2659,
      "bees": 2660,
      "independ": 2661,
      "robe": 2662,
      "rub": 2663,
      "fingers": 2664,
      "spinning": 2665,
      "dependable": 2666,
      "scrat": 2667,
      "smaller": 2668,
      "ighted": 2669,
      "arrow": 2670,
      "dge": 2671,
      "bled": 2672,
      "orig": 2673,
      "wing": 2674,
      "roof": 2675,
      "jolly": 2676,
      "steal": 2677,
      "practice": 2678,
      "raced": 2679,
      "oc": 2680,
      "delighted": 2681,
      "tele": 2682,
      "built": 2683,
      "seem": 2684,
      "earth": 2685,
      "rode": 2686,
      "brightly": 2687,
      "gem": 2688,
      "handed": 2689,
      "ormous": 2690,
      "enormous": 2691,
      "origin": 2692,
      "acorn": 2693,
      "adm": 2694,
      "cleaning": 2695,
      "cube": 2696,
      "beep": 2697,
      "admired": 2698,
      "nur": 2699,
      "twig": 2700,
      "counted": 2701,
      "kicked": 2702,
      "toby": 2703,
      "mike": 2704,
      "sauce": 2705,
      "reg": 2706,
      "bean": 2707,
      "bitter": 2708,
      "snif": 2709,
      "original": 2710,
      "tered": 2711,
      "lli": 2712,
      "ured": 2713,
      "shone": 2714,
      "popcorn": 2715,
      "memor": 2716,
      "reminded": 2717,
      "hammer": 2718,
      "dona": 2719,
      "solve": 2720,
      "delight": 2721,
      "beak": 2722,
      "hoop": 2723,
      "lolli": 2724,
      "gum": 2725,
      "wrap": 2726,
      "dove": 2727,
      "parrot": 2728,
      "independent": 2729,
      "whispered": 2730,
      "wards": 2731,
      "yet": 2732,
      "yuck": 2733,
      "cone": 2734,
      "serious": 2735,
      "chose": 2736,
      "anut": 2737,
      "peanut": 2738,
      "post": 2739,
      "tunnel": 2740,
      "allowed": 2741,
      "hairy": 2742,
      "spring": 2743,
      "boats": 2744,
      "stronger": 2745,
      "half": 2746,
      "pota": 2747,
      "tummy": 2748,
      "spend": 2749,
      "reli": 2750,
      "cheer": 2751,
      "lollipop": 2752,
      "moder": 2753,
      "terrible": 2754,
      "œyes": 2755,
      "unknown": 2756,
      "salad": 2757,
      "painted": 2758,
      "rushed": 2759,
      "joey": 2760,
      "stal": 2761,
      "power": 2762,
      "reliable": 2763,
      "finding": 2764,
      "picking": 2765,
      "leaving": 2766,
      "tem": 2767,
      "joined": 2768,
      "tti": 2769,
      "clum": 2770,
      "gasped": 2771,
      "load": 2772,
      "strugg": 2773,
      "ended": 2774,
      "metal": 2775,
      "thinking": 2776,
      "bump": 2777,
      "tank": 2778,
      "hay": 2779,
      "os": 2780,
      "vet": 2781,
      "pon": 2782,
      "stup": 2783,
      "thunder": 2784,
      "sink": 2785,
      "view": 2786,
      "glo": 2787,
      "stupid": 2788,
      "barber": 2789,
      "goose": 2790,
      "diam": 2791,
      "kim": 2792,
      "iver": 2793,
      "diamond": 2794,
      "stat": 2795,
      "ya": 2796,
      "kay": 2797,
      "tern": 2798,
      "pirate": 2799,
      "modern": 2800,
      "fort": 2801,
      "forth": 2802,
      "ale": 2803,
      "hetti": 2804,
      "spag": 2805,
      "spaghetti": 2806,
      "advice": 2807,
      "flex": 2808,
      "regular": 2809,
      "fed": 2810,
      "wealthy": 2811,
      "erry": 2812,
      "sleeping": 2813,
      "clu": 2814,
      "toast": 2815,
      "holds": 2816,
      "marble": 2817,
      "clumsy": 2818,
      "friendship": 2819,
      "hen": 2820,
      "create": 2821,
      "paul": 2822,
      "œwhat": 2823,
      "mas": 2824,
      "polly": 2825,
      "nature": 2826,
      "yarn": 2827,
      "ery": 2828,
      "ugged": 2829,
      "telling": 2830,
      "searching": 2831,
      "ingred": 2832,
      "ingredient": 2833,
      "nobody": 2834,
      "roy": 2835,
      "ines": 2836,
      "compass": 2837,
      "march": 2838,
      "guil": 2839,
      "ley": 2840,
      "guilty": 2841,
      "ject": 2842,
      "noon": 2843,
      "crazy": 2844,
      "square": 2845,
      "sophie": 2846,
      "wed": 2847,
      "statu": 2848,
      "collec": 2849,
      "chirp": 2850,
      "cane": 2851,
      "ges": 2852,
      "engine": 2853,
      "opens": 2854,
      "stage": 2855,
      "cco": 2856,
      "beetle": 2857,
      "verse": 2858,
      "uring": 2859,
      "super": 2860,
      "flexible": 2861,
      "ribb": 2862,
      "rella": 2863,
      "driving": 2864,
      "ience": 2865,
      "croco": 2866,
      "meow": 2867,
      "shiver": 2868,
      "speed": 2869,
      "alex": 2870,
      "reading": 2871,
      "lope": 2872,
      "camera": 2873,
      "umbrella": 2874,
      "pebb": 2875,
      "dreaming": 2876,
      "popular": 2877,
      "truth": 2878,
      "rec": 2879,
      "carrying": 2880,
      "washed": 2881,
      "crocod": 2882,
      "dull": 2883,
      "rise": 2884,
      "thirst": 2885,
      "doesn": 2886,
      "lish": 2887,
      "lives": 2888,
      "missing": 2889,
      "umbers": 2890,
      "illa": 2891,
      "sne": 2892,
      "sparkled": 2893,
      "impressive": 2894,
      "brace": 2895,
      "seeds": 2896,
      "deliver": 2897,
      "careless": 2898,
      "destroy": 2899,
      "library": 2900,
      "wander": 2901,
      "tied": 2902,
      "hurry": 2903,
      "pige": 2904,
      "imagined": 2905,
      "jacket": 2906,
      "reward": 2907,
      "complet": 2908,
      "handle": 2909,
      "prize": 2910,
      "crystal": 2911,
      "goal": 2912,
      "wheels": 2913,
      "compassion": 2914,
      "pepper": 2915,
      "shocked": 2916,
      "butterflies": 2917,
      "ingredients": 2918,
      "ations": 2919,
      "ordin": 2920,
      "atta": 2921,
      "hunter": 2922,
      "ordinary": 2923,
      "fork": 2924,
      "enth": 2925,
      "œleta": 2926,
      "yay": 2927,
      "pattern": 2928,
      "poppy": 2929,
      "pup": 2930,
      "early": 2931,
      "stranger": 2932,
      "enve": 2933,
      "cran": 2934,
      "thirsty": 2935,
      "persist": 2936,
      "usi": 2937,
      "serve": 2938,
      "doors": 2939,
      "desk": 2940,
      "enthusi": 2941,
      "host": 2942,
      "numbers": 2943,
      "rece": 2944,
      "seal": 2945,
      "stack": 2946,
      "nurse": 2947,
      "discover": 2948,
      "pengu": 2949,
      "penguin": 2950,
      "pear": 2951,
      "ither": 2952,
      "peeked": 2953,
      "ahead": 2954,
      "ages": 2955,
      "screen": 2956,
      "torn": 2957,
      "stamp": 2958,
      "mole": 2959,
      "rug": 2960,
      "spilled": 2961,
      "bracelet": 2962,
      "ief": 2963,
      "cheap": 2964,
      "humble": 2965,
      "comput": 2966,
      "polish": 2967,
      "avo": 2968,
      "comb": 2969,
      "stops": 2970,
      "env": 2971,
      "given": 2972,
      "towers": 2973,
      "raven": 2974,
      "sunflower": 2975,
      "sorts": 2976,
      "aid": 2977,
      "anx": 2978,
      "intell": 2979,
      "intellig": 2980,
      "ina": 2981,
      "spoke": 2982,
      "mailbox": 2983,
      "counting": 2984,
      "cooking": 2985,
      "flashlight": 2986,
      "steps": 2987,
      "bent": 2988,
      "inde": 2989,
      "warned": 2990,
      "placed": 2991,
      "windows": 2992,
      "pale": 2993,
      "uncomfortable": 2994,
      "value": 2995,
      "travel": 2996,
      "shut": 2997,
      "rema": 2998,
      "scale": 2999,
      "statue": 3000,
      "badly": 3001,
      "older": 3002,
      "bull": 3003,
      "anxious": 3004,
      "deaf": 3005,
      "slides": 3006,
      "sses": 3007,
      "drop": 3008,
      "growing": 3009,
      "biggest": 3010,
      "flute": 3011,
      "couldna": 3012,
      "complete": 3013,
      "celebrate": 3014,
      "nail": 3015,
      "scat": 3016,
      "crocodile": 3017,
      "shad": 3018,
      "ghost": 3019,
      "beg": 3020,
      "cupboard": 3021,
      "bri": 3022,
      "crane": 3023,
      "harmless": 3024,
      "scoo": 3025,
      "beauty": 3026,
      "sofa": 3027,
      "anda": 3028,
      "supp": 3029,
      "gloom": 3030,
      "sity": 3031,
      "tled": 3032,
      "quack": 3033,
      "si": 3034,
      "oo": 3035,
      "cereal": 3036,
      "bin": 3037,
      "cakes": 3038,
      "gifted": 3039,
      "trick": 3040,
      "charming": 3041,
      "yawn": 3042,
      "persistent": 3043,
      "track": 3044,
      "pony": 3045,
      "jumps": 3046,
      "skip": 3047,
      "pretending": 3048,
      "refused": 3049,
      "flour": 3050,
      "names": 3051,
      "pho": 3052,
      "base": 3053,
      "triang": 3054,
      "reci": 3055,
      "neat": 3056,
      "octop": 3057,
      "sandwiches": 3058,
      "suppl": 3059,
      "sandy": 3060,
      "coll": 3061,
      "oked": 3062,
      "snuggled": 3063,
      "curtain": 3064,
      "five": 3065,
      "chasing": 3066,
      "question": 3067,
      "neighb": 3068,
      "pian": 3069,
      "mush": 3070,
      "crawl": 3071,
      "envelope": 3072,
      "drawer": 3073,
      "attra": 3074,
      "computer": 3075,
      "rules": 3076,
      "lively": 3077,
      "mushroom": 3078,
      "ffin": 3079,
      "gie": 3080,
      "turkey": 3081,
      "web": 3082,
      "carto": 3083,
      "cture": 3084,
      "repe": 3085,
      "scooter": 3086,
      "gloomy": 3087,
      "camp": 3088,
      "muffin": 3089,
      "ince": 3090,
      "intelligent": 3091,
      "piano": 3092,
      "lizard": 3093,
      "octopus": 3094,
      "shaking": 3095,
      "cli": 3096,
      "needle": 3097,
      "package": 3098,
      "zebra": 3099,
      "vroom": 3100,
      "annie": 3101,
      "œthat": 3102,
      "helmet": 3103,
      "return": 3104,
      "collar": 3105,
      "parade": 3106,
      "disgu": 3107,
      "alert": 3108,
      "creatures": 3109,
      "fireman": 3110,
      "sailor": 3111,
      "photo": 3112,
      "miser": 3113,
      "twirled": 3114,
      "thief": 3115,
      "henry": 3116,
      "station": 3117,
      "soldier": 3118,
      "miserable": 3119,
      "ignorant": 3120,
      "chance": 3121,
      "buddy": 3122,
      "attract": 3123,
      "tion": 3124,
      "icycle": 3125,
      "spr": 3126,
      "separ": 3127,
      "cycle": 3128,
      "zi": 3129,
      "brownie": 3130,
      "anywhere": 3131,
      "ener": 3132,
      "ceed": 3133,
      "asses": 3134,
      "bicycle": 3135,
      "trap": 3136,
      "dug": 3137,
      "gir": 3138,
      "jet": 3139,
      "stretched": 3140,
      "club": 3141,
      "por": 3142,
      "charlie": 3143,
      "chu": 3144,
      "wishes": 3145,
      "hood": 3146,
      "ckets": 3147,
      "pasta": 3148,
      "gor": 3149,
      "secon": 3150,
      "knot": 3151,
      "spir": 3152,
      "radio": 3153,
      "everyday": 3154,
      "stickers": 3155,
      "bandage": 3156,
      "cob": 3157,
      "cocoa": 3158,
      "listening": 3159,
      "helpless": 3160,
      "papa": 3161,
      "trash": 3162,
      "belt": 3163,
      "jeep": 3164,
      "pigeon": 3165,
      "bounced": 3166,
      "giraf": 3167,
      "chubby": 3168,
      "ador": 3169,
      "tooth": 3170,
      "leash": 3171,
      "otter": 3172,
      "perform": 3173,
      "practiced": 3174,
      "stretch": 3175,
      "letters": 3176,
      "ith": 3177,
      "pun": 3178,
      "attractive": 3179,
      "respectful": 3180,
      "compassionate": 3181,
      "waf": 3182,
      "impat": 3183,
      "lim": 3184,
      "stirred": 3185,
      "jerry": 3186,
      "quar": 3187,
      "thread": 3188,
      "trum": 3189,
      "somewhere": 3190,
      "summer": 3191,
      "spike": 3192,
      "further": 3193,
      "distur": 3194,
      "tweetie": 3195,
      "brocco": 3196,
      "decorate": 3197,
      "broccoli": 3198,
      "jug": 3199,
      "competitive": 3200,
      "rac": 3201,
      "scoop": 3202,
      "waffle": 3203,
      "brighter": 3204,
      "nuts": 3205,
      "impatient": 3206,
      "succeed": 3207,
      "sweethe": 3208,
      "arian": 3209,
      "knock": 3210,
      "melon": 3211,
      "pressed": 3212,
      "leop": 3213,
      "lilly": 3214,
      "hippo": 3215,
      "troubled": 3216,
      "candle": 3217,
      "mug": 3218,
      "loop": 3219,
      "sweetheart": 3220,
      "attic": 3221,
      "vine": 3222,
      "heli": 3223,
      "allig": 3224,
      "itself": 3225,
      "alligator": 3226,
      "restless": 3227,
      "aur": 3228,
      "starts": 3229,
      "ected": 3230,
      "repair": 3231,
      "shoe": 3232,
      "desser": 3233,
      "glasses": 3234,
      "cards": 3235,
      "fearful": 3236,
      "kers": 3237,
      "disgusting": 3238,
      "danny": 3239,
      "carpet": 3240,
      "adorable": 3241,
      "iest": 3242,
      "pants": 3243,
      "restaur": 3244,
      "anyway": 3245,
      "ost": 3246,
      "shouts": 3247,
      "tube": 3248,
      "tray": 3249,
      "mask": 3250,
      "ostrich": 3251,
      "screw": 3252,
      "envious": 3253,
      "mission": 3254,
      "filthy": 3255,
      "distant": 3256,
      "hook": 3257,
      "hive": 3258,
      "twist": 3259,
      "math": 3260,
      "copter": 3261,
      "helicopter": 3262,
      "monkeys": 3263,
      "giggle": 3264,
      "enthusiastic": 3265,
      "afternoon": 3266,
      "exper": 3267,
      "az": 3268,
      "cooked": 3269,
      "aked": 3270,
      "poem": 3271,
      "pipe": 3272,
      "lightning": 3273,
      "complain": 3274,
      "kang": 3275,
      "harsh": 3276,
      "dust": 3277,
      "lk": 3278,
      "paws": 3279,
      "restaurant": 3280,
      "meas": 3281,
      "kangar": 3282,
      "squash": 3283,
      "speak": 3284,
      "since": 3285,
      "admi": 3286,
      "sandbox": 3287,
      "nowhere": 3288,
      "pit": 3289,
      "leopard": 3290,
      "rice": 3291,
      "mill": 3292,
      "split": 3293,
      "backpack": 3294,
      "country": 3295,
      "unk": 3296,
      "cows": 3297,
      "viol": 3298,
      "firework": 3299,
      "trumpet": 3300,
      "aero": 3301,
      "bathtub": 3302,
      "maria": 3303,
      "barking": 3304,
      "cricket": 3305,
      "quite": 3306,
      "gn": 3307,
      "mim": 3308,
      "gorilla": 3309,
      "millie": 3310,
      "jellyfish": 3311,
      "jess": 3312,
      "whiskers": 3313,
      "happier": 3314,
      "panda": 3315,
      "ween": 3316,
      "modest": 3317,
      "admire": 3318,
      "spell": 3319,
      "human": 3320,
      "kate": 3321,
      "laun": 3322,
      "pilot": 3323,
      "sort": 3324,
      "stared": 3325,
      "violin": 3326,
      "salt": 3327,
      "cush": 3328,
      "behave": 3329,
      "didna": 3330,
      "lions": 3331,
      "meat": 3332,
      "message": 3333,
      "mule": 3334,
      "yogur": 3335,
      "grabs": 3336,
      "mimi": 3337,
      "impro": 3338,
      "xi": 3339,
      "oat": 3340,
      "dar": 3341,
      "nit": 3342,
      "vol": 3343,
      "tick": 3344,
      "dessert": 3345,
      "rolling": 3346,
      "paid": 3347,
      "cats": 3348,
      "wheat": 3349,
      "finds": 3350,
      "yogurt": 3351,
      "hedge": 3352,
      "harry": 3353,
      "castles": 3354,
      "kne": 3355,
      "reco": 3356,
      "rescue": 3357,
      "bubble": 3358,
      "swinging": 3359,
      "cact": 3360,
      "shade": 3361,
      "organize": 3362,
      "sport": 3363,
      "pulls": 3364,
      "wever": 3365,
      "however": 3366,
      "tripped": 3367,
      "size": 3368,
      "holes": 3369,
      "chan": 3370,
      "pole": 3371,
      "danger": 3372,
      "riding": 3373,
      "sheet": 3374,
      "spirit": 3375,
      "recogn": 3376,
      "roared": 3377,
      "bikes": 3378,
      "forgave": 3379,
      "pushing": 3380,
      "triangle": 3381,
      "hall": 3382,
      "purse": 3383,
      "object": 3384,
      "choice": 3385,
      "napkin": 3386,
      "tuna": 3387,
      "starting": 3388,
      "haircut": 3389,
      "scold": 3390,
      "bananas": 3391,
      "mild": 3392,
      "sock": 3393,
      "twink": 3394,
      "lands": 3395,
      "cano": 3396,
      "silver": 3397,
      "tomato": 3398,
      "energy": 3399,
      "rod": 3400,
      "bears": 3401,
      "either": 3402,
      "sher": 3403,
      "dive": 3404,
      "seeing": 3405,
      "ache": 3406,
      "œyou": 3407,
      "send": 3408,
      "comet": 3409,
      "boots": 3410,
      "frowned": 3411,
      "trains": 3412,
      "learnt": 3413,
      "porch": 3414,
      "kangaroo": 3415,
      "medal": 3416,
      "taxi": 3417,
      "volcano": 3418,
      "chalk": 3419,
      "strawberry": 3420,
      "tire": 3421,
      "muse": 3422,
      "museum": 3423,
      "prun": 3424,
      "sticker": 3425,
      "jokes": 3426,
      "chain": 3427,
      "ded": 3428,
      "palace": 3429,
      "evening": 3430,
      "fee": 3431,
      "papers": 3432,
      "tony": 3433,
      "wallet": 3434,
      "raft": 3435,
      "imagine": 3436,
      "appreci": 3437,
      "cel": 3438,
      "gain": 3439,
      "judge": 3440,
      "sweater": 3441,
      "steak": 3442,
      "burn": 3443,
      "shel": 3444,
      "shakes": 3445,
      "ino": 3446,
      "shopkeeper": 3447,
      "inse": 3448,
      "enter": 3449,
      "reinde": 3450,
      "wool": 3451,
      "climbing": 3452,
      "sprink": 3453,
      "avoc": 3454,
      "dear": 3455,
      "bang": 3456,
      "avocado": 3457,
      "barrel": 3458,
      "microphone": 3459,
      "iron": 3460,
      "james": 3461,
      "cactus": 3462,
      "smells": 3463,
      "alive": 3464,
      "neighbour": 3465,
      "laundry": 3466,
      "magnet": 3467,
      "cof": 3468,
      "wire": 3469,
      "fac": 3470,
      "resist": 3471,
      "coffee": 3472,
      "sim": 3473,
      "clapping": 3474,
      "shield": 3475,
      "troph": 3476,
      "putting": 3477,
      "planes": 3478,
      "softly": 3479,
      "gro": 3480,
      "pushes": 3481,
      "visited": 3482,
      "iling": 3483,
      "resp": 3484,
      "tricks": 3485,
      "quit": 3486,
      "sir": 3487,
      "mer": 3488,
      "notebook": 3489,
      "drawings": 3490,
      "inking": 3491,
      "support": 3492,
      "oy": 3493,
      "falling": 3494,
      "awe": 3495,
      "motorcycle": 3496,
      "reindeer": 3497,
      "colours": 3498,
      "leaned": 3499,
      "peek": 3500,
      "zoomed": 3501,
      "shovel": 3502,
      "trem": 3503,
      "checked": 3504,
      "quarrel": 3505,
      "winter": 3506,
      "marry": 3507,
      "kat": 3508,
      "shrimp": 3509,
      "belongs": 3510,
      "ucked": 3511,
      "airport": 3512,
      "pebble": 3513,
      "celery": 3514,
      "ambul": 3515,
      "maggie": 3516,
      "shelter": 3517,
      "ambulance": 3518,
      "herb": 3519,
      "aled": 3520,
      "avail": 3521,
      "ath": 3522,
      "marched": 3523,
      "counter": 3524,
      "bol": 3525,
      "aeroplane": 3526,
      "grapes": 3527,
      "nal": 3528,
      "rhino": 3529,
      "fields": 3530,
      "poke": 3531,
      "yach": 3532,
      "dishes": 3533,
      "planet": 3534,
      "barks": 3535,
      "appl": 3536,
      "vator": 3537,
      "smith": 3538,
      "soil": 3539,
      "trophy": 3540,
      "beam": 3541,
      "elevator": 3542,
      "fisher": 3543,
      "apologized": 3544,
      "skill": 3545,
      "rubber": 3546,
      "hoping": 3547,
      "costu": 3548,
      "costume": 3549,
      "onion": 3550,
      "uli": 3551,
      "drops": 3552,
      "god": 3553,
      "raining": 3554,
      "available": 3555,
      "unlock": 3556,
      "film": 3557,
      "vend": 3558,
      "feelings": 3559,
      "scope": 3560,
      "comfort": 3561,
      "unhappy": 3562,
      "page": 3563,
      "inclu": 3564,
      "yacht": 3565,
      "journal": 3566,
      "eraser": 3567,
      "minute": 3568,
      "tap": 3569,
      "cus": 3570,
      "€“": 3571,
      "mechan": 3572,
      "bulb": 3573,
      "mechanic": 3574,
      "baking": 3575,
      "task": 3576,
      "knob": 3577,
      "chur": 3578,
      "perfectly": 3579,
      "diary": 3580,
      "ax": 3581,
      "hadn": 3582,
      "eagerly": 3583,
      "ske": 3584,
      "comm": 3585,
      "cardboard": 3586,
      "player": 3587,
      "clara": 3588,
      "fog": 3589,
      "magaz": 3590,
      "closely": 3591,
      "basketball": 3592,
      "sle": 3593,
      "ense": 3594,
      "yoga": 3595,
      "coal": 3596,
      "ris": 3597,
      "petal": 3598,
      "glove": 3599,
      "frogs": 3600,
      "mee": 3601,
      "rect": 3602,
      "crash": 3603,
      "furnit": 3604,
      "furniture": 3605,
      "pted": 3606,
      "vendor": 3607,
      "church": 3608,
      "fortun": 3609,
      "bey": 3610,
      "tip": 3611,
      "stuffed": 3612,
      "imagination": 3613,
      "second": 3614,
      "treasures": 3615,
      "freez": 3616,
      "skull": 3617,
      "cooler": 3618,
      "headed": 3619,
      "breaks": 3620,
      "bree": 3621,
      "oil": 3622,
      "ah": 3623,
      "wife": 3624,
      "nament": 3625,
      "buck": 3626,
      "peach": 3627,
      "golf": 3628,
      "twis": 3629,
      "squi": 3630,
      "poss": 3631,
      "flame": 3632,
      "cups": 3633,
      "mosqui": 3634,
      "between": 3635,
      "offer": 3636,
      "factory": 3637,
      "sym": 3638,
      "switch": 3639,
      "cheek": 3640,
      "cauli": 3641,
      "potato": 3642,
      "chor": 3643,
      "ire": 3644,
      "pine": 3645,
      "hotel": 3646,
      "painter": 3647,
      "pirates": 3648,
      "swung": 3649,
      "football": 3650,
      "ides": 3651,
      "attent": 3652,
      "shouldn": 3653,
      "va": 3654,
      "disappear": 3655,
      "soc": 3656,
      "ding": 3657,
      "shouting": 3658,
      "hut": 3659,
      "weigh": 3660,
      "died": 3661,
      "tear": 3662,
      "heads": 3663,
      "mixer": 3664,
      "ornament": 3665,
      "blowing": 3666,
      "..": 3667,
      "crow": 3668,
      "skele": 3669,
      "rele": 3670,
      "laser": 3671,
      "powder": 3672,
      "fisherman": 3673,
      "folder": 3674,
      "video": 3675,
      "giraffe": 3676,
      "breathe": 3677,
      "cree": 3678,
      "parent": 3679,
      "skeleton": 3680,
      "soccer": 3681,
      "frame": 3682,
      "throws": 3683,
      "wipe": 3684,
      "created": 3685,
      "izes": 3686,
      "greed": 3687,
      "cauliflower": 3688,
      "cable": 3689,
      "lang": 3690,
      "cushion": 3691,
      "langu": 3692,
      "alright": 3693,
      "horses": 3694,
      "sunset": 3695,
      "attention": 3696,
      "aper": 3697,
      "symbol": 3698,
      "immed": 3699,
      "anchor": 3700,
      "fishing": 3701,
      "battery": 3702,
      "rhinocer": 3703,
      "popped": 3704,
      "mop": 3705,
      "ws": 3706,
      "weather": 3707,
      "maze": 3708,
      "jazz": 3709,
      "trail": 3710,
      "forgotten": 3711,
      "surren": 3712,
      "sla": 3713,
      "surrender": 3714,
      "flea": 3715,
      "celebrated": 3716,
      "luckily": 3717,
      "aff": 3718,
      "rosie": 3719,
      "sneak": 3720,
      "unpack": 3721,
      "surround": 3722,
      "slept": 3723,
      "waving": 3724,
      "intro": 3725,
      "introdu": 3726,
      "apr": 3727,
      "tina": 3728,
      "kingdom": 3729,
      "swamp": 3730,
      "tutor": 3731,
      "rhinoceros": 3732,
      "point": 3733,
      "fortunately": 3734,
      "sub": 3735,
      "points": 3736,
      "lend": 3737,
      "glowing": 3738,
      "fireplace": 3739,
      "breeze": 3740,
      "meeting": 3741,
      "sisted": 3742,
      "seas": 3743,
      "squirrels": 3744,
      "memories": 3745,
      "ckey": 3746,
      "grin": 3747,
      "hockey": 3748,
      "sunglasses": 3749,
      "reve": 3750,
      "stren": 3751,
      "streng": 3752,
      "mistakes": 3753,
      "dancer": 3754,
      "axe": 3755,
      "chickens": 3756,
      "writing": 3757,
      "zipper": 3758,
      "petals": 3759,
      "newsp": 3760,
      "iglo": 3761,
      "greedy": 3762,
      "strength": 3763,
      "ceiling": 3764,
      "snap": 3765,
      "hanging": 3766,
      "superhero": 3767,
      "cuss": 3768,
      "temple": 3769,
      "bury": 3770,
      "golden": 3771,
      "grocer": 3772,
      "chess": 3773,
      "staff": 3774,
      "sniffed": 3775,
      "experience": 3776,
      "trave": 3777,
      "argue": 3778,
      "cell": 3779,
      "eaten": 3780,
      "doggy": 3781,
      "musician": 3782,
      "discuss": 3783,
      "short": 3784,
      "baseball": 3785,
      "theater": 3786,
      "lime": 3787,
      "skirt": 3788,
      "puddles": 3789,
      "immedi": 3790,
      "microscope": 3791,
      "bouncing": 3792,
      "ouch": 3793,
      "immediately": 3794,
      "novel": 3795,
      "tol": 3796,
      "uniform": 3797,
      "miner": 3798,
      "radish": 3799,
      "san": 3800,
      "snowy": 3801,
      "comed": 3802,
      "igloo": 3803,
      "slipper": 3804,
      "shoulder": 3805,
      "lawy": 3806,
      "quietly": 3807,
      "welcomed": 3808,
      "throwing": 3809,
      "pis": 3810,
      "possible": 3811,
      "moves": 3812,
      "invest": 3813,
      "pistol": 3814,
      "plastic": 3815,
      "slippery": 3816,
      "flapped": 3817,
      "washer": 3818,
      "lotion": 3819,
      "accepted": 3820,
      "investig": 3821,
      "fought": 3822,
      "iv": 3823,
      "kayak": 3824,
      "during": 3825,
      "calls": 3826,
      "exer": 3827,
      "creek": 3828,
      "exerc": 3829,
      "mattre": 3830,
      "sticky": 3831,
      "chim": 3832,
      "served": 3833,
      "isn": 3834,
      "coats": 3835,
      "mystery": 3836,
      "pinch": 3837,
      "makeup": 3838,
      "yield": 3839,
      "uce": 3840,
      "freezer": 3841,
      "cared": 3842,
      "reef": 3843,
      "armchair": 3844,
      "wis": 3845,
      "oking": 3846,
      "fauce": 3847,
      "writ": 3848,
      "suff": 3849,
      "valley": 3850,
      "beef": 3851,
      "wigg": 3852,
      "news": 3853,
      "oak": 3854,
      "ison": 3855,
      "cherries": 3856,
      "sailing": 3857,
      "oyster": 3858,
      "tug": 3859,
      "yum": 3860,
      "regre": 3861,
      "crib": 3862,
      "applau": 3863,
      "investigate": 3864,
      "splashing": 3865,
      "œita": 3866,
      "cost": 3867,
      "rake": 3868,
      "zoe": 3869,
      "wags": 3870,
      "mattress": 3871,
      "lia": 3872,
      "presents": 3873,
      "faucet": 3874,
      "chimney": 3875,
      "dishwasher": 3876,
      "ticket": 3877,
      "mineral": 3878,
      "cobweb": 3879,
      "toile": 3880,
      "blin": 3881,
      "worth": 3882,
      "collected": 3883,
      "dressed": 3884,
      "zzy": 3885,
      "magazine": 3886,
      "mint": 3887,
      "freddy": 3888,
      "alarm": 3889,
      "sprayed": 3890,
      "veil": 3891,
      "happens": 3892,
      "separate": 3893,
      "zor": 3894,
      "appro": 3895,
      "entered": 3896,
      "shrugged": 3897,
      "captain": 3898,
      "lawyer": 3899,
      "keeping": 3900,
      "scolded": 3901,
      "rush": 3902,
      "toilet": 3903,
      "fant": 3904,
      "sigh": 3905,
      "shrink": 3906,
      "regret": 3907,
      "mosquito": 3908,
      "razor": 3909,
      "argu": 3910,
      "ruby": 3911,
      "display": 3912,
      "ms": 3913,
      "blankets": 3914,
      "sparkle": 3915,
      "vid": 3916,
      "tucked": 3917,
      "candles": 3918,
      "die": 3919,
      "burned": 3920,
      "ignored": 3921,
      "poo": 3922,
      "hon": 3923,
      "milly": 3924,
      "kisses": 3925,
      "hopes": 3926,
      "len": 3927,
      "classroom": 3928,
      "follows": 3929,
      "bathe": 3930,
      "thr": 3931,
      "missile": 3932,
      "apart": 3933,
      "easily": 3934,
      "chairs": 3935,
      "letting": 3936,
      "omed": 3937,
      "pedal": 3938,
      "language": 3939,
      "straight": 3940,
      "bother": 3941,
      "veter": 3942,
      "veterin": 3943,
      "caring": 3944,
      "accept": 3945,
      "model": 3946,
      "veterinarian": 3947,
      "stable": 3948,
      "olive": 3949,
      "jewelry": 3950,
      "trusted": 3951,
      "wardrobe": 3952,
      "sizes": 3953,
      "lab": 3954,
      "vision": 3955,
      "shower": 3956,
      "claws": 3957,
      "telephone": 3958,
      "label": 3959,
      "opera": 3960,
      "trade": 3961,
      "slice": 3962,
      "incre": 3963,
      "blinked": 3964,
      "rooms": 3965,
      "tornado": 3966,
      "puzzles": 3967,
      "lawn": 3968,
      "cabinet": 3969,
      "couraged": 3970,
      "crossed": 3971,
      "blouse": 3972,
      "newspaper": 3973,
      "kneel": 3974,
      "blueberries": 3975,
      "squeeze": 3976,
      "bookcase": 3977,
      "subway": 3978,
      "delay": 3979,
      "sham": 3980,
      "lumber": 3981,
      "recomm": 3982,
      "ement": 3983,
      "amazement": 3984,
      "grill": 3985,
      "ups": 3986,
      "mustache": 3987,
      "squeezed": 3988,
      "bookshelf": 3989,
      "shampoo": 3990,
      "fuel": 3991,
      "crawling": 3992,
      "gym": 3993,
      "gran": 3994,
      "request": 3995,
      "following": 3996,
      "blood": 3997,
      "reverse": 3998,
      "dic": 3999
    },
    "merges": [
      [
        "h",
        "e"
      ],
      [
        "t",
        "he"
      ],
      [
        "a",
        "n"
      ],
      [
        "e",
        "d"
      ],
      [
        "t",
        "o"
      ],
      [
        "an",
        "d"
      ],
      [
        "i",
        "n"
      ],
      [
        "i",
        "t"
      ],
      [
        "r",
        "e"
      ],
      [
        "o",
        "u"
      ],
      [
        "a",
        "s"
      ],
      [
        "o",
        "n"
      ],
      [
        "h",
        "a"
      ],
      [
        "e",
        "r"
      ],
      [
        "w",
        "as"
      ],
      [
        "a",
        "r"
      ],
      [
        "e",
        "n"
      ],
      [
        "a",
        "y"
      ],
      [
        "s",
        "he"
      ],
      [
        "in",
        "g"
      ],
      [
        "o",
        "m"
      ],
      [
        "i",
        "s"
      ],
      [
        "i",
        "l"
      ],
      [
        "i",
        "d"
      ],
      [
        "s",
        "a"
      ],
      [
        "l",
        "e"
      ],
      [
        "the",
        "y"
      ],
      [
        "a",
        "l"
      ],
      [
        "l",
        "o"
      ],
      [
        "i",
        "m"
      ],
      [
        "o",
        "r"
      ],
      [
        "he",
        "r"
      ],
      [
        "s",
        "t"
      ],
      [
        "t",
        "h"
      ],
      [
        "i",
        "r"
      ],
      [
        "a",
        "t"
      ],
      [
        "b",
        "e"
      ],
      [
        "ha",
        "t"
      ],
      [
        "v",
        "er"
      ],
      [
        "n",
        "o"
      ],
      [
        "u",
        "t"
      ],
      [
        "y",
        "ou"
      ],
      [
        "k",
        "e"
      ],
      [
        "s",
        "e"
      ],
      [
        "c",
        "k"
      ],
      [
        "l",
        "d"
      ],
      [
        "c",
        "e"
      ],
      [
        "sa",
        "id"
      ],
      [
        "s",
        "o"
      ],
      [
        "v",
        "e"
      ],
      [
        "r",
        "i"
      ],
      [
        "t",
        "im"
      ],
      [
        "il",
        "y"
      ],
      [
        "w",
        "e"
      ],
      [
        "p",
        "l"
      ],
      [
        "h",
        "is"
      ],
      [
        "a",
        "m"
      ],
      [
        "w",
        "it"
      ],
      [
        "wit",
        "h"
      ],
      [
        "p",
        "p"
      ],
      [
        "m",
        "om"
      ],
      [
        "a",
        "d"
      ],
      [
        "on",
        "e"
      ],
      [
        "i",
        "g"
      ],
      [
        "l",
        "ily"
      ],
      [
        "o",
        "f"
      ],
      [
        "u",
        "n"
      ],
      [
        "o",
        "k"
      ],
      [
        "t",
        "hat"
      ],
      [
        "l",
        "y"
      ],
      [
        "d",
        "ay"
      ],
      [
        "ver",
        "y"
      ],
      [
        "b",
        "ut"
      ],
      [
        "om",
        "e"
      ],
      [
        "l",
        "i"
      ],
      [
        "d",
        "o"
      ],
      [
        "g",
        "o"
      ],
      [
        "h",
        "o"
      ],
      [
        "n",
        "e"
      ],
      [
        "u",
        "p"
      ],
      [
        "m",
        "y"
      ],
      [
        "t",
        "ed"
      ],
      [
        "b",
        "o"
      ],
      [
        "e",
        "s"
      ],
      [
        "pl",
        "ay"
      ],
      [
        "ha",
        "d"
      ],
      [
        "c",
        "h"
      ],
      [
        "f",
        "or"
      ],
      [
        "al",
        "l"
      ],
      [
        "r",
        "o"
      ],
      [
        "f",
        "e"
      ],
      [
        "ou",
        "ld"
      ],
      [
        "en",
        "d"
      ],
      [
        "k",
        "ed"
      ],
      [
        "t",
        "le"
      ],
      [
        "ha",
        "pp"
      ],
      [
        "w",
        "an"
      ],
      [
        "ou",
        "n"
      ],
      [
        "g",
        "e"
      ],
      [
        "a",
        "re"
      ],
      [
        "en",
        "t"
      ],
      [
        "m",
        "a"
      ],
      [
        "no",
        "t"
      ],
      [
        "the",
        "re"
      ],
      [
        "l",
        "it"
      ],
      [
        "oun",
        "d"
      ],
      [
        "lit",
        "tle"
      ],
      [
        "the",
        "r"
      ],
      [
        "tim",
        "e"
      ],
      [
        "ou",
        "t"
      ],
      [
        "r",
        "y"
      ],
      [
        "r",
        "a"
      ],
      [
        "h",
        "t"
      ],
      [
        "happ",
        "y"
      ],
      [
        "s",
        "m"
      ],
      [
        "b",
        "ig"
      ],
      [
        "f",
        "ri"
      ],
      [
        "sa",
        "w"
      ],
      [
        "s",
        "ome"
      ],
      [
        "lo",
        "ok"
      ],
      [
        "fri",
        "end"
      ],
      [
        ".",
        "\""
      ],
      [
        "a",
        "ck"
      ],
      [
        "th",
        "ing"
      ],
      [
        "u",
        "l"
      ],
      [
        "id",
        "e"
      ],
      [
        "!",
        "\""
      ],
      [
        "u",
        "g"
      ],
      [
        "v",
        "ed"
      ],
      [
        "we",
        "re"
      ],
      [
        "on",
        "ce"
      ],
      [
        "w",
        "ay"
      ],
      [
        "s",
        "p"
      ],
      [
        "w",
        "he"
      ],
      [
        "c",
        "ar"
      ],
      [
        "h",
        "im"
      ],
      [
        "t",
        "er"
      ],
      [
        "to",
        "m"
      ],
      [
        "c",
        "an"
      ],
      [
        "s",
        "u"
      ],
      [
        "ir",
        "l"
      ],
      [
        "e",
        "l"
      ],
      [
        "wan",
        "ted"
      ],
      [
        "b",
        "en"
      ],
      [
        "g",
        "irl"
      ],
      [
        "up",
        "on"
      ],
      [
        "the",
        "ir"
      ],
      [
        "f",
        "ul"
      ],
      [
        "the",
        "m"
      ],
      [
        "m",
        "o"
      ],
      [
        "c",
        "o"
      ],
      [
        "il",
        "l"
      ],
      [
        "he",
        "l"
      ],
      [
        "m",
        "e"
      ],
      [
        "d",
        "id"
      ],
      [
        "sm",
        "il"
      ],
      [
        "c",
        "ould"
      ],
      [
        "ha",
        "ve"
      ],
      [
        "f",
        "r"
      ],
      [
        "e",
        "c"
      ],
      [
        "s",
        "h"
      ],
      [
        "e",
        "x"
      ],
      [
        "in",
        "d"
      ],
      [
        "a",
        "g"
      ],
      [
        "w",
        "ent"
      ],
      [
        "t",
        "a"
      ],
      [
        "ne",
        "w"
      ],
      [
        "hel",
        "p"
      ],
      [
        "o",
        "d"
      ],
      [
        "n",
        "am"
      ],
      [
        "?",
        "\""
      ],
      [
        "w",
        "hat"
      ],
      [
        "friend",
        "s"
      ],
      [
        "ar",
        "d"
      ],
      [
        "whe",
        "n"
      ],
      [
        "u",
        "m"
      ],
      [
        "b",
        "ack"
      ],
      [
        "s",
        "ay"
      ],
      [
        "fe",
        "l"
      ],
      [
        "w",
        "n"
      ],
      [
        "u",
        "r"
      ],
      [
        "li",
        "ke"
      ],
      [
        "fr",
        "om"
      ],
      [
        "f",
        "o"
      ],
      [
        "f",
        "un"
      ],
      [
        "m",
        "an"
      ],
      [
        "s",
        "ide"
      ],
      [
        "c",
        "he"
      ],
      [
        "ar",
        "k"
      ],
      [
        "to",
        "o"
      ],
      [
        "the",
        "n"
      ],
      [
        "r",
        "an"
      ],
      [
        "i",
        "c"
      ],
      [
        "g",
        "ht"
      ],
      [
        "j",
        "o"
      ],
      [
        "tim",
        "my"
      ],
      [
        "st",
        "ar"
      ],
      [
        "e",
        "very"
      ],
      [
        "l",
        "a"
      ],
      [
        "smil",
        "ed"
      ],
      [
        "nam",
        "ed"
      ],
      [
        "p",
        "r"
      ],
      [
        "lo",
        "ved"
      ],
      [
        "s",
        "to"
      ],
      [
        "se",
        "e"
      ],
      [
        "as",
        "ked"
      ],
      [
        "a",
        "in"
      ],
      [
        "to",
        "y"
      ],
      [
        "no",
        "w"
      ],
      [
        "fel",
        "t"
      ],
      [
        "lo",
        "w"
      ],
      [
        "look",
        "ed"
      ],
      [
        "t",
        "s"
      ],
      [
        "p",
        "e"
      ],
      [
        "i",
        "ck"
      ],
      [
        "ar",
        "ound"
      ],
      [
        "ho",
        "w"
      ],
      [
        "a",
        "b"
      ],
      [
        "am",
        "e"
      ],
      [
        "b",
        "ir"
      ],
      [
        "ma",
        "ke"
      ],
      [
        "w",
        "ould"
      ],
      [
        "bo",
        "y"
      ],
      [
        "w",
        "or"
      ],
      [
        "bir",
        "d"
      ],
      [
        "on",
        "g"
      ],
      [
        "o",
        "ther"
      ],
      [
        "i",
        "ce"
      ],
      [
        "re",
        "e"
      ],
      [
        "n",
        "a"
      ],
      [
        "g",
        "r"
      ],
      [
        "c",
        "a"
      ],
      [
        "mom",
        "my"
      ],
      [
        "th",
        "an"
      ],
      [
        "m",
        "ad"
      ],
      [
        "o",
        "p"
      ],
      [
        ",",
        "\""
      ],
      [
        "a",
        "way"
      ],
      [
        "to",
        "ge"
      ],
      [
        "toge",
        "ther"
      ],
      [
        "d",
        "ad"
      ],
      [
        "s",
        "s"
      ],
      [
        "d",
        "d"
      ],
      [
        "say",
        "s"
      ],
      [
        "star",
        "ted"
      ],
      [
        "w",
        "at"
      ],
      [
        "ou",
        "d"
      ],
      [
        "i",
        "e"
      ],
      [
        "wan",
        "t"
      ],
      [
        "some",
        "thing"
      ],
      [
        "mad",
        "e"
      ],
      [
        "c",
        "ame"
      ],
      [
        "it",
        "ed"
      ],
      [
        "p",
        "ark"
      ],
      [
        "i",
        "f"
      ],
      [
        "sa",
        "d"
      ],
      [
        "p",
        "ut"
      ],
      [
        "go",
        "od"
      ],
      [
        "ig",
        "ht"
      ],
      [
        "le",
        "t"
      ],
      [
        "ex",
        "c"
      ],
      [
        "go",
        "t"
      ],
      [
        "w",
        "ho"
      ],
      [
        "l",
        "u"
      ],
      [
        "s",
        "car"
      ],
      [
        "m",
        "u"
      ],
      [
        "h",
        "ome"
      ],
      [
        "ag",
        "ain"
      ],
      [
        "w",
        "al"
      ],
      [
        "ge",
        "t"
      ],
      [
        "a",
        "ve"
      ],
      [
        "w",
        "o"
      ],
      [
        "l",
        "l"
      ],
      [
        "f",
        "ound"
      ],
      [
        "e",
        "p"
      ],
      [
        "ri",
        "ed"
      ],
      [
        "d",
        "ec"
      ],
      [
        "pp",
        "ed"
      ],
      [
        "q",
        "u"
      ],
      [
        "u",
        "re"
      ],
      [
        "mo",
        "re"
      ],
      [
        "h",
        "ug"
      ],
      [
        "b",
        "y"
      ],
      [
        "play",
        "ing"
      ],
      [
        "ou",
        "ght"
      ],
      [
        "k",
        "ing"
      ],
      [
        "a",
        "ch"
      ],
      [
        "p",
        "o"
      ],
      [
        "w",
        "h"
      ],
      [
        "thing",
        "s"
      ],
      [
        "exc",
        "ited"
      ],
      [
        "d",
        "er"
      ],
      [
        "you",
        "r"
      ],
      [
        "li",
        "ked"
      ],
      [
        "n",
        "y"
      ],
      [
        "y",
        "es"
      ],
      [
        "sa",
        "m"
      ],
      [
        "ou",
        "s"
      ],
      [
        "ar",
        "a"
      ],
      [
        "id",
        "ed"
      ],
      [
        "s",
        "ha"
      ],
      [
        "f",
        "a"
      ],
      [
        "dec",
        "ided"
      ],
      [
        "a",
        "f"
      ],
      [
        "ou",
        "se"
      ],
      [
        "t",
        "y"
      ],
      [
        "c",
        "are"
      ],
      [
        "do",
        "g"
      ],
      [
        "b",
        "u"
      ],
      [
        "th",
        "is"
      ],
      [
        "ar",
        "n"
      ],
      [
        "scar",
        "ed"
      ],
      [
        "do",
        "wn"
      ],
      [
        "r",
        "u"
      ],
      [
        "u",
        "se"
      ],
      [
        "f",
        "ind"
      ],
      [
        "ta",
        "ke"
      ],
      [
        "c",
        "lo"
      ],
      [
        "j",
        "u"
      ],
      [
        "an",
        "na"
      ],
      [
        "s",
        "ara"
      ],
      [
        "at",
        "e"
      ],
      [
        "w",
        "ill"
      ],
      [
        "fe",
        "el"
      ],
      [
        "c",
        "ome"
      ],
      [
        "way",
        "s"
      ],
      [
        "ou",
        "r"
      ],
      [
        "ma",
        "x"
      ],
      [
        "an",
        "g"
      ],
      [
        "s",
        "or"
      ],
      [
        "p",
        "re"
      ],
      [
        "al",
        "ways"
      ],
      [
        "b",
        "b"
      ],
      [
        "ab",
        "out"
      ],
      [
        "to",
        "ok"
      ],
      [
        "sp",
        "ec"
      ],
      [
        "t",
        "e"
      ],
      [
        "toy",
        "s"
      ],
      [
        "did",
        "n"
      ],
      [
        "is",
        "e"
      ],
      [
        "o",
        "ld"
      ],
      [
        "out",
        "side"
      ],
      [
        "al",
        "ly"
      ],
      [
        "t",
        "ree"
      ],
      [
        "er",
        "s"
      ],
      [
        "th",
        "ought"
      ],
      [
        "le",
        "arn"
      ],
      [
        "c",
        "at"
      ],
      [
        "i",
        "ve"
      ],
      [
        "en",
        "ed"
      ],
      [
        "che",
        "d"
      ],
      [
        "d",
        "e"
      ],
      [
        "ro",
        "om"
      ],
      [
        "fo",
        "re"
      ],
      [
        "m",
        "i"
      ],
      [
        "it",
        "e"
      ],
      [
        "k",
        "now"
      ],
      [
        "an",
        "t"
      ],
      [
        "i",
        "al"
      ],
      [
        "w",
        "a"
      ],
      [
        "d",
        "on"
      ],
      [
        "la",
        "ug"
      ],
      [
        "spec",
        "ial"
      ],
      [
        "su",
        "dd"
      ],
      [
        "sudd",
        "en"
      ],
      [
        "in",
        "side"
      ],
      [
        "k",
        "new"
      ],
      [
        "g",
        "ed"
      ],
      [
        "r",
        "un"
      ],
      [
        "sor",
        "ry"
      ],
      [
        "an",
        "y"
      ],
      [
        "b",
        "all"
      ],
      [
        "s",
        "w"
      ],
      [
        "ju",
        "st"
      ],
      [
        "sudden",
        "ly"
      ],
      [
        "in",
        "k"
      ],
      [
        "ne",
        "ver"
      ],
      [
        "h",
        "ouse"
      ],
      [
        "b",
        "le"
      ],
      [
        "is",
        "h"
      ],
      [
        "af",
        "ter"
      ],
      [
        "u",
        "s"
      ],
      [
        "r",
        "ed"
      ],
      [
        "s",
        "how"
      ],
      [
        "l",
        "f"
      ],
      [
        "j",
        "ack"
      ],
      [
        "is",
        "t"
      ],
      [
        "mu",
        "ch"
      ],
      [
        "l",
        "ed"
      ],
      [
        "h",
        "and"
      ],
      [
        "s",
        "un"
      ],
      [
        "d",
        "re"
      ],
      [
        "f",
        "in"
      ],
      [
        "care",
        "ful"
      ],
      [
        "o",
        "t"
      ],
      [
        "c",
        "le"
      ],
      [
        "v",
        "en"
      ],
      [
        "c",
        "re"
      ],
      [
        "s",
        "k"
      ],
      [
        "ar",
        "m"
      ],
      [
        "g",
        "ave"
      ],
      [
        "he",
        "d"
      ],
      [
        "in",
        "to"
      ],
      [
        "t",
        "ried"
      ],
      [
        "l",
        "ong"
      ],
      [
        "wat",
        "er"
      ],
      [
        "to",
        "ld"
      ],
      [
        "as",
        "t"
      ],
      [
        "bo",
        "x"
      ],
      [
        "e",
        "ach"
      ],
      [
        "o",
        "ver"
      ],
      [
        "pr",
        "oud"
      ],
      [
        "p",
        "a"
      ],
      [
        "he",
        "ard"
      ],
      [
        "d",
        "y"
      ],
      [
        "re",
        "ad"
      ],
      [
        "lo",
        "ve"
      ],
      [
        "g",
        "re"
      ],
      [
        "ha",
        "r"
      ],
      [
        "than",
        "k"
      ],
      [
        "e",
        "at"
      ],
      [
        "b",
        "r"
      ],
      [
        "c",
        "l"
      ],
      [
        "um",
        "p"
      ],
      [
        "p",
        "ick"
      ],
      [
        "pre",
        "t"
      ],
      [
        "e",
        "ar"
      ],
      [
        "play",
        "ed"
      ],
      [
        "could",
        "n"
      ],
      [
        "mi",
        "a"
      ],
      [
        "ca",
        "use"
      ],
      [
        "i",
        "on"
      ],
      [
        "be",
        "cause"
      ],
      [
        "hug",
        "ged"
      ],
      [
        "un",
        "t"
      ],
      [
        "of",
        "f"
      ],
      [
        "be",
        "ar"
      ],
      [
        "ri",
        "ght"
      ],
      [
        "ex",
        "p"
      ],
      [
        "whe",
        "re"
      ],
      [
        "n",
        "ice"
      ],
      [
        "il",
        "e"
      ],
      [
        "f",
        "ly"
      ],
      [
        "c",
        "om"
      ],
      [
        "ne",
        "ed"
      ],
      [
        "man",
        "y"
      ],
      [
        "t",
        "ry"
      ],
      [
        "she",
        "d"
      ],
      [
        "f",
        "low"
      ],
      [
        "l",
        "ad"
      ],
      [
        "a",
        "c"
      ],
      [
        "sm",
        "all"
      ],
      [
        "v",
        "ing"
      ],
      [
        "an",
        "im"
      ],
      [
        "be",
        "t"
      ],
      [
        "anim",
        "al"
      ],
      [
        "ra",
        "bb"
      ],
      [
        "ou",
        "g"
      ],
      [
        "sh",
        "in"
      ],
      [
        "t",
        "ing"
      ],
      [
        "oug",
        "h"
      ],
      [
        "b",
        "er"
      ],
      [
        "it",
        "s"
      ],
      [
        "e",
        "ven"
      ],
      [
        "unt",
        "il"
      ],
      [
        "f",
        "i"
      ],
      [
        "se",
        "lf"
      ],
      [
        "so",
        "on"
      ],
      [
        "p",
        "er"
      ],
      [
        "b",
        "ed"
      ],
      [
        "i",
        "z"
      ],
      [
        "k",
        "ind"
      ],
      [
        "learn",
        "ed"
      ],
      [
        "every",
        "one"
      ],
      [
        "be",
        "a"
      ],
      [
        "ke",
        "t"
      ],
      [
        "bet",
        "ter"
      ],
      [
        "b",
        "ro"
      ],
      [
        "c",
        "all"
      ],
      [
        "a",
        "ce"
      ],
      [
        "v",
        "ent"
      ],
      [
        "c",
        "y"
      ],
      [
        "g",
        "ive"
      ],
      [
        "be",
        "st"
      ],
      [
        "t",
        "ur"
      ],
      [
        "p",
        "u"
      ],
      [
        "b",
        "ra"
      ],
      [
        "as",
        "s"
      ],
      [
        "e",
        "t"
      ],
      [
        "h",
        "ur"
      ],
      [
        "exp",
        "lo"
      ],
      [
        "sp",
        "ot"
      ],
      [
        "g",
        "ard"
      ],
      [
        "gard",
        "en"
      ],
      [
        "t",
        "re"
      ],
      [
        "ck",
        "s"
      ],
      [
        "bea",
        "ut"
      ],
      [
        "o",
        "l"
      ],
      [
        "f",
        "le"
      ],
      [
        "re",
        "a"
      ],
      [
        "than",
        "ked"
      ],
      [
        "sk",
        "y"
      ],
      [
        "laug",
        "hed"
      ],
      [
        "j",
        "ump"
      ],
      [
        "s",
        "ho"
      ],
      [
        "un",
        "der"
      ],
      [
        "su",
        "r"
      ],
      [
        "sa",
        "fe"
      ],
      [
        "jo",
        "y"
      ],
      [
        "t",
        "ru"
      ],
      [
        "as",
        "e"
      ],
      [
        "p",
        "le"
      ],
      [
        "l",
        "oud"
      ],
      [
        "l",
        "ist"
      ],
      [
        "l",
        "ly"
      ],
      [
        "p",
        "t"
      ],
      [
        "f",
        "t"
      ],
      [
        "i",
        "ful"
      ],
      [
        "beaut",
        "iful"
      ],
      [
        "lo",
        "ts"
      ],
      [
        "st",
        "ill"
      ],
      [
        "r",
        "ong"
      ],
      [
        "f",
        "am"
      ],
      [
        "am",
        "a"
      ],
      [
        "n",
        "ing"
      ],
      [
        "animal",
        "s"
      ],
      [
        "ra",
        "in"
      ],
      [
        "jo",
        "h"
      ],
      [
        "st",
        "ay"
      ],
      [
        "m",
        "um"
      ],
      [
        "joh",
        "n"
      ],
      [
        "w",
        "in"
      ],
      [
        "w",
        "on"
      ],
      [
        "bo",
        "ok"
      ],
      [
        "bo",
        "th"
      ],
      [
        "ig",
        "h"
      ],
      [
        "el",
        "l"
      ],
      [
        "t",
        "wo"
      ],
      [
        "b",
        "ad"
      ],
      [
        "c",
        "u"
      ],
      [
        "har",
        "d"
      ],
      [
        "tur",
        "n"
      ],
      [
        "ke",
        "ep"
      ],
      [
        "op",
        "le"
      ],
      [
        "li",
        "ved"
      ],
      [
        "pe",
        "ople"
      ],
      [
        "ok",
        "ay"
      ],
      [
        "c",
        "t"
      ],
      [
        "bra",
        "ve"
      ],
      [
        "lu",
        "cy"
      ],
      [
        "ro",
        "w"
      ],
      [
        "wal",
        "ked"
      ],
      [
        "sh",
        "ould"
      ],
      [
        "gr",
        "ound"
      ],
      [
        "sur",
        "pr"
      ],
      [
        "ang",
        "ry"
      ],
      [
        "fam",
        "ily"
      ],
      [
        "fle",
        "w"
      ],
      [
        "or",
        "t"
      ],
      [
        "call",
        "ed"
      ],
      [
        "su",
        "re"
      ],
      [
        "i",
        "shed"
      ],
      [
        "in",
        "e"
      ],
      [
        "hur",
        "t"
      ],
      [
        "a",
        "pp"
      ],
      [
        "do",
        "or"
      ],
      [
        "wh",
        "ile"
      ],
      [
        "ke",
        "pt"
      ],
      [
        "c",
        "on"
      ],
      [
        "re",
        "al"
      ],
      [
        "sha",
        "re"
      ],
      [
        "be",
        "fore"
      ],
      [
        "f",
        "ast"
      ],
      [
        "lu",
        "e"
      ],
      [
        "an",
        "e"
      ],
      [
        "is",
        "ed"
      ],
      [
        "p",
        "ic"
      ],
      [
        "go",
        "ing"
      ],
      [
        "pret",
        "ty"
      ],
      [
        "x",
        "t"
      ],
      [
        "s",
        "er"
      ],
      [
        "s",
        "l"
      ],
      [
        "cle",
        "an"
      ],
      [
        "ne",
        "xt"
      ],
      [
        "m",
        "ay"
      ],
      [
        "lo",
        "t"
      ],
      [
        "wh",
        "y"
      ],
      [
        "ad",
        "vent"
      ],
      [
        "im",
        "p"
      ],
      [
        "ab",
        "le"
      ],
      [
        "no",
        "ise"
      ],
      [
        "op",
        "ened"
      ],
      [
        "shin",
        "y"
      ],
      [
        "do",
        "ll"
      ],
      [
        "c",
        "ry"
      ],
      [
        "explo",
        "re"
      ],
      [
        "feel",
        "ing"
      ],
      [
        "pl",
        "ace"
      ],
      [
        "gr",
        "and"
      ],
      [
        "il",
        "ly"
      ],
      [
        "k",
        "it"
      ],
      [
        "d",
        "ra"
      ],
      [
        "al",
        "so"
      ],
      [
        "e",
        "m"
      ],
      [
        "li",
        "e"
      ],
      [
        "€",
        "™"
      ],
      [
        "il",
        "d"
      ],
      [
        "me",
        "m"
      ],
      [
        "i",
        "ed"
      ],
      [
        "m",
        "ar"
      ],
      [
        "ide",
        "a"
      ],
      [
        "no",
        "dd"
      ],
      [
        "bo",
        "b"
      ],
      [
        "co",
        "lo"
      ],
      [
        "u",
        "ck"
      ],
      [
        "nodd",
        "ed"
      ],
      [
        "b",
        "lue"
      ],
      [
        "t",
        "al"
      ],
      [
        "f",
        "ish"
      ],
      [
        "pick",
        "ed"
      ],
      [
        "colo",
        "r"
      ],
      [
        "he",
        "ar"
      ],
      [
        "se",
        "t"
      ],
      [
        "wal",
        "king"
      ],
      [
        "cl",
        "im"
      ],
      [
        "as",
        "k"
      ],
      [
        "he",
        "ad"
      ],
      [
        "wor",
        "k"
      ],
      [
        "fa",
        "ce"
      ],
      [
        "h",
        "as"
      ],
      [
        "re",
        "n"
      ],
      [
        "advent",
        "ure"
      ],
      [
        "smil",
        "e"
      ],
      [
        "p",
        "ar"
      ],
      [
        "r",
        "ing"
      ],
      [
        "be",
        "ing"
      ],
      [
        "le",
        "ss"
      ],
      [
        "t",
        "ure"
      ],
      [
        "may",
        "be"
      ],
      [
        "fin",
        "ally"
      ],
      [
        "look",
        "ing"
      ],
      [
        "i",
        "es"
      ],
      [
        "ic",
        "ed"
      ],
      [
        "v",
        "o"
      ],
      [
        "by",
        "e"
      ],
      [
        "ha",
        "ir"
      ],
      [
        "i",
        "ous"
      ],
      [
        "wa",
        "it"
      ],
      [
        "d",
        "if"
      ],
      [
        "list",
        "en"
      ],
      [
        "fo",
        "od"
      ],
      [
        "wal",
        "k"
      ],
      [
        "e",
        "ver"
      ],
      [
        "st",
        "e"
      ],
      [
        "pic",
        "ture"
      ],
      [
        "th",
        "ink"
      ],
      [
        "n",
        "ight"
      ],
      [
        "re",
        "mem"
      ],
      [
        "d",
        "a"
      ],
      [
        "us",
        "ed"
      ],
      [
        "le",
        "s"
      ],
      [
        "e",
        "yes"
      ],
      [
        "ug",
        "ht"
      ],
      [
        "he",
        "re"
      ],
      [
        "sto",
        "pped"
      ],
      [
        "co",
        "ok"
      ],
      [
        "gre",
        "at"
      ],
      [
        "o",
        "wn"
      ],
      [
        "su",
        "e"
      ],
      [
        "flow",
        "ers"
      ],
      [
        "b",
        "l"
      ],
      [
        "en",
        "joy"
      ],
      [
        "s",
        "qu"
      ],
      [
        "y",
        "ear"
      ],
      [
        "m",
        "on"
      ],
      [
        "won",
        "der"
      ],
      [
        "remem",
        "ber"
      ],
      [
        "re",
        "pl"
      ],
      [
        "b",
        "lo"
      ],
      [
        "qu",
        "ick"
      ],
      [
        "ri",
        "es"
      ],
      [
        "imp",
        "ort"
      ],
      [
        "es",
        "s"
      ],
      [
        "fore",
        "st"
      ],
      [
        "not",
        "iced"
      ],
      [
        "hand",
        "s"
      ],
      [
        "ne",
        "ar"
      ],
      [
        "wat",
        "ch"
      ],
      [
        "iz",
        "ed"
      ],
      [
        "p",
        "h"
      ],
      [
        "d",
        "an"
      ],
      [
        "ir",
        "st"
      ],
      [
        "le",
        "ave"
      ],
      [
        "b",
        "un"
      ],
      [
        "import",
        "ant"
      ],
      [
        "l",
        "low"
      ],
      [
        "s",
        "ound"
      ],
      [
        "sl",
        "ide"
      ],
      [
        "ama",
        "z"
      ],
      [
        "repl",
        "ied"
      ],
      [
        "c",
        "ho"
      ],
      [
        "sto",
        "p"
      ],
      [
        "ta",
        "ble"
      ],
      [
        "fo",
        "llow"
      ],
      [
        "m",
        "or"
      ],
      [
        "show",
        "ed"
      ],
      [
        "me",
        "an"
      ],
      [
        "to",
        "u"
      ],
      [
        "i",
        "p"
      ],
      [
        "t",
        "in"
      ],
      [
        "g",
        "an"
      ],
      [
        "vo",
        "ice"
      ],
      [
        "t",
        "ell"
      ],
      [
        "s",
        "we"
      ],
      [
        "fe",
        "ren"
      ],
      [
        "dif",
        "feren"
      ],
      [
        "sara",
        "h"
      ],
      [
        "ma",
        "g"
      ],
      [
        "cre",
        "am"
      ],
      [
        "sw",
        "ing"
      ],
      [
        "s",
        "ing"
      ],
      [
        "rabb",
        "it"
      ],
      [
        "st",
        "ick"
      ],
      [
        "ca",
        "ke"
      ],
      [
        "re",
        "st"
      ],
      [
        "b",
        "right"
      ],
      [
        "m",
        "is"
      ],
      [
        "wat",
        "ched"
      ],
      [
        "good",
        "bye"
      ],
      [
        "bo",
        "w"
      ],
      [
        "tru",
        "ck"
      ],
      [
        "ple",
        "ase"
      ],
      [
        "d",
        "is"
      ],
      [
        "sto",
        "re"
      ],
      [
        "dad",
        "dy"
      ],
      [
        "quick",
        "ly"
      ],
      [
        "be",
        "en"
      ],
      [
        "bo",
        "at"
      ],
      [
        "g",
        "u"
      ],
      [
        "st",
        "rong"
      ],
      [
        "cu",
        "ri"
      ],
      [
        "n",
        "er"
      ],
      [
        "j",
        "ane"
      ],
      [
        "st",
        "and"
      ],
      [
        "f",
        "lo"
      ],
      [
        "differen",
        "t"
      ],
      [
        "b",
        "it"
      ],
      [
        "to",
        "r"
      ],
      [
        "hel",
        "lo"
      ],
      [
        "to",
        "w"
      ],
      [
        "f",
        "irst"
      ],
      [
        "be",
        "came"
      ],
      [
        "do",
        "es"
      ],
      [
        "h",
        "igh"
      ],
      [
        "read",
        "y"
      ],
      [
        "clo",
        "ser"
      ],
      [
        "curi",
        "ous"
      ],
      [
        "ke",
        "y"
      ],
      [
        "s",
        "and"
      ],
      [
        "w",
        "arm"
      ],
      [
        "um",
        "my"
      ],
      [
        "jo",
        "e"
      ],
      [
        "un",
        "g"
      ],
      [
        "il",
        "a"
      ],
      [
        "laug",
        "h"
      ],
      [
        "th",
        "ree"
      ],
      [
        "fa",
        "v"
      ],
      [
        "f",
        "ro"
      ],
      [
        "grand",
        "ma"
      ],
      [
        "dre",
        "ss"
      ],
      [
        "p",
        "ie"
      ],
      [
        "op",
        "en"
      ],
      [
        "l",
        "ila"
      ],
      [
        "r",
        "ough"
      ],
      [
        "le",
        "ep"
      ],
      [
        "on",
        "d"
      ],
      [
        "t",
        "en"
      ],
      [
        "p",
        "ul"
      ],
      [
        "any",
        "more"
      ],
      [
        "but",
        "ter"
      ],
      [
        "bun",
        "ny"
      ],
      [
        "s",
        "it"
      ],
      [
        "flow",
        "er"
      ],
      [
        "k",
        "id"
      ],
      [
        "g",
        "rabb"
      ],
      [
        "ir",
        "ed"
      ],
      [
        "on",
        "ly"
      ],
      [
        "p",
        "ain"
      ],
      [
        "m",
        "ed"
      ],
      [
        "b",
        "a"
      ],
      [
        "grabb",
        "ed"
      ],
      [
        "y",
        "el"
      ],
      [
        "fi",
        "re"
      ],
      [
        "l",
        "ight"
      ],
      [
        "is",
        "y"
      ],
      [
        "tim",
        "es"
      ],
      [
        "d",
        "ro"
      ],
      [
        "fel",
        "l"
      ],
      [
        "ro",
        "ck"
      ],
      [
        "bird",
        "s"
      ],
      [
        "de",
        "li"
      ],
      [
        "jump",
        "ed"
      ],
      [
        "g",
        "lad"
      ],
      [
        "che",
        "n"
      ],
      [
        "kit",
        "chen"
      ],
      [
        "p",
        "are"
      ],
      [
        "er",
        "ed"
      ],
      [
        "c",
        "ut"
      ],
      [
        "f",
        "f"
      ],
      [
        "help",
        "ed"
      ],
      [
        "c",
        "ket"
      ],
      [
        "a",
        "ir"
      ],
      [
        "ou",
        "ted"
      ],
      [
        "pr",
        "in"
      ],
      [
        "b",
        "rea"
      ],
      [
        "o",
        "w"
      ],
      [
        "s",
        "ed"
      ],
      [
        "to",
        "p"
      ],
      [
        "happ",
        "ened"
      ],
      [
        "as",
        "h"
      ],
      [
        "y",
        "ummy"
      ],
      [
        "we",
        "l"
      ],
      [
        "re",
        "l"
      ],
      [
        "gr",
        "ass"
      ],
      [
        "b",
        "al"
      ],
      [
        "tom",
        "my"
      ],
      [
        "se",
        "es"
      ],
      [
        "sto",
        "ry"
      ],
      [
        "sh",
        "outed"
      ],
      [
        "re",
        "ally"
      ],
      [
        "ha",
        "ving"
      ],
      [
        "do",
        "w"
      ],
      [
        "bro",
        "ther"
      ],
      [
        "rea",
        "ched"
      ],
      [
        "d",
        "in"
      ],
      [
        "real",
        "ized"
      ],
      [
        "lad",
        "y"
      ],
      [
        "st",
        "er"
      ],
      [
        "pare",
        "n"
      ],
      [
        "th",
        "rough"
      ],
      [
        "fav",
        "or"
      ],
      [
        "dra",
        "w"
      ],
      [
        "favor",
        "ite"
      ],
      [
        "g",
        "ame"
      ],
      [
        "com",
        "ing"
      ],
      [
        "b",
        "or"
      ],
      [
        "pie",
        "ce"
      ],
      [
        "so",
        "ft"
      ],
      [
        "z",
        "y"
      ],
      [
        "t",
        "ra"
      ],
      [
        "mag",
        "ic"
      ],
      [
        "pret",
        "end"
      ],
      [
        "be",
        "gan"
      ],
      [
        "r",
        "ay"
      ],
      [
        "wor",
        "ld"
      ],
      [
        "look",
        "s"
      ],
      [
        "swe",
        "et"
      ],
      [
        "kid",
        "s"
      ],
      [
        "d",
        "one"
      ],
      [
        "c",
        "ra"
      ],
      [
        "him",
        "self"
      ],
      [
        "co",
        "l"
      ],
      [
        "ma",
        "king"
      ],
      [
        "wo",
        "w"
      ],
      [
        "some",
        "times"
      ],
      [
        "m",
        "ouse"
      ],
      [
        "pr",
        "om"
      ],
      [
        "p",
        "ond"
      ],
      [
        "wa",
        "ved"
      ],
      [
        "mo",
        "ve"
      ],
      [
        "t",
        "ired"
      ],
      [
        "fi",
        "x"
      ],
      [
        "ck",
        "ed"
      ],
      [
        "f",
        "ill"
      ],
      [
        "car",
        "s"
      ],
      [
        "wor",
        "ry"
      ],
      [
        "s",
        "n"
      ],
      [
        "p",
        "ed"
      ],
      [
        "deli",
        "c"
      ],
      [
        "nam",
        "e"
      ],
      [
        "ho",
        "ld"
      ],
      [
        "co",
        "ld"
      ],
      [
        "paren",
        "ts"
      ],
      [
        "tou",
        "ch"
      ],
      [
        "sa",
        "lly"
      ],
      [
        "cat",
        "ch"
      ],
      [
        "fun",
        "ny"
      ],
      [
        "an",
        "other"
      ],
      [
        "f",
        "arm"
      ],
      [
        "se",
        "en"
      ],
      [
        "at",
        "er"
      ],
      [
        "p",
        "ro"
      ],
      [
        "surpr",
        "ise"
      ],
      [
        "i",
        "ent"
      ],
      [
        "b",
        "ab"
      ],
      [
        "da",
        "isy"
      ],
      [
        "gre",
        "en"
      ],
      [
        "ri",
        "ver"
      ],
      [
        "do",
        "ing"
      ],
      [
        "ho",
        "pped"
      ],
      [
        "c",
        "ried"
      ],
      [
        "one",
        "y"
      ],
      [
        "blo",
        "cks"
      ],
      [
        "d",
        "s"
      ],
      [
        "co",
        "ol"
      ],
      [
        "\"",
        "."
      ],
      [
        "c",
        "or"
      ],
      [
        "on",
        "s"
      ],
      [
        "year",
        "s"
      ],
      [
        "clo",
        "se"
      ],
      [
        "a",
        "ge"
      ],
      [
        "m",
        "ess"
      ],
      [
        "wo",
        "od"
      ],
      [
        "turn",
        "ed"
      ],
      [
        "clim",
        "b"
      ],
      [
        "and",
        "y"
      ],
      [
        "s",
        "now"
      ],
      [
        "flo",
        "or"
      ],
      [
        "h",
        "ind"
      ],
      [
        "sa",
        "t"
      ],
      [
        "fro",
        "g"
      ],
      [
        "c",
        "la"
      ],
      [
        "be",
        "hind"
      ],
      [
        "tre",
        "es"
      ],
      [
        "ful",
        "l"
      ],
      [
        "run",
        "ning"
      ],
      [
        "less",
        "on"
      ],
      [
        "pp",
        "y"
      ],
      [
        "win",
        "dow"
      ],
      [
        "g",
        "er"
      ],
      [
        "wor",
        "ked"
      ],
      [
        "we",
        "ar"
      ],
      [
        "pl",
        "an"
      ],
      [
        "s",
        "low"
      ],
      [
        "d",
        "ark"
      ],
      [
        "yel",
        "low"
      ],
      [
        "pa",
        "per"
      ],
      [
        "like",
        "s"
      ],
      [
        "ig",
        "n"
      ],
      [
        "w",
        "ished"
      ],
      [
        "sw",
        "im"
      ],
      [
        "s",
        "leep"
      ],
      [
        "bab",
        "y"
      ],
      [
        "b",
        "ag"
      ],
      [
        "f",
        "l"
      ],
      [
        "happ",
        "ily"
      ],
      [
        "p",
        "at"
      ],
      [
        "j",
        "im"
      ],
      [
        "t",
        "as"
      ],
      [
        "surpr",
        "ised"
      ],
      [
        "ted",
        "dy"
      ],
      [
        "c",
        "as"
      ],
      [
        "butter",
        "fly"
      ],
      [
        "careful",
        "ly"
      ],
      [
        "pe",
        "t"
      ],
      [
        "ben",
        "ny"
      ],
      [
        "y",
        "ard"
      ],
      [
        "ho",
        "le"
      ],
      [
        "lo",
        "st"
      ],
      [
        "remember",
        "ed"
      ],
      [
        "he",
        "ld"
      ],
      [
        "ra",
        "ce"
      ],
      [
        "s",
        "y"
      ],
      [
        "b",
        "ar"
      ],
      [
        "need",
        "ed"
      ],
      [
        "bu",
        "y"
      ],
      [
        "fa",
        "ir"
      ],
      [
        "cas",
        "tle"
      ],
      [
        "ar",
        "ri"
      ],
      [
        "le",
        "ft"
      ],
      [
        "dre",
        "am"
      ],
      [
        "b",
        "illy"
      ],
      [
        "any",
        "thing"
      ],
      [
        "re",
        "ed"
      ],
      [
        "ch",
        "il"
      ],
      [
        "at",
        "ion"
      ],
      [
        "w",
        "rong"
      ],
      [
        "enjoy",
        "ed"
      ],
      [
        "t",
        "ri"
      ],
      [
        "b",
        "ug"
      ],
      [
        "dre",
        "n"
      ],
      [
        "f",
        "ar"
      ],
      [
        "g",
        "en"
      ],
      [
        "chil",
        "dren"
      ],
      [
        "d",
        "uck"
      ],
      [
        "follow",
        "ed"
      ],
      [
        "st",
        "ran"
      ],
      [
        "m",
        "at"
      ],
      [
        "in",
        "ed"
      ],
      [
        "ro",
        "ss"
      ],
      [
        "delic",
        "ious"
      ],
      [
        "w",
        "ind"
      ],
      [
        "some",
        "one"
      ],
      [
        "h",
        "ung"
      ],
      [
        "a",
        "k"
      ],
      [
        "mo",
        "lly"
      ],
      [
        "fin",
        "ished"
      ],
      [
        "bo",
        "t"
      ],
      [
        "ho",
        "t"
      ],
      [
        "friend",
        "ly"
      ],
      [
        "con",
        "tin"
      ],
      [
        "d",
        "ir"
      ],
      [
        "contin",
        "u"
      ],
      [
        "sp",
        "o"
      ],
      [
        "t",
        "all"
      ],
      [
        "ag",
        "reed"
      ],
      [
        "her",
        "self"
      ],
      [
        "am",
        "y"
      ],
      [
        "ce",
        "ss"
      ],
      [
        "v",
        "is"
      ],
      [
        "h",
        "ill"
      ],
      [
        "a",
        "ther"
      ],
      [
        "under",
        "stand"
      ],
      [
        "ard",
        "s"
      ],
      [
        "ok",
        "en"
      ],
      [
        "t",
        "r"
      ],
      [
        "m",
        "ight"
      ],
      [
        "h",
        "id"
      ],
      [
        "every",
        "where"
      ],
      [
        "arri",
        "ved"
      ],
      [
        "l",
        "and"
      ],
      [
        "ing",
        "s"
      ],
      [
        "wonder",
        "ful"
      ],
      [
        "el",
        "se"
      ],
      [
        "br",
        "oken"
      ],
      [
        "z",
        "o"
      ],
      [
        "t",
        "ight"
      ],
      [
        "for",
        "got"
      ],
      [
        "ie",
        "ld"
      ],
      [
        "p",
        "ink"
      ],
      [
        "mo",
        "st"
      ],
      [
        "squ",
        "ir"
      ],
      [
        "color",
        "s"
      ],
      [
        "qu",
        "e"
      ],
      [
        "j",
        "en"
      ],
      [
        "an",
        "ge"
      ],
      [
        "bu",
        "ild"
      ],
      [
        "g",
        "one"
      ],
      [
        "fill",
        "ed"
      ],
      [
        "c",
        "oun"
      ],
      [
        "er",
        "ous"
      ],
      [
        "f",
        "ur"
      ],
      [
        "i",
        "ke"
      ],
      [
        "book",
        "s"
      ],
      [
        "s",
        "ong"
      ],
      [
        "f",
        "ight"
      ],
      [
        "every",
        "thing"
      ],
      [
        "squir",
        "rel"
      ],
      [
        "mo",
        "ther"
      ],
      [
        "li",
        "on"
      ],
      [
        "w",
        "i"
      ],
      [
        "continu",
        "ed"
      ],
      [
        "cre",
        "at"
      ],
      [
        "as",
        "ure"
      ],
      [
        "che",
        "s"
      ],
      [
        "ar",
        "t"
      ],
      [
        "wan",
        "ts"
      ],
      [
        "leave",
        "s"
      ],
      [
        "c",
        "ed"
      ],
      [
        "l",
        "ater"
      ],
      [
        "get",
        "ting"
      ],
      [
        "en",
        "ough"
      ],
      [
        "fr",
        "u"
      ],
      [
        "mor",
        "ning"
      ],
      [
        "m",
        "ama"
      ],
      [
        "mom",
        "ent"
      ],
      [
        "f",
        "all"
      ],
      [
        "o",
        "h"
      ],
      [
        "cook",
        "ies"
      ],
      [
        "brea",
        "k"
      ],
      [
        "stay",
        "ed"
      ],
      [
        "po",
        "in"
      ],
      [
        "p",
        "en"
      ],
      [
        "be",
        "ach"
      ],
      [
        "z",
        "e"
      ],
      [
        "scar",
        "y"
      ],
      [
        "w",
        "his"
      ],
      [
        "st",
        "u"
      ],
      [
        "fe",
        "w"
      ],
      [
        "din",
        "ner"
      ],
      [
        "ta",
        "in"
      ],
      [
        "to",
        "day"
      ],
      [
        "sp",
        "ark"
      ],
      [
        "fe",
        "ct"
      ],
      [
        "hung",
        "ry"
      ],
      [
        "we",
        "t"
      ],
      [
        "en",
        "ce"
      ],
      [
        "d",
        "r"
      ],
      [
        "amaz",
        "ing"
      ],
      [
        "try",
        "ing"
      ],
      [
        "per",
        "fect"
      ],
      [
        "p",
        "ack"
      ],
      [
        "f",
        "as"
      ],
      [
        "pl",
        "ain"
      ],
      [
        "be",
        "e"
      ],
      [
        "make",
        "s"
      ],
      [
        "other",
        "s"
      ],
      [
        "ask",
        "s"
      ],
      [
        "clim",
        "bed"
      ],
      [
        "tal",
        "k"
      ],
      [
        "mu",
        "s"
      ],
      [
        "picture",
        "s"
      ],
      [
        "co",
        "ver"
      ],
      [
        "ta",
        "il"
      ],
      [
        "s",
        "pl"
      ],
      [
        "k",
        "no"
      ],
      [
        "ic",
        "y"
      ],
      [
        "wh",
        "ite"
      ],
      [
        "t",
        "w"
      ],
      [
        "s",
        "is"
      ],
      [
        "to",
        "n"
      ],
      [
        "p",
        "es"
      ],
      [
        "h",
        "i"
      ],
      [
        "list",
        "ened"
      ],
      [
        "fo",
        "x"
      ],
      [
        "bro",
        "wn"
      ],
      [
        "smil",
        "es"
      ],
      [
        "bal",
        "lo"
      ],
      [
        "ro",
        "ll"
      ],
      [
        "j",
        "ill"
      ],
      [
        "re",
        "w"
      ],
      [
        "w",
        "all"
      ],
      [
        "clo",
        "the"
      ],
      [
        "al",
        "one"
      ],
      [
        "pu",
        "ppy"
      ],
      [
        "a",
        "v"
      ],
      [
        "clothe",
        "s"
      ],
      [
        "ou",
        "p"
      ],
      [
        "t",
        "rain"
      ],
      [
        "at",
        "ed"
      ],
      [
        "an",
        "ce"
      ],
      [
        "d",
        "ang"
      ],
      [
        "br",
        "ought"
      ],
      [
        "stran",
        "ge"
      ],
      [
        "se",
        "ar"
      ],
      [
        "me",
        "t"
      ],
      [
        "app",
        "ear"
      ],
      [
        "g",
        "row"
      ],
      [
        "de",
        "ep"
      ],
      [
        "wood",
        "s"
      ],
      [
        "sa",
        "il"
      ],
      [
        "b",
        "ike"
      ],
      [
        "we",
        "ll"
      ],
      [
        "pul",
        "led"
      ],
      [
        "mor",
        "al"
      ],
      [
        "l",
        "ing"
      ],
      [
        "r",
        "ide"
      ],
      [
        "z",
        "z"
      ],
      [
        "pp",
        "ing"
      ],
      [
        "tre",
        "at"
      ],
      [
        "ff",
        "y"
      ],
      [
        "f",
        "lu"
      ],
      [
        "dra",
        "g"
      ],
      [
        "g",
        "i"
      ],
      [
        "h",
        "or"
      ],
      [
        "was",
        "n"
      ],
      [
        "mus",
        "ic"
      ],
      [
        "la",
        "ke"
      ],
      [
        "wa",
        "ited"
      ],
      [
        "na",
        "p"
      ],
      [
        "amaz",
        "ed"
      ],
      [
        "h",
        "ide"
      ],
      [
        "flu",
        "ffy"
      ],
      [
        "ba",
        "th"
      ],
      [
        "p",
        "ur"
      ],
      [
        "tow",
        "ards"
      ],
      [
        "f",
        "ield"
      ],
      [
        "j",
        "e"
      ],
      [
        "s",
        "illy"
      ],
      [
        "fly",
        "ing"
      ],
      [
        "th",
        "y"
      ],
      [
        "be",
        "lie"
      ],
      [
        "s",
        "c"
      ],
      [
        "own",
        "er"
      ],
      [
        "cl",
        "oud"
      ],
      [
        "sha",
        "red"
      ],
      [
        "run",
        "s"
      ],
      [
        "slow",
        "ly"
      ],
      [
        "vis",
        "it"
      ],
      [
        "qu",
        "ie"
      ],
      [
        "li",
        "ving"
      ],
      [
        "jo",
        "b"
      ],
      [
        "d",
        "u"
      ],
      [
        "am",
        "es"
      ],
      [
        "prom",
        "ised"
      ],
      [
        "dan",
        "ce"
      ],
      [
        "p",
        "ers"
      ],
      [
        "se",
        "s"
      ],
      [
        "think",
        "s"
      ],
      [
        "mar",
        "y"
      ],
      [
        "sis",
        "ter"
      ],
      [
        "m",
        "ind"
      ],
      [
        "par",
        "ty"
      ],
      [
        "mu",
        "st"
      ],
      [
        "m",
        "oney"
      ],
      [
        "quie",
        "t"
      ],
      [
        "is",
        "es"
      ],
      [
        "lu",
        "ck"
      ],
      [
        "b",
        "ran"
      ],
      [
        "wor",
        "ried"
      ],
      [
        "an",
        "sw"
      ],
      [
        "c",
        "hair"
      ],
      [
        "as",
        "ed"
      ],
      [
        "gr",
        "ate"
      ],
      [
        "fas",
        "ter"
      ],
      [
        "grate",
        "ful"
      ],
      [
        "c",
        "up"
      ],
      [
        "p",
        "ass"
      ],
      [
        "um",
        "b"
      ],
      [
        "color",
        "ful"
      ],
      [
        "piece",
        "s"
      ],
      [
        "m",
        "ent"
      ],
      [
        "m",
        "r"
      ],
      [
        "ex",
        "plain"
      ],
      [
        "c",
        "tor"
      ],
      [
        "m",
        "in"
      ],
      [
        "ig",
        "g"
      ],
      [
        "jo",
        "in"
      ],
      [
        "bro",
        "ke"
      ],
      [
        "g",
        "if"
      ],
      [
        "su",
        "ch"
      ],
      [
        "big",
        "ger"
      ],
      [
        "wel",
        "come"
      ],
      [
        "c",
        "ou"
      ],
      [
        "g",
        "ra"
      ],
      [
        "c",
        "andy"
      ],
      [
        "she",
        "s"
      ],
      [
        "e",
        "le"
      ],
      [
        "sn",
        "ack"
      ],
      [
        "mon",
        "ster"
      ],
      [
        "re",
        "ach"
      ],
      [
        "bo",
        "ard"
      ],
      [
        "k",
        "is"
      ],
      [
        "bl",
        "an"
      ],
      [
        "bl",
        "ack"
      ],
      [
        "d",
        "ry"
      ],
      [
        "farm",
        "er"
      ],
      [
        "he",
        "av"
      ],
      [
        "u",
        "ally"
      ],
      [
        "d",
        "es"
      ],
      [
        "mon",
        "key"
      ],
      [
        "star",
        "t"
      ],
      [
        "t",
        "win"
      ],
      [
        "wor",
        "ds"
      ],
      [
        "tre",
        "asure"
      ],
      [
        "s",
        "cream"
      ],
      [
        "magic",
        "al"
      ],
      [
        "drag",
        "on"
      ],
      [
        "dang",
        "erous"
      ],
      [
        "s",
        "ign"
      ],
      [
        "e",
        "vent"
      ],
      [
        "help",
        "ing"
      ],
      [
        "ac",
        "ross"
      ],
      [
        "m",
        "il"
      ],
      [
        "m",
        "ing"
      ],
      [
        "prin",
        "cess"
      ],
      [
        "d",
        "ri"
      ],
      [
        "jim",
        "my"
      ],
      [
        "sm",
        "art"
      ],
      [
        "am",
        "p"
      ],
      [
        "j",
        "a"
      ],
      [
        "ou",
        "th"
      ],
      [
        "m",
        "outh"
      ],
      [
        "sm",
        "el"
      ],
      [
        "o",
        "se"
      ],
      [
        "ro",
        "t"
      ],
      [
        "our",
        "se"
      ],
      [
        "happ",
        "en"
      ],
      [
        "d",
        "i"
      ],
      [
        "belie",
        "ve"
      ],
      [
        "pl",
        "ane"
      ],
      [
        "sha",
        "r"
      ],
      [
        "doll",
        "s"
      ],
      [
        "tow",
        "er"
      ],
      [
        "th",
        "rew"
      ],
      [
        "ste",
        "pped"
      ],
      [
        "heav",
        "y"
      ],
      [
        "b",
        "ite"
      ],
      [
        "do",
        "ctor"
      ],
      [
        "bow",
        "l"
      ],
      [
        "dir",
        "ty"
      ],
      [
        "twin",
        "s"
      ],
      [
        "sa",
        "me"
      ],
      [
        "cry",
        "ing"
      ],
      [
        "ve",
        "s"
      ],
      [
        "id",
        "ent"
      ],
      [
        "mum",
        "my"
      ],
      [
        "w",
        "ave"
      ],
      [
        "he",
        "al"
      ],
      [
        "h",
        "ig"
      ],
      [
        "appear",
        "ed"
      ],
      [
        "s",
        "cho"
      ],
      [
        "a",
        "p"
      ],
      [
        "scho",
        "ol"
      ],
      [
        "clo",
        "sed"
      ],
      [
        "w",
        "ag"
      ],
      [
        "st",
        "uck"
      ],
      [
        "b",
        "as"
      ],
      [
        "ballo",
        "on"
      ],
      [
        "pre",
        "ss"
      ],
      [
        "em",
        "ma"
      ],
      [
        "l",
        "un"
      ],
      [
        "with",
        "out"
      ],
      [
        "mi",
        "x"
      ],
      [
        "eat",
        "ing"
      ],
      [
        "ho",
        "ped"
      ],
      [
        "po",
        "w"
      ],
      [
        "fair",
        "y"
      ],
      [
        "pain",
        "t"
      ],
      [
        "pul",
        "l"
      ],
      [
        "to",
        "wn"
      ],
      [
        "feel",
        "s"
      ],
      [
        "w",
        "r"
      ],
      [
        "it",
        "ing"
      ],
      [
        "g",
        "s"
      ],
      [
        "m",
        "it"
      ],
      [
        "c",
        "ray"
      ],
      [
        "would",
        "n"
      ],
      [
        "c",
        "ourse"
      ],
      [
        "v",
        "al"
      ],
      [
        "cla",
        "pped"
      ],
      [
        "sto",
        "od"
      ],
      [
        "f",
        "ree"
      ],
      [
        "but",
        "ton"
      ],
      [
        "gen",
        "tle"
      ],
      [
        "t",
        "ent"
      ],
      [
        "com",
        "for"
      ],
      [
        "ch",
        "ild"
      ],
      [
        "event",
        "ually"
      ],
      [
        "take",
        "s"
      ],
      [
        "bas",
        "ket"
      ],
      [
        "you",
        "n"
      ],
      [
        "p",
        "op"
      ],
      [
        "al",
        "ong"
      ],
      [
        "dro",
        "ve"
      ],
      [
        "shin",
        "e"
      ],
      [
        "pu",
        "shed"
      ],
      [
        "r",
        "ound"
      ],
      [
        "hig",
        "her"
      ],
      [
        "che",
        "e"
      ],
      [
        "ne",
        "igh"
      ],
      [
        "ph",
        "one"
      ],
      [
        "te",
        "ac"
      ],
      [
        "ac",
        "c"
      ],
      [
        "teac",
        "her"
      ],
      [
        "swing",
        "s"
      ],
      [
        "m",
        "ine"
      ],
      [
        "ar",
        "y"
      ],
      [
        "blan",
        "ket"
      ],
      [
        "ste",
        "ad"
      ],
      [
        "st",
        "r"
      ],
      [
        "m",
        "ark"
      ],
      [
        "acc",
        "ident"
      ],
      [
        "g",
        "ames"
      ],
      [
        "w",
        "ise"
      ],
      [
        "che",
        "ered"
      ],
      [
        "mo",
        "ved"
      ],
      [
        "sm",
        "o"
      ],
      [
        "j",
        "our"
      ],
      [
        "w",
        "ings"
      ],
      [
        "explain",
        "ed"
      ],
      [
        "long",
        "er"
      ],
      [
        "s",
        "na"
      ],
      [
        "co",
        "in"
      ],
      [
        "i",
        "ble"
      ],
      [
        "l",
        "ate"
      ],
      [
        "be",
        "l"
      ],
      [
        "ne",
        "y"
      ],
      [
        "w",
        "ish"
      ],
      [
        "th",
        "row"
      ],
      [
        "t",
        "u"
      ],
      [
        "p",
        "s"
      ],
      [
        "no",
        "ises"
      ],
      [
        "s",
        "ang"
      ],
      [
        "sto",
        "ne"
      ],
      [
        "th",
        "ough"
      ],
      [
        "hug",
        "s"
      ],
      [
        "turn",
        "s"
      ],
      [
        "app",
        "le"
      ],
      [
        "st",
        "re"
      ],
      [
        "sto",
        "ries"
      ],
      [
        "sing",
        "ing"
      ],
      [
        "tin",
        "y"
      ],
      [
        "in",
        "stead"
      ],
      [
        "sho",
        "es"
      ],
      [
        "l",
        "one"
      ],
      [
        "ele",
        "ph"
      ],
      [
        "ow",
        "l"
      ],
      [
        "adventure",
        "s"
      ],
      [
        "d",
        "el"
      ],
      [
        "tr",
        "ou"
      ],
      [
        "ne",
        "ck"
      ],
      [
        "lun",
        "ch"
      ],
      [
        "j",
        "ar"
      ],
      [
        "se",
        "a"
      ],
      [
        "f",
        "ence"
      ],
      [
        "up",
        "set"
      ],
      [
        "lone",
        "ly"
      ],
      [
        "youn",
        "g"
      ],
      [
        "st",
        "ree"
      ],
      [
        "d",
        "ist"
      ],
      [
        "se",
        "cre"
      ],
      [
        "be",
        "long"
      ],
      [
        "hear",
        "t"
      ],
      [
        "oun",
        "tain"
      ],
      [
        "mis",
        "s"
      ],
      [
        "s",
        "oup"
      ],
      [
        "ad",
        "d"
      ],
      [
        "explo",
        "ring"
      ],
      [
        "near",
        "by"
      ],
      [
        "ne",
        "e"
      ],
      [
        "sho",
        "ok"
      ],
      [
        "no",
        "thing"
      ],
      [
        "our",
        "s"
      ],
      [
        "po",
        "cket"
      ],
      [
        "sam",
        "my"
      ],
      [
        "na",
        "ught"
      ],
      [
        "br",
        "ing"
      ],
      [
        "naught",
        "y"
      ],
      [
        "star",
        "s"
      ],
      [
        "ta",
        "king"
      ],
      [
        "h",
        "it"
      ],
      [
        "f",
        "used"
      ],
      [
        "sh",
        "ip"
      ],
      [
        "for",
        "get"
      ],
      [
        "sun",
        "ny"
      ],
      [
        "c",
        "al"
      ],
      [
        "re",
        "s"
      ],
      [
        "ca",
        "ught"
      ],
      [
        "co",
        "w"
      ],
      [
        "dr",
        "ink"
      ],
      [
        "pur",
        "ple"
      ],
      [
        "wo",
        "ke"
      ],
      [
        "back",
        "yard"
      ],
      [
        "see",
        "med"
      ],
      [
        "ro",
        "cks"
      ],
      [
        "re",
        "lie"
      ],
      [
        "f",
        "it"
      ],
      [
        "whe",
        "never"
      ],
      [
        "bo",
        "dy"
      ],
      [
        "s",
        "li"
      ],
      [
        "p",
        "an"
      ],
      [
        "ma",
        "il"
      ],
      [
        "dro",
        "pped"
      ],
      [
        "da",
        "ught"
      ],
      [
        "ec",
        "t"
      ],
      [
        "daught",
        "er"
      ],
      [
        "or",
        "ange"
      ],
      [
        "co",
        "at"
      ],
      [
        "stree",
        "t"
      ],
      [
        "sw",
        "am"
      ],
      [
        "m",
        "m"
      ],
      [
        "s",
        "ent"
      ],
      [
        "sho",
        "p"
      ],
      [
        "day",
        "s"
      ],
      [
        "par",
        "t"
      ],
      [
        "mit",
        "ten"
      ],
      [
        "sha",
        "pes"
      ],
      [
        "ion",
        "s"
      ],
      [
        "rain",
        "bow"
      ],
      [
        "d",
        "river"
      ],
      [
        "p",
        "il"
      ],
      [
        "sit",
        "ting"
      ],
      [
        "sound",
        "s"
      ],
      [
        "ben",
        "ch"
      ],
      [
        "po",
        "t"
      ],
      [
        "f",
        "ing"
      ],
      [
        "come",
        "s"
      ],
      [
        "b",
        "oun"
      ],
      [
        "bu",
        "sy"
      ],
      [
        "wonder",
        "ed"
      ],
      [
        "i",
        "er"
      ],
      [
        "s",
        "co"
      ],
      [
        "ne",
        "st"
      ],
      [
        "luck",
        "y"
      ],
      [
        "no",
        "se"
      ],
      [
        "h",
        "u"
      ],
      [
        "ju",
        "ice"
      ],
      [
        "er",
        "ful"
      ],
      [
        "p",
        "ig"
      ],
      [
        "ug",
        "g"
      ],
      [
        "k",
        "ite"
      ],
      [
        "hold",
        "ing"
      ],
      [
        "we",
        "e"
      ],
      [
        "sm",
        "ell"
      ],
      [
        "s",
        "ug"
      ],
      [
        "c",
        "er"
      ],
      [
        "p",
        "ra"
      ],
      [
        "ma",
        "ch"
      ],
      [
        "c",
        "ing"
      ],
      [
        "arm",
        "s"
      ],
      [
        "bir",
        "th"
      ],
      [
        "ro",
        "wn"
      ],
      [
        "b",
        "and"
      ],
      [
        "c",
        "ir"
      ],
      [
        "bot",
        "tle"
      ],
      [
        "prom",
        "ise"
      ],
      [
        "ul",
        "l"
      ],
      [
        "cut",
        "e"
      ],
      [
        "birth",
        "day"
      ],
      [
        "love",
        "s"
      ],
      [
        "secre",
        "t"
      ],
      [
        "bran",
        "ch"
      ],
      [
        "que",
        "st"
      ],
      [
        "relie",
        "ved"
      ],
      [
        "pp",
        "er"
      ],
      [
        "ra",
        "id"
      ],
      [
        "eleph",
        "ant"
      ],
      [
        "af",
        "raid"
      ],
      [
        "zo",
        "om"
      ],
      [
        "un",
        "i"
      ],
      [
        "id",
        "ge"
      ],
      [
        "fore",
        "ver"
      ],
      [
        "t",
        "un"
      ],
      [
        "g",
        "l"
      ],
      [
        "pe",
        "ace"
      ],
      [
        "car",
        "ry"
      ],
      [
        "s",
        "ick"
      ],
      [
        "gif",
        "t"
      ],
      [
        "jen",
        "ny"
      ],
      [
        "li",
        "fe"
      ],
      [
        "pu",
        "sh"
      ],
      [
        "ho",
        "pe"
      ],
      [
        "chee",
        "se"
      ],
      [
        "sp",
        "in"
      ],
      [
        "hu",
        "ge"
      ],
      [
        "tou",
        "ched"
      ],
      [
        "bu",
        "cket"
      ],
      [
        "pat",
        "ient"
      ],
      [
        "ar",
        "s"
      ],
      [
        "gra",
        "b"
      ],
      [
        "li",
        "ve"
      ],
      [
        "cover",
        "ed"
      ],
      [
        "or",
        "n"
      ],
      [
        "h",
        "oney"
      ],
      [
        "let",
        "ter"
      ],
      [
        "in",
        "te"
      ],
      [
        "inte",
        "rest"
      ],
      [
        "w",
        "and"
      ],
      [
        "exc",
        "iting"
      ],
      [
        "w",
        "ra"
      ],
      [
        "im",
        "ag"
      ],
      [
        "ve",
        "l"
      ],
      [
        "on",
        "to"
      ],
      [
        "bu",
        "sh"
      ],
      [
        "laugh",
        "ing"
      ],
      [
        "he",
        "y"
      ],
      [
        "g",
        "igg"
      ],
      [
        "te",
        "st"
      ],
      [
        "jour",
        "ney"
      ],
      [
        "ge",
        "st"
      ],
      [
        "creat",
        "ure"
      ],
      [
        "b",
        "read"
      ],
      [
        "k",
        "ick"
      ],
      [
        "b",
        "ru"
      ],
      [
        "w",
        "ard"
      ],
      [
        "she",
        "ll"
      ],
      [
        "ac",
        "t"
      ],
      [
        "cra",
        "w"
      ],
      [
        "ho",
        "p"
      ],
      [
        "swim",
        "ming"
      ],
      [
        "sun",
        "shine"
      ],
      [
        "su",
        "c"
      ],
      [
        "co",
        "zy"
      ],
      [
        "em",
        "ily"
      ],
      [
        "bu",
        "bb"
      ],
      [
        "ne",
        "ss"
      ],
      [
        "e",
        "as"
      ],
      [
        "mil",
        "k"
      ],
      [
        "give",
        "s"
      ],
      [
        "c",
        "ha"
      ],
      [
        "watch",
        "ing"
      ],
      [
        "ne",
        "t"
      ],
      [
        "pu",
        "dd"
      ],
      [
        "ro",
        "ar"
      ],
      [
        "accident",
        "ally"
      ],
      [
        "ca",
        "ve"
      ],
      [
        "sh",
        "out"
      ],
      [
        "shar",
        "p"
      ],
      [
        "e",
        "g"
      ],
      [
        "i",
        "an"
      ],
      [
        "put",
        "s"
      ],
      [
        "col",
        "le"
      ],
      [
        "tal",
        "ked"
      ],
      [
        "f",
        "an"
      ],
      [
        "sto",
        "r"
      ],
      [
        "poin",
        "ted"
      ],
      [
        "g",
        "ather"
      ],
      [
        "mitten",
        "s"
      ],
      [
        "ro",
        "ad"
      ],
      [
        "smil",
        "ing"
      ],
      [
        "neigh",
        "bor"
      ],
      [
        "any",
        "one"
      ],
      [
        "sna",
        "ke"
      ],
      [
        "b",
        "ought"
      ],
      [
        "sear",
        "ched"
      ],
      [
        "ad",
        "e"
      ],
      [
        "app",
        "les"
      ],
      [
        "sand",
        "wi"
      ],
      [
        "n",
        "ic"
      ],
      [
        "she",
        "lf"
      ],
      [
        "stor",
        "m"
      ],
      [
        "pro",
        "ble"
      ],
      [
        "proble",
        "m"
      ],
      [
        "i",
        "a"
      ],
      [
        "wor",
        "d"
      ],
      [
        "spl",
        "ash"
      ],
      [
        "iz",
        "e"
      ],
      [
        "w",
        "ide"
      ],
      [
        "the",
        "se"
      ],
      [
        "in",
        "v"
      ],
      [
        "wh",
        "i"
      ],
      [
        "w",
        "om"
      ],
      [
        "sp",
        "id"
      ],
      [
        "heal",
        "thy"
      ],
      [
        "interest",
        "ing"
      ],
      [
        "ir",
        "t"
      ],
      [
        "wom",
        "an"
      ],
      [
        "b",
        "ur"
      ],
      [
        "du",
        "cks"
      ],
      [
        "cir",
        "cle"
      ],
      [
        "spo",
        "on"
      ],
      [
        "s",
        "ie"
      ],
      [
        "en",
        "s"
      ],
      [
        "tas",
        "ty"
      ],
      [
        "l",
        "ar"
      ],
      [
        "p",
        "ile"
      ],
      [
        "e",
        "ag"
      ],
      [
        "v",
        "ill"
      ],
      [
        "trou",
        "ble"
      ],
      [
        "cle",
        "ver"
      ],
      [
        "ro",
        "pe"
      ],
      [
        "one",
        "s"
      ],
      [
        "cloud",
        "s"
      ],
      [
        "cray",
        "ons"
      ],
      [
        "grand",
        "pa"
      ],
      [
        "mat",
        "ter"
      ],
      [
        "pers",
        "on"
      ],
      [
        "fe",
        "ather"
      ],
      [
        "lo",
        "g"
      ],
      [
        "whi",
        "ch"
      ],
      [
        "ro",
        "se"
      ],
      [
        "pa",
        "th"
      ],
      [
        "r",
        "at"
      ],
      [
        "fr",
        "on"
      ],
      [
        "snow",
        "man"
      ],
      [
        "pro",
        "t"
      ],
      [
        "ent",
        "ly"
      ],
      [
        "fron",
        "t"
      ],
      [
        "was",
        "h"
      ],
      [
        "comfor",
        "table"
      ],
      [
        "zo",
        "o"
      ],
      [
        "shin",
        "ing"
      ],
      [
        "is",
        "a"
      ],
      [
        "smel",
        "led"
      ],
      [
        "re",
        "spec"
      ],
      [
        "pra",
        "ct"
      ],
      [
        "ja",
        "ke"
      ],
      [
        "ch",
        "ing"
      ],
      [
        "spot",
        "ted"
      ],
      [
        "val",
        "u"
      ],
      [
        "min",
        "ut"
      ],
      [
        "scream",
        "ed"
      ],
      [
        "or",
        "gan"
      ],
      [
        "mu",
        "d"
      ],
      [
        "whe",
        "el"
      ],
      [
        "lo",
        "ck"
      ],
      [
        "de",
        "st"
      ],
      [
        "dan",
        "ced"
      ],
      [
        "b",
        "an"
      ],
      [
        "se",
        "at"
      ],
      [
        "b",
        "ark"
      ],
      [
        "pu",
        "zz"
      ],
      [
        "te",
        "ach"
      ],
      [
        "my",
        "ster"
      ],
      [
        "th",
        "in"
      ],
      [
        "ber",
        "ries"
      ],
      [
        "or",
        "m"
      ],
      [
        "g",
        "y"
      ],
      [
        "hor",
        "se"
      ],
      [
        "f",
        "li"
      ],
      [
        "g",
        "ently"
      ],
      [
        "t",
        "ries"
      ],
      [
        "love",
        "ly"
      ],
      [
        "answ",
        "er"
      ],
      [
        "as",
        "leep"
      ],
      [
        "m",
        "ir"
      ],
      [
        "roll",
        "ed"
      ],
      [
        "ep",
        "end"
      ],
      [
        "wear",
        "ing"
      ],
      [
        "o",
        "b"
      ],
      [
        "w",
        "ild"
      ],
      [
        "place",
        "s"
      ],
      [
        "m",
        "el"
      ],
      [
        "go",
        "es"
      ],
      [
        "pre",
        "sent"
      ],
      [
        "who",
        "le"
      ],
      [
        "gi",
        "ant"
      ],
      [
        "l",
        "isa"
      ],
      [
        "p",
        "ill"
      ],
      [
        "st",
        "ring"
      ],
      [
        "con",
        "fused"
      ],
      [
        "fru",
        "it"
      ],
      [
        "wor",
        "m"
      ],
      [
        "st",
        "ep"
      ],
      [
        "im",
        "press"
      ],
      [
        "cor",
        "ner"
      ],
      [
        "sha",
        "ring"
      ],
      [
        "dir",
        "t"
      ],
      [
        "ul",
        "ar"
      ],
      [
        "respec",
        "t"
      ],
      [
        "ch",
        "ick"
      ],
      [
        "car",
        "d"
      ],
      [
        "cal",
        "m"
      ],
      [
        "cor",
        "n"
      ],
      [
        "ri",
        "ch"
      ],
      [
        "v",
        "ie"
      ],
      [
        "sl",
        "id"
      ],
      [
        "ru",
        "bb"
      ],
      [
        "tas",
        "ted"
      ],
      [
        "for",
        "give"
      ],
      [
        "ce",
        "an"
      ],
      [
        "o",
        "cean"
      ],
      [
        "ru",
        "de"
      ],
      [
        "pic",
        "nic"
      ],
      [
        "te",
        "e"
      ],
      [
        "mach",
        "ine"
      ],
      [
        "too",
        "l"
      ],
      [
        "dri",
        "ve"
      ],
      [
        "tru",
        "e"
      ],
      [
        "sp",
        "ent"
      ],
      [
        "tee",
        "th"
      ],
      [
        "in",
        "c"
      ],
      [
        "spid",
        "er"
      ],
      [
        "fur",
        "ry"
      ],
      [
        "c",
        "har"
      ],
      [
        "cook",
        "ie"
      ],
      [
        "l",
        "ay"
      ],
      [
        "p",
        "our"
      ],
      [
        "o",
        "ven"
      ],
      [
        "kit",
        "ty"
      ],
      [
        "pretend",
        "ed"
      ],
      [
        "p",
        "ast"
      ],
      [
        "fight",
        "ing"
      ],
      [
        "l",
        "ast"
      ],
      [
        "fe",
        "et"
      ],
      [
        "sh",
        "r"
      ],
      [
        "n",
        "ut"
      ],
      [
        "tom",
        "or"
      ],
      [
        "fo",
        "ld"
      ],
      [
        "face",
        "s"
      ],
      [
        "pe",
        "ter"
      ],
      [
        "tomor",
        "row"
      ],
      [
        "sh",
        "y"
      ],
      [
        "te",
        "a"
      ],
      [
        "t",
        "i"
      ],
      [
        "er",
        "ly"
      ],
      [
        "help",
        "ful"
      ],
      [
        "um",
        "ber"
      ],
      [
        "sp",
        "e"
      ],
      [
        "fin",
        "ish"
      ],
      [
        "h",
        "ang"
      ],
      [
        "as",
        "hed"
      ],
      [
        "an",
        "n"
      ],
      [
        "cho",
        "col"
      ],
      [
        "g",
        "race"
      ],
      [
        "m",
        "ountain"
      ],
      [
        "it",
        "y"
      ],
      [
        "la",
        "ce"
      ],
      [
        "peace",
        "ful"
      ],
      [
        "tal",
        "king"
      ],
      [
        "stre",
        "t"
      ],
      [
        "squ",
        "e"
      ],
      [
        "o",
        "th"
      ],
      [
        "st",
        "air"
      ],
      [
        "t",
        "id"
      ],
      [
        "sp",
        "read"
      ],
      [
        "lad",
        "der"
      ],
      [
        "be",
        "ll"
      ],
      [
        "jo",
        "ke"
      ],
      [
        "fo",
        "ot"
      ],
      [
        "bug",
        "s"
      ],
      [
        "ce",
        "le"
      ],
      [
        "vill",
        "age"
      ],
      [
        "re",
        "mind"
      ],
      [
        "wr",
        "ite"
      ],
      [
        "so",
        "l"
      ],
      [
        "a",
        "tor"
      ],
      [
        "build",
        "ing"
      ],
      [
        "see",
        "k"
      ],
      [
        "cou",
        "ch"
      ],
      [
        "d",
        "en"
      ],
      [
        "sp",
        "it"
      ],
      [
        "cra",
        "b"
      ],
      [
        "wo",
        "re"
      ],
      [
        "smo",
        "oth"
      ],
      [
        "ch",
        "ased"
      ],
      [
        "fr",
        "ed"
      ],
      [
        "treat",
        "s"
      ],
      [
        "pl",
        "ant"
      ],
      [
        "ig",
        "hed"
      ],
      [
        "tri",
        "p"
      ],
      [
        "ble",
        "w"
      ],
      [
        "ca",
        "ge"
      ],
      [
        "em",
        "bar"
      ],
      [
        "pa",
        "w"
      ],
      [
        "po",
        "li"
      ],
      [
        "embar",
        "r"
      ],
      [
        "wait",
        "ing"
      ],
      [
        "st",
        "ir"
      ],
      [
        "po",
        "ol"
      ],
      [
        "hid",
        "ing"
      ],
      [
        "ke",
        "ts"
      ],
      [
        "sha",
        "ke"
      ],
      [
        "k",
        "nee"
      ],
      [
        "pudd",
        "le"
      ],
      [
        "prin",
        "ce"
      ],
      [
        "neck",
        "lace"
      ],
      [
        "chocol",
        "ate"
      ],
      [
        "song",
        "s"
      ],
      [
        "embarr",
        "ass"
      ],
      [
        "self",
        "ish"
      ],
      [
        "c",
        "ur"
      ],
      [
        "c",
        "ross"
      ],
      [
        "h",
        "um"
      ],
      [
        "can",
        "not"
      ],
      [
        "ban",
        "an"
      ],
      [
        "tru",
        "st"
      ],
      [
        "clo",
        "th"
      ],
      [
        "tas",
        "te"
      ],
      [
        "sa",
        "ck"
      ],
      [
        "ul",
        "t"
      ],
      [
        "le",
        "af"
      ],
      [
        "l",
        "ves"
      ],
      [
        "sp",
        "ray"
      ],
      [
        "y",
        "e"
      ],
      [
        "ra",
        "g"
      ],
      [
        "bu",
        "s"
      ],
      [
        "lar",
        "ge"
      ],
      [
        "k",
        "in"
      ],
      [
        "st",
        "ra"
      ],
      [
        "tid",
        "y"
      ],
      [
        "fix",
        "ed"
      ],
      [
        "bar",
        "ked"
      ],
      [
        "cele",
        "br"
      ],
      [
        "col",
        "our"
      ],
      [
        "car",
        "rot"
      ],
      [
        "l",
        "ine"
      ],
      [
        "cor",
        "d"
      ],
      [
        "coun",
        "t"
      ],
      [
        "pe",
        "e"
      ],
      [
        "h",
        "one"
      ],
      [
        "as",
        "ha"
      ],
      [
        "i",
        "pped"
      ],
      [
        "ump",
        "y"
      ],
      [
        "mo",
        "on"
      ],
      [
        "ro",
        "bot"
      ],
      [
        "o",
        "in"
      ],
      [
        "mm",
        "er"
      ],
      [
        "œ",
        "i"
      ],
      [
        "j",
        "ung"
      ],
      [
        "de",
        "ter"
      ],
      [
        "whis",
        "tle"
      ],
      [
        "t",
        "ie"
      ],
      [
        "jung",
        "le"
      ],
      [
        "john",
        "ny"
      ],
      [
        "z",
        "a"
      ],
      [
        "hone",
        "st"
      ],
      [
        "ro",
        "ts"
      ],
      [
        "mis",
        "sed"
      ],
      [
        "sh",
        "irt"
      ],
      [
        "al",
        "ice"
      ],
      [
        "s",
        "up"
      ],
      [
        "ca",
        "pe"
      ],
      [
        "jump",
        "ing"
      ],
      [
        "gr",
        "ay"
      ],
      [
        "kis",
        "s"
      ],
      [
        "embarrass",
        "ed"
      ],
      [
        "for",
        "ward"
      ],
      [
        "land",
        "ed"
      ],
      [
        "me",
        "et"
      ],
      [
        "app",
        "oin"
      ],
      [
        "dec",
        "or"
      ],
      [
        "kit",
        "ten"
      ],
      [
        "stick",
        "s"
      ],
      [
        "re",
        "x"
      ],
      [
        "t",
        "v"
      ],
      [
        "prot",
        "ect"
      ],
      [
        "po",
        "lit"
      ],
      [
        "jo",
        "g"
      ],
      [
        "dis",
        "appoin"
      ],
      [
        "hear",
        "s"
      ],
      [
        "her",
        "o"
      ],
      [
        "suc",
        "cess"
      ],
      [
        "car",
        "rots"
      ],
      [
        "cle",
        "ar"
      ],
      [
        "creat",
        "ive"
      ],
      [
        "polit",
        "e"
      ],
      [
        "co",
        "p"
      ],
      [
        "me",
        "ad"
      ],
      [
        "kno",
        "cked"
      ],
      [
        "mead",
        "ow"
      ],
      [
        "s",
        "our"
      ],
      [
        "al",
        "most"
      ],
      [
        "brea",
        "th"
      ],
      [
        "ve",
        "ge"
      ],
      [
        "vege",
        "table"
      ],
      [
        "g",
        "low"
      ],
      [
        "bru",
        "sh"
      ],
      [
        "g",
        "as"
      ],
      [
        "m",
        "ic"
      ],
      [
        "end",
        "ing"
      ],
      [
        "le",
        "gs"
      ],
      [
        "s",
        "cre"
      ],
      [
        "em",
        "p"
      ],
      [
        "pl",
        "ate"
      ],
      [
        "tight",
        "ly"
      ],
      [
        "p",
        "in"
      ],
      [
        "asha",
        "med"
      ],
      [
        "el",
        "ly"
      ],
      [
        "le",
        "mon"
      ],
      [
        "pil",
        "low"
      ],
      [
        "me",
        "ant"
      ],
      [
        "emp",
        "ty"
      ],
      [
        "gre",
        "w"
      ],
      [
        "sa",
        "u"
      ],
      [
        "tell",
        "s"
      ],
      [
        "go",
        "ld"
      ],
      [
        "she",
        "ep"
      ],
      [
        "stair",
        "s"
      ],
      [
        "under",
        "stood"
      ],
      [
        "cou",
        "ra"
      ],
      [
        "an",
        "k"
      ],
      [
        "car",
        "ried"
      ],
      [
        "h",
        "ours"
      ],
      [
        "p",
        "ay"
      ],
      [
        "j",
        "am"
      ],
      [
        "wit",
        "ch"
      ],
      [
        "yel",
        "led"
      ],
      [
        "disappoin",
        "ted"
      ],
      [
        "sa",
        "ve"
      ],
      [
        "poli",
        "ce"
      ],
      [
        "w",
        "arn"
      ],
      [
        "no",
        "ds"
      ],
      [
        "snack",
        "s"
      ],
      [
        "v",
        "ous"
      ],
      [
        "thank",
        "ful"
      ],
      [
        "fru",
        "str"
      ],
      [
        "le",
        "o"
      ],
      [
        "blo",
        "ck"
      ],
      [
        "che",
        "w"
      ],
      [
        "r",
        "ad"
      ],
      [
        "je",
        "wel"
      ],
      [
        "spark",
        "ly"
      ],
      [
        "ho",
        "spit"
      ],
      [
        "hospit",
        "al"
      ],
      [
        "b",
        "at"
      ],
      [
        "p",
        "iz"
      ],
      [
        "po",
        "or"
      ],
      [
        "ge",
        "ts"
      ],
      [
        "stand",
        "ing"
      ],
      [
        "v",
        "an"
      ],
      [
        "k",
        "en"
      ],
      [
        "le",
        "ta"
      ],
      [
        "u",
        "su"
      ],
      [
        "wo",
        "lf"
      ],
      [
        "know",
        "ing"
      ],
      [
        "t",
        "ic"
      ],
      [
        "fli",
        "es"
      ],
      [
        "eas",
        "y"
      ],
      [
        "bor",
        "ed"
      ],
      [
        "se",
        "ed"
      ],
      [
        "hid",
        "den"
      ],
      [
        "gen",
        "erous"
      ],
      [
        "p",
        "ri"
      ],
      [
        "ta",
        "ught"
      ],
      [
        "din",
        "o"
      ],
      [
        "b",
        "low"
      ],
      [
        "j",
        "elly"
      ],
      [
        "scar",
        "f"
      ],
      [
        "plan",
        "ts"
      ],
      [
        "gr",
        "oup"
      ],
      [
        "minut",
        "es"
      ],
      [
        "g",
        "un"
      ],
      [
        "re",
        "turned"
      ],
      [
        "n",
        "i"
      ],
      [
        "myster",
        "ious"
      ],
      [
        "wave",
        "s"
      ],
      [
        "bed",
        "room"
      ],
      [
        "piz",
        "za"
      ],
      [
        "sa",
        "ge"
      ],
      [
        "p",
        "ir"
      ],
      [
        "s",
        "ighed"
      ],
      [
        "sp",
        "icy"
      ],
      [
        "frustr",
        "ated"
      ],
      [
        "fe",
        "ar"
      ],
      [
        "fing",
        "er"
      ],
      [
        "f",
        "la"
      ],
      [
        "m",
        "ined"
      ],
      [
        "deter",
        "mined"
      ],
      [
        "su",
        "sie"
      ],
      [
        "pow",
        "erful"
      ],
      [
        "puzz",
        "le"
      ],
      [
        "t",
        "ro"
      ],
      [
        "sleep",
        "y"
      ],
      [
        "f",
        "ig"
      ],
      [
        "ball",
        "s"
      ],
      [
        "d",
        "le"
      ],
      [
        "m",
        "id"
      ],
      [
        "dre",
        "w"
      ],
      [
        "sandwi",
        "ch"
      ],
      [
        "for",
        "m"
      ],
      [
        "not",
        "e"
      ],
      [
        "sho",
        "re"
      ],
      [
        "pass",
        "ed"
      ],
      [
        "gr",
        "umpy"
      ],
      [
        "spo",
        "il"
      ],
      [
        "pack",
        "ed"
      ],
      [
        "fan",
        "cy"
      ],
      [
        "keep",
        "er"
      ],
      [
        "br",
        "idge"
      ],
      [
        "ner",
        "vous"
      ],
      [
        "it",
        "a"
      ],
      [
        "mess",
        "y"
      ],
      [
        "fe",
        "ed"
      ],
      [
        "te",
        "ars"
      ],
      [
        "t",
        "we"
      ],
      [
        "sa",
        "ur"
      ],
      [
        "c",
        "r"
      ],
      [
        "g",
        "ate"
      ],
      [
        "cat",
        "er"
      ],
      [
        "cater",
        "pill"
      ],
      [
        "twe",
        "et"
      ],
      [
        "so",
        "ld"
      ],
      [
        "kis",
        "sed"
      ],
      [
        "clo",
        "set"
      ],
      [
        "wor",
        "king"
      ],
      [
        "li",
        "z"
      ],
      [
        "ber",
        "ry"
      ],
      [
        "exc",
        "ite"
      ],
      [
        "dino",
        "saur"
      ],
      [
        "b",
        "ul"
      ],
      [
        "gather",
        "ed"
      ],
      [
        "fl",
        "ag"
      ],
      [
        "bubb",
        "les"
      ],
      [
        "c",
        "ase"
      ],
      [
        "sc",
        "is"
      ],
      [
        "scis",
        "sor"
      ],
      [
        "whis",
        "per"
      ],
      [
        "p",
        "as"
      ],
      [
        "your",
        "self"
      ],
      [
        "scissor",
        "s"
      ],
      [
        "che",
        "st"
      ],
      [
        "wee",
        "k"
      ],
      [
        "answ",
        "ered"
      ],
      [
        "t",
        "ig"
      ],
      [
        "of",
        "ten"
      ],
      [
        "c",
        "ries"
      ],
      [
        "ug",
        "ly"
      ],
      [
        "f",
        "re"
      ],
      [
        "ho",
        "pping"
      ],
      [
        "tw",
        "irl"
      ],
      [
        "de",
        "er"
      ],
      [
        "li",
        "f"
      ],
      [
        "to",
        "wel"
      ],
      [
        "c",
        "and"
      ],
      [
        "colle",
        "ct"
      ],
      [
        "s",
        "on"
      ],
      [
        "f",
        "il"
      ],
      [
        "caterpill",
        "ar"
      ],
      [
        "ens",
        "ive"
      ],
      [
        "exp",
        "ensive"
      ],
      [
        "excite",
        "ment"
      ],
      [
        "el",
        "la"
      ],
      [
        "sp",
        "ace"
      ],
      [
        "wa",
        "ke"
      ],
      [
        "ta",
        "ken"
      ],
      [
        "mid",
        "dle"
      ],
      [
        "f",
        "u"
      ],
      [
        "sa",
        "ved"
      ],
      [
        "le",
        "g"
      ],
      [
        "er",
        "a"
      ],
      [
        "ign",
        "or"
      ],
      [
        "b",
        "ill"
      ],
      [
        "fa",
        "ther"
      ],
      [
        "cl",
        "ass"
      ],
      [
        "wag",
        "ged"
      ],
      [
        "c",
        "rown"
      ],
      [
        "ple",
        "ased"
      ],
      [
        "kno",
        "wn"
      ],
      [
        "bo",
        "ss"
      ],
      [
        "p",
        "ec"
      ],
      [
        "pick",
        "s"
      ],
      [
        "bor",
        "ing"
      ],
      [
        "pe",
        "te"
      ],
      [
        "fin",
        "e"
      ],
      [
        "bob",
        "by"
      ],
      [
        "pa",
        "ir"
      ],
      [
        "as",
        "king"
      ],
      [
        "ast",
        "ic"
      ],
      [
        "v",
        "ase"
      ],
      [
        "sug",
        "ar"
      ],
      [
        "r",
        "or"
      ],
      [
        "que",
        "en"
      ],
      [
        "i",
        "ally"
      ],
      [
        "li",
        "cked"
      ],
      [
        "dan",
        "cing"
      ],
      [
        "vegetable",
        "s"
      ],
      [
        "gl",
        "ass"
      ],
      [
        "n",
        "umber"
      ],
      [
        "e",
        "ld"
      ],
      [
        "ch",
        "ange"
      ],
      [
        "ran",
        "k"
      ],
      [
        "gigg",
        "led"
      ],
      [
        "al",
        "low"
      ],
      [
        "ro",
        "cket"
      ],
      [
        "es",
        "pec"
      ],
      [
        "espec",
        "ially"
      ],
      [
        "clo",
        "wn"
      ],
      [
        "mis",
        "take"
      ],
      [
        "n",
        "ed"
      ],
      [
        "fl",
        "ut"
      ],
      [
        "ne",
        "l"
      ],
      [
        "ly",
        "ing"
      ],
      [
        "ill",
        "ed"
      ],
      [
        "stu",
        "ff"
      ],
      [
        "y",
        "o"
      ],
      [
        "usu",
        "al"
      ],
      [
        "ex",
        "am"
      ],
      [
        "med",
        "ic"
      ],
      [
        "k",
        "night"
      ],
      [
        "sweet",
        "ie"
      ],
      [
        "mo",
        "ving"
      ],
      [
        "s",
        "ight"
      ],
      [
        "fa",
        "ke"
      ],
      [
        "at",
        "es"
      ],
      [
        "so",
        "ar"
      ],
      [
        "fru",
        "its"
      ],
      [
        "w",
        "ip"
      ],
      [
        "c",
        "ri"
      ],
      [
        "dr",
        "um"
      ],
      [
        "ir",
        "d"
      ],
      [
        "m",
        "andy"
      ],
      [
        "boy",
        "s"
      ],
      [
        "eg",
        "gs"
      ],
      [
        "g",
        "lue"
      ],
      [
        "bo",
        "o"
      ],
      [
        "medic",
        "ine"
      ],
      [
        "lo",
        "cked"
      ],
      [
        "walk",
        "s"
      ],
      [
        "dist",
        "ance"
      ],
      [
        "pr",
        "ay"
      ],
      [
        "draw",
        "ing"
      ],
      [
        "b",
        "one"
      ],
      [
        "ba",
        "ke"
      ],
      [
        "in",
        "ess"
      ],
      [
        "dog",
        "s"
      ],
      [
        "pain",
        "ting"
      ],
      [
        "spl",
        "ashed"
      ],
      [
        "yo",
        "g"
      ],
      [
        "le",
        "ad"
      ],
      [
        "r",
        "id"
      ],
      [
        "smel",
        "ly"
      ],
      [
        "y",
        "al"
      ],
      [
        "dis",
        "appeared"
      ],
      [
        "ch",
        "ir"
      ],
      [
        "feather",
        "s"
      ],
      [
        "mat",
        "ch"
      ],
      [
        "be",
        "come"
      ],
      [
        "ca",
        "p"
      ],
      [
        "mom",
        "s"
      ],
      [
        "or",
        "der"
      ],
      [
        "a",
        "unt"
      ],
      [
        "st",
        "ing"
      ],
      [
        "la",
        "zy"
      ],
      [
        "eld",
        "erly"
      ],
      [
        "lo",
        "se"
      ],
      [
        "thank",
        "s"
      ],
      [
        "call",
        "ing"
      ],
      [
        "pen",
        "ny"
      ],
      [
        "ag",
        "ed"
      ],
      [
        "play",
        "ground"
      ],
      [
        "bath",
        "room"
      ],
      [
        "to",
        "es"
      ],
      [
        "inc",
        "red"
      ],
      [
        "to",
        "ry"
      ],
      [
        "mir",
        "ror"
      ],
      [
        "we",
        "ak"
      ],
      [
        "?\"",
        "."
      ],
      [
        "do",
        "l"
      ],
      [
        "hor",
        "n"
      ],
      [
        "your",
        "s"
      ],
      [
        "quest",
        "ions"
      ],
      [
        "w",
        "ro"
      ],
      [
        "wro",
        "te"
      ],
      [
        "lo",
        "yal"
      ],
      [
        "no",
        "isy"
      ],
      [
        "no",
        "d"
      ],
      [
        "el",
        "lie"
      ],
      [
        "sug",
        "gest"
      ],
      [
        "dol",
        "ph"
      ],
      [
        "tig",
        "er"
      ],
      [
        "che",
        "ck"
      ],
      [
        "eag",
        "er"
      ],
      [
        "sk",
        "ipped"
      ],
      [
        "le",
        "a"
      ],
      [
        "d",
        "ish"
      ],
      [
        "l",
        "amp"
      ],
      [
        "se",
        "ll"
      ],
      [
        "gi",
        "ving"
      ],
      [
        "fam",
        "ous"
      ],
      [
        "ta",
        "pe"
      ],
      [
        "re",
        "la"
      ],
      [
        "z",
        "ed"
      ],
      [
        "bel",
        "la"
      ],
      [
        "r",
        "are"
      ],
      [
        "stone",
        "s"
      ],
      [
        "d",
        "ig"
      ],
      [
        "rela",
        "x"
      ],
      [
        "so",
        "ap"
      ],
      [
        "ru",
        "ined"
      ],
      [
        "incred",
        "ible"
      ],
      [
        "fig",
        "ure"
      ],
      [
        "s",
        "wan"
      ],
      [
        "d",
        "rank"
      ],
      [
        "tu",
        "b"
      ],
      [
        "il",
        "li"
      ],
      [
        "show",
        "s"
      ],
      [
        "ju",
        "icy"
      ],
      [
        "iz",
        "zy"
      ],
      [
        "me",
        "asure"
      ],
      [
        "ch",
        "ang"
      ],
      [
        "te",
        "am"
      ],
      [
        "it",
        "ch"
      ],
      [
        "c",
        "her"
      ],
      [
        "th",
        "ose"
      ],
      [
        "sail",
        "ed"
      ],
      [
        "com",
        "p"
      ],
      [
        "sho",
        "ot"
      ],
      [
        "stra",
        "w"
      ],
      [
        "mo",
        "tor"
      ],
      [
        "dec",
        "ide"
      ],
      [
        "pp",
        "o"
      ],
      [
        "real",
        "ised"
      ],
      [
        "umb",
        "led"
      ],
      [
        "dis",
        "covered"
      ],
      [
        "tur",
        "tle"
      ],
      [
        "g",
        "ing"
      ],
      [
        "bor",
        "row"
      ],
      [
        "coin",
        "s"
      ],
      [
        "t",
        "ag"
      ],
      [
        "need",
        "s"
      ],
      [
        "mic",
        "ro"
      ],
      [
        "w",
        "ha"
      ],
      [
        "advent",
        "ur"
      ],
      [
        "chick",
        "en"
      ],
      [
        "as",
        "er"
      ],
      [
        "f",
        "ic"
      ],
      [
        "a",
        "u"
      ],
      [
        "bal",
        "ance"
      ],
      [
        "ex",
        "tra"
      ],
      [
        "clean",
        "ed"
      ],
      [
        "bran",
        "ches"
      ],
      [
        "run",
        "k"
      ],
      [
        "us",
        "ing"
      ],
      [
        "as",
        "ing"
      ],
      [
        "ate",
        "ly"
      ],
      [
        "might",
        "y"
      ],
      [
        "e",
        "ye"
      ],
      [
        "b",
        "arn"
      ],
      [
        "con",
        "tent"
      ],
      [
        "adventur",
        "ous"
      ],
      [
        "l",
        "id"
      ],
      [
        "dif",
        "fic"
      ],
      [
        "at",
        "ing"
      ],
      [
        "sad",
        "ly"
      ],
      [
        "off",
        "ered"
      ],
      [
        "c",
        "ro"
      ],
      [
        "dolph",
        "in"
      ],
      [
        "colour",
        "ful"
      ],
      [
        "lif",
        "ted"
      ],
      [
        "organ",
        "ized"
      ],
      [
        "sn",
        "ugg"
      ],
      [
        "ma",
        "p"
      ],
      [
        "fro",
        "wn"
      ],
      [
        "v",
        "ide"
      ],
      [
        "fl",
        "ash"
      ],
      [
        "to",
        "ug"
      ],
      [
        "s",
        "il"
      ],
      [
        "bo",
        "bo"
      ],
      [
        "ch",
        "ase"
      ],
      [
        "diffic",
        "ult"
      ],
      [
        "en",
        "g"
      ],
      [
        "uni",
        "que"
      ],
      [
        "che",
        "erful"
      ],
      [
        "z",
        "ip"
      ],
      [
        "bot",
        "tom"
      ],
      [
        "se",
        "lves"
      ],
      [
        "th",
        "ick"
      ],
      [
        "gu",
        "e"
      ],
      [
        "je",
        "al"
      ],
      [
        "jeal",
        "ous"
      ],
      [
        "is",
        "land"
      ],
      [
        "fri",
        "ght"
      ],
      [
        "happen",
        "ing"
      ],
      [
        "k",
        "ni"
      ],
      [
        "kni",
        "fe"
      ],
      [
        "learn",
        "ing"
      ],
      [
        "ho",
        "se"
      ],
      [
        "c",
        "il"
      ],
      [
        "smo",
        "ke"
      ],
      [
        "wra",
        "pped"
      ],
      [
        "mr",
        "s"
      ],
      [
        "kind",
        "ness"
      ],
      [
        "we",
        "ird"
      ],
      [
        "f",
        "our"
      ],
      [
        "er",
        "o"
      ],
      [
        "an",
        "ts"
      ],
      [
        "g",
        "ara"
      ],
      [
        "gara",
        "ge"
      ],
      [
        "t",
        "wee"
      ],
      [
        "man",
        "aged"
      ],
      [
        "v",
        "i"
      ],
      [
        "ad",
        "o"
      ],
      [
        "pen",
        "cil"
      ],
      [
        "hur",
        "ts"
      ],
      [
        "im",
        "ed"
      ],
      [
        "sque",
        "e"
      ],
      [
        "d",
        "ave"
      ],
      [
        "ear",
        "s"
      ],
      [
        "un",
        "cle"
      ],
      [
        "bal",
        "d"
      ],
      [
        "sear",
        "ch"
      ],
      [
        "craw",
        "led"
      ],
      [
        "say",
        "ing"
      ],
      [
        "ballo",
        "ons"
      ],
      [
        "co",
        "co"
      ],
      [
        "toug",
        "h"
      ],
      [
        "me",
        "al"
      ],
      [
        "m",
        "en"
      ],
      [
        "d",
        "izzy"
      ],
      [
        "st",
        "ri"
      ],
      [
        "ve",
        "st"
      ],
      [
        "gu",
        "ess"
      ],
      [
        "poin",
        "ting"
      ],
      [
        "a",
        "po"
      ],
      [
        "mar",
        "ket"
      ],
      [
        "p",
        "al"
      ],
      [
        "fav",
        "our"
      ],
      [
        "add",
        "ed"
      ],
      [
        "bat",
        "ter"
      ],
      [
        "swe",
        "e"
      ],
      [
        "wha",
        "le"
      ],
      [
        "loud",
        "er"
      ],
      [
        "twee",
        "ty"
      ],
      [
        "apo",
        "log"
      ],
      [
        "p",
        "ump"
      ],
      [
        "success",
        "ful"
      ],
      [
        "gu",
        "it"
      ],
      [
        "n",
        "orm"
      ],
      [
        "ed",
        "ge"
      ],
      [
        "har",
        "der"
      ],
      [
        "sp",
        "un"
      ],
      [
        "al",
        "ready"
      ],
      [
        "bird",
        "ie"
      ],
      [
        "li",
        "ft"
      ],
      [
        "li",
        "br"
      ],
      [
        "un",
        "usual"
      ],
      [
        "bu",
        "zz"
      ],
      [
        "ag",
        "ree"
      ],
      [
        "favour",
        "ite"
      ],
      [
        "enjoy",
        "ing"
      ],
      [
        "hat",
        "s"
      ],
      [
        "re",
        "cord"
      ],
      [
        "coura",
        "ge"
      ],
      [
        "ter",
        "ri"
      ],
      [
        "tru",
        "cks"
      ],
      [
        "belong",
        "ed"
      ],
      [
        "box",
        "es"
      ],
      [
        "impress",
        "ed"
      ],
      [
        "c",
        "ity"
      ],
      [
        "g",
        "rown"
      ],
      [
        "y",
        "ell"
      ],
      [
        "excited",
        "ly"
      ],
      [
        "t",
        "runk"
      ],
      [
        "banan",
        "a"
      ],
      [
        "dd",
        "y"
      ],
      [
        "a",
        "il"
      ],
      [
        "s",
        "word"
      ],
      [
        "norm",
        "al"
      ],
      [
        "sha",
        "dow"
      ],
      [
        "cho",
        "ose"
      ],
      [
        "so",
        "ph"
      ],
      [
        "laugh",
        "s"
      ],
      [
        "br",
        "illi"
      ],
      [
        "boss",
        "y"
      ],
      [
        "b",
        "by"
      ],
      [
        "guit",
        "ar"
      ],
      [
        "boun",
        "ce"
      ],
      [
        "loud",
        "ly"
      ],
      [
        "er",
        "t"
      ],
      [
        "s",
        "care"
      ],
      [
        "brilli",
        "ant"
      ],
      [
        "go",
        "at"
      ],
      [
        "proud",
        "ly"
      ],
      [
        "su",
        "it"
      ],
      [
        "c",
        "ab"
      ],
      [
        "dream",
        "ed"
      ],
      [
        "stu",
        "bb"
      ],
      [
        "button",
        "s"
      ],
      [
        "circle",
        "s"
      ],
      [
        "sk",
        "in"
      ],
      [
        "es",
        "cape"
      ],
      [
        "an",
        "c"
      ],
      [
        "il",
        "t"
      ],
      [
        "brother",
        "s"
      ],
      [
        "at",
        "ure"
      ],
      [
        "fo",
        "ol"
      ],
      [
        "fright",
        "ened"
      ],
      [
        "again",
        "st"
      ],
      [
        "inv",
        "ited"
      ],
      [
        "stre",
        "am"
      ],
      [
        "o",
        "bed"
      ],
      [
        "to",
        "ma"
      ],
      [
        "help",
        "s"
      ],
      [
        "ac",
        "ce"
      ],
      [
        "cu",
        "dd"
      ],
      [
        "happ",
        "iness"
      ],
      [
        "p",
        "ort"
      ],
      [
        "fi",
        "er"
      ],
      [
        "stu",
        "dy"
      ],
      [
        "anc",
        "ient"
      ],
      [
        "d",
        "epend"
      ],
      [
        "mean",
        "s"
      ],
      [
        "safe",
        "ly"
      ],
      [
        "lo",
        "la"
      ],
      [
        "s",
        "nee"
      ],
      [
        "cl",
        "ay"
      ],
      [
        "valu",
        "able"
      ],
      [
        "stubb",
        "orn"
      ],
      [
        "sli",
        "pped"
      ],
      [
        "st",
        "ru"
      ],
      [
        "r",
        "h"
      ],
      [
        "shar",
        "k"
      ],
      [
        "blo",
        "om"
      ],
      [
        "cray",
        "on"
      ],
      [
        "break",
        "fast"
      ],
      [
        "dream",
        "s"
      ],
      [
        "wall",
        "s"
      ],
      [
        "pump",
        "kin"
      ],
      [
        "grace",
        "ful"
      ],
      [
        "light",
        "s"
      ],
      [
        "cla",
        "p"
      ],
      [
        "obed",
        "ient"
      ],
      [
        "le",
        "an"
      ],
      [
        "fool",
        "ish"
      ],
      [
        "s",
        "ca"
      ],
      [
        "in",
        "ation"
      ],
      [
        "fall",
        "s"
      ],
      [
        "or",
        "ge"
      ],
      [
        "know",
        "s"
      ],
      [
        "not",
        "ice"
      ],
      [
        "fier",
        "ce"
      ],
      [
        "ac",
        "ed"
      ],
      [
        "fr",
        "idge"
      ],
      [
        "ne",
        "mo"
      ],
      [
        "sha",
        "pe"
      ],
      [
        "cab",
        "in"
      ],
      [
        "f",
        "at"
      ],
      [
        "nice",
        "ly"
      ],
      [
        "house",
        "s"
      ],
      [
        "j",
        "ac"
      ],
      [
        "ange",
        "l"
      ],
      [
        "har",
        "m"
      ],
      [
        "no",
        "sy"
      ],
      [
        "de",
        "ad"
      ],
      [
        "mo",
        "vie"
      ],
      [
        "off",
        "ice"
      ],
      [
        "delic",
        "ate"
      ],
      [
        "des",
        "ign"
      ],
      [
        "com",
        "pet"
      ],
      [
        "st",
        "y"
      ],
      [
        "exc",
        "la"
      ],
      [
        "suggest",
        "ed"
      ],
      [
        "wag",
        "on"
      ],
      [
        "shell",
        "s"
      ],
      [
        "rubb",
        "ed"
      ],
      [
        "excla",
        "imed"
      ],
      [
        "compet",
        "it"
      ],
      [
        "f",
        "rag"
      ],
      [
        "cra",
        "ck"
      ],
      [
        "kind",
        "s"
      ],
      [
        "mix",
        "ed"
      ],
      [
        "use",
        "ful"
      ],
      [
        "wip",
        "ed"
      ],
      [
        "eg",
        "g"
      ],
      [
        "car",
        "t"
      ],
      [
        "pour",
        "ed"
      ],
      [
        "thought",
        "ful"
      ],
      [
        "tool",
        "s"
      ],
      [
        "pat",
        "ch"
      ],
      [
        "clo",
        "ck"
      ],
      [
        "sto",
        "ve"
      ],
      [
        "sound",
        "ed"
      ],
      [
        "explo",
        "red"
      ],
      [
        "play",
        "ful"
      ],
      [
        "p",
        "i"
      ],
      [
        "h",
        "un"
      ],
      [
        "duck",
        "y"
      ],
      [
        "d",
        "ough"
      ],
      [
        "sa",
        "l"
      ],
      [
        "ge",
        "orge"
      ],
      [
        "prin",
        "t"
      ],
      [
        "!\"",
        "."
      ],
      [
        "rad",
        "i"
      ],
      [
        "we",
        "al"
      ],
      [
        "bag",
        "s"
      ],
      [
        "fre",
        "sh"
      ],
      [
        "a",
        "bo"
      ],
      [
        "v",
        "ice"
      ],
      [
        "abo",
        "ve"
      ],
      [
        "f",
        "ountain"
      ],
      [
        "gu",
        "ard"
      ],
      [
        "spoil",
        "ed"
      ],
      [
        "d",
        "om"
      ],
      [
        "le",
        "e"
      ],
      [
        "m",
        "es"
      ],
      [
        "frag",
        "ile"
      ],
      [
        "show",
        "ing"
      ],
      [
        "them",
        "selves"
      ],
      [
        "chang",
        "ed"
      ],
      [
        "st",
        "umbled"
      ],
      [
        "c",
        "am"
      ],
      [
        "bu",
        "shes"
      ],
      [
        "res",
        "cu"
      ],
      [
        "la",
        "w"
      ],
      [
        "be",
        "es"
      ],
      [
        "ind",
        "epend"
      ],
      [
        "ro",
        "be"
      ],
      [
        "ru",
        "b"
      ],
      [
        "fing",
        "ers"
      ],
      [
        "spin",
        "ning"
      ],
      [
        "depend",
        "able"
      ],
      [
        "sc",
        "rat"
      ],
      [
        "small",
        "er"
      ],
      [
        "igh",
        "ted"
      ],
      [
        "ar",
        "row"
      ],
      [
        "d",
        "ge"
      ],
      [
        "b",
        "led"
      ],
      [
        "or",
        "ig"
      ],
      [
        "w",
        "ing"
      ],
      [
        "ro",
        "of"
      ],
      [
        "jo",
        "lly"
      ],
      [
        "ste",
        "al"
      ],
      [
        "pract",
        "ice"
      ],
      [
        "ra",
        "ced"
      ],
      [
        "o",
        "c"
      ],
      [
        "del",
        "ighted"
      ],
      [
        "te",
        "le"
      ],
      [
        "bu",
        "ilt"
      ],
      [
        "see",
        "m"
      ],
      [
        "ear",
        "th"
      ],
      [
        "ro",
        "de"
      ],
      [
        "bright",
        "ly"
      ],
      [
        "ge",
        "m"
      ],
      [
        "hand",
        "ed"
      ],
      [
        "orm",
        "ous"
      ],
      [
        "en",
        "ormous"
      ],
      [
        "orig",
        "in"
      ],
      [
        "ac",
        "orn"
      ],
      [
        "ad",
        "m"
      ],
      [
        "clean",
        "ing"
      ],
      [
        "cu",
        "be"
      ],
      [
        "be",
        "ep"
      ],
      [
        "adm",
        "ired"
      ],
      [
        "n",
        "ur"
      ],
      [
        "tw",
        "ig"
      ],
      [
        "coun",
        "ted"
      ],
      [
        "kick",
        "ed"
      ],
      [
        "to",
        "by"
      ],
      [
        "mi",
        "ke"
      ],
      [
        "sau",
        "ce"
      ],
      [
        "re",
        "g"
      ],
      [
        "be",
        "an"
      ],
      [
        "bit",
        "ter"
      ],
      [
        "sn",
        "if"
      ],
      [
        "origin",
        "al"
      ],
      [
        "ter",
        "ed"
      ],
      [
        "l",
        "li"
      ],
      [
        "ur",
        "ed"
      ],
      [
        "sh",
        "one"
      ],
      [
        "pop",
        "corn"
      ],
      [
        "mem",
        "or"
      ],
      [
        "remind",
        "ed"
      ],
      [
        "ha",
        "mmer"
      ],
      [
        "don",
        "a"
      ],
      [
        "sol",
        "ve"
      ],
      [
        "del",
        "ight"
      ],
      [
        "bea",
        "k"
      ],
      [
        "ho",
        "op"
      ],
      [
        "lo",
        "lli"
      ],
      [
        "g",
        "um"
      ],
      [
        "wra",
        "p"
      ],
      [
        "do",
        "ve"
      ],
      [
        "par",
        "rot"
      ],
      [
        "independ",
        "ent"
      ],
      [
        "whisper",
        "ed"
      ],
      [
        "w",
        "ards"
      ],
      [
        "y",
        "et"
      ],
      [
        "y",
        "uck"
      ],
      [
        "c",
        "one"
      ],
      [
        "ser",
        "ious"
      ],
      [
        "cho",
        "se"
      ],
      [
        "an",
        "ut"
      ],
      [
        "pe",
        "anut"
      ],
      [
        "po",
        "st"
      ],
      [
        "tun",
        "nel"
      ],
      [
        "allow",
        "ed"
      ],
      [
        "hair",
        "y"
      ],
      [
        "sp",
        "ring"
      ],
      [
        "boat",
        "s"
      ],
[...]
